<unk>	0
<|endoftext|>	0
▁t	-0
he	-1
▁a	-2
in	-3
▁s	-4
▁w	-5
re	-6
▁o	-7
ou	-8
ha	-9
▁the	-10
er	-11
nd	-12
▁b	-13
▁m	-14
it	-15
▁to	-16
en	-17
is	-18
on	-19
ed	-20
▁c	-21
▁f	-22
ing	-23
▁he	-24
▁of	-25
▁and	-26
or	-27
▁n	-28
▁d	-29
▁be	-30
ll	-31
as	-32
▁ha	-33
ar	-34
▁in	-35
▁p	-36
▁h	-37
an	-38
le	-39
at	-40
ot	-41
▁her	-42
om	-43
es	-44
▁I	-45
▁e	-46
ld	-47
▁was	-48
ly	-49
hat	-50
▁y	-51
ver	-52
ve	-53
▁l	-54
▁g	-55
st	-56
▁not	-57
ion	-58
ce	-59
▁you	-60
se	-61
▁M	-62
ent	-63
ch	-64
ut	-65
▁it	-66
im	-67
▁re	-68
gh	-69
ow	-70
▁"	-71
▁th	-72
ould	-73
▁she	-74
▁as	-75
▁for	-76
▁that	-77
ith	-78
id	-79
ay	-80
▁on	-81
ir	-82
et	-83
▁had	-84
her	-85
▁with	-86
ct	-87
▁an	-88
▁wh	-89
▁su	-90
al	-91
▁we	-92
▁u	-93
▁at	-94
ght	-95
ri	-96
▁his	-97
very	-98
▁so	-99
▁Mr	-100
▁have	-101
ter	-102
--	-103
ad	-104
ill	-105
ro	-106
▁T	-107
▁is	-108
."	-109
ain	-110
li	-111
▁con	-112
▁him	-113
pe	-114
oo	-115
▁H	-116
▁all	-117
▁mu	-118
▁E	-119
▁S	-120
ore	-121
▁se	-122
▁but	-123
ab	-124
ur	-125
▁me	-126
qu	-127
am	-128
if	-129
▁de	-130
ation	-131
lf	-132
▁very	-133
pp	-134
▁k	-135
▁whi	-136
▁could	-137
▁C	-138
ess	-139
▁by	-140
ss	-141
▁ne	-142
▁st	-143
our	-144
▁W	-145
▁com	-146
▁my	-147
ak	-148
▁been	-149
▁would	-150
▁B	-151
▁ex	-152
rom	-153
red	-154
art	-155
▁which	-156
▁do	-157
ort	-158
ne	-159
▁no	-160
ra	-161
▁fe	-162
▁le	-163
▁were	-164
all	-165
▁sa	-166
ge	-167
self	-168
ic	-169
ul	-170
▁A	-171
▁from	-172
▁The	-173
ant	-174
han	-175
hing	-176
▁any	-177
ome	-178
est	-179
ect	-180
ight	-181
ard	-182
ood	-183
▁sh	-184
▁them	-185
▁am	-186
▁whe	-187
▁Mrs	-188
▁or	-189
ough	-190
▁they	-191
and	-192
▁al	-193
able	-194
now	-195
▁will	-196
▁dis	-197
▁more	-198
ann	-199
out	-200
ure	-201
ind	-202
▁see	-203
▁your	-204
te	-205
us	-206
▁what	-207
ate	-208
ous	-209
▁who	-210
▁must	-211
ment	-212
▁un	-213
▁than	-214
▁af	-215
▁F	-216
iss	-217
▁this	-218
▁there	-219
▁L	-220
▁their	-221
,"	-222
▁ag	-223
ance	-224
il	-225
▁She	-226
▁know	-227
▁said	-228
ong	-229
▁such	-230
▁pre	-231
▁v	-232
▁per	-233
ive	-234
▁much	-235
▁ab	-236
▁pro	-237
ather	-238
itt	-239
▁im	-240
el	-241
iv	-242
reat	-243
ity	-244
ost	-245
ther	-246
wn	-247
▁en	-248
ink	-249
other	-250
▁every	-251
▁qu	-252
▁one	-253
▁Miss	-254
nt	-255
ord	-256
ry	-257
pt	-258
▁are	-259
▁ac	-260
▁j	-261
▁think	-262
po	-263
ence	-264
▁how	-265
ert	-266
end	-267
ast	-268
ke	-269
▁part	-270
▁r	-271
▁when	-272
age	-273
▁only	-274
ite	-275
ook	-276
fore	-277
▁man	-278
▁ad	-279
▁should	-280
ond	-281
way	-282
ake	-283
ine	-284
ame	-285
▁other	-286
ady	-287
▁He	-288
▁if	-289
▁tim	-290
▁ev	-291
ol	-292
one	-293
▁J	-294
▁being	-295
ally	-296
▁own	-297
▁D	-298
▁up	-299
▁did	-300
ought	-301
alk	-302
med	-303
▁li	-304
ac	-305
ness	-306
ings	-307
are	-308
▁good	-309
▁might	-310
▁herself	-311
▁great	-312
▁po	-313
▁say	-314
▁some	-315
▁too	-316
ell	-317
▁int	-318
od	-319
▁time	-320
▁never	-321
▁now	-322
ved	-323
ittle	-324
▁ob	-325
▁little	-326
▁again	-327
arri	-328
au	-329
▁comp	-330
ag	-331
▁look	-332
▁It	-333
▁well	-334
leas	-335
▁go	-336
▁feel	-337
ru	-338
▁fri	-339
tter	-340
▁ind	-341
▁happ	-342
▁pl	-343
ire	-344
fect	-345
▁can	-346
▁before	-347
ble	-348
▁sha	-349
pect	-350
ide	-351
ound	-352
?"	-353
ress	-354
hed	-355
ving	-356
▁sp	-357
urn	-358
ng	-359
ily	-360
ward	-361
▁friend	-362
ie	-363
▁br	-364
▁soon	-365
▁has	-366
ister	-367
ouse	-368
▁wis	-369
▁ju	-370
▁sister	-371
▁But	-372
lt	-373
ful	-374
sed	-375
You	-376
▁tw	-377
▁pleas	-378
▁nothing	-379
ree	-380
ice	-381
▁most	-382
▁ho	-383
▁res	-384
ist	-385
▁N	-386
▁long	-387
▁after	-388
▁thought	-389
fe	-390
per	-391
um	-392
▁cons	-393
▁even	-394
▁without	-395
▁lo	-396
ions	-397
▁fir	-398
cy	-399
ject	-400
▁out	-401
ade	-402
▁day	-403
▁Mar	-404
▁though	-405
ious	-406
ies	-407
lin	-408
▁Th	-409
▁att	-410
ma	-411
anny	-412
▁like	-413
▁first	-414
▁may	-415
▁fa	-416
ise	-417
▁P	-418
ose	-419
th	-420
▁Fanny	-421
ever	-422
▁und	-423
▁about	-424
room	-425
ach	-426
▁spe	-427
ford	-428
ig	-429
ible	-430
raw	-431
▁rem	-432
ers	-433
▁rep	-434
oll	-435
▁young	-436
▁wor	-437
mma	-438
▁two	-439
▁into	-440
lie	-441
▁imp	-442
▁quite	-443
▁ch	-444
▁made	-445
ars	-446
▁ever	-447
▁shall	-448
su	-449
▁over	-450
ways	-451
▁R	-452
▁Emma	-453
ley	-454
ple	-455
▁make	-456
▁off	-457
▁always	-458
▁supp	-459
▁ent	-460
▁dear	-461
▁cha	-462
ody	-463
un	-464
we	-465
ount	-466
▁ar	-467
▁des	-468
ck	-469
eth	-470
▁under	-471
▁sure	-472
▁thing	-473
liz	-474
▁just	-475
led	-476
▁inc	-477
ertain	-478
▁op	-479
▁Eliz	-480
fort	-481
▁cont	-482
own	-483
iness	-484
int	-485
ced	-486
▁house	-487
▁beg	-488
abeth	-489
▁then	-490
ning	-491
▁Elizabeth	-492
em	-493
▁ret	-494
ave	-495
omet	-496
▁ap	-497
▁belie	-498
▁talk	-499
▁want	-500
▁father	-501
▁mother	-502
▁sm	-503
ps	-504
▁Mari	-505
▁himself	-506
fere	-507
▁away	-508
▁inde	-509
ace	-510
thing	-511
icul	-512
orth	-513
.--	-514
sent	-515
▁last	-516
▁Ed	-517
ran	-518
▁mom	-519
▁moment	-520
▁exp	-521
▁fam	-522
linor	-523
▁however	-524
▁acc	-525
ged	-526
ci	-527
▁You	-528
▁way	-529
ction	-530
▁Elinor	-531
cc	-532
▁give	-533
ener	-534
▁kind	-535
▁walk	-536
▁sub	-537
▁its	-538
ated	-539
▁somet	-540
get	-541
▁inte	-542
▁gr	-543
▁Sir	-544
aint	-545
▁dif	-546
ane	-547
▁room	-548
ife	-549
ary	-550
▁sat	-551
▁sc	-552
▁better	-553
▁appe	-554
▁hope	-555
▁mean	-556
ty	-557
ud	-558
▁rec	-559
▁us	-560
▁mann	-561
▁having	-562
ick	-563
▁An	-564
ared	-565
▁G	-566
!"	-567
lo	-568
ied	-569
▁felt	-570
und	-571
▁many	-572
▁Lady	-573
▁enough	-574
▁Craw	-575
▁Crawford	-576
annot	-577
atherine	-578
ention	-579
▁Catherine	-580
ens	-581
igh	-582
▁cannot	-583
ft	-584
▁return	-585
fa	-586
light	-587
▁hand	-588
▁K	-589
▁mind	-590
▁family	-591
▁speak	-592
enn	-593
▁dist	-594
▁heart	-595
ried	-596
ither	-597
▁letter	-598
▁end	-599
▁pas	-600
▁giv	-601
▁set	-602
▁acqu	-603
▁gener	-604
▁done	-605
▁Jane	-606
▁And	-607
▁come	-608
anne	-609
▁wom	-610
▁har	-611
▁indeed	-612
▁wr	-613
▁reg	-614
aught	-615
▁wish	-616
▁seemed	-617
ild	-618
▁They	-619
▁certain	-620
les	-621
▁add	-622
▁Marianne	-623
▁home	-624
ssible	-625
ber	-626
▁affect	-627
ull	-628
▁upon	-629
ations	-630
▁brother	-631
▁app	-632
Oh	-633
most	-634
▁ass	-635
▁love	-636
▁feelings	-637
ish	-638
▁mor	-639
ately	-640
its	-641
ened	-642
▁hear	-643
▁still	-644
▁pr	-645
▁mat	-646
hen	-647
▁here	-648
▁present	-649
bt	-650
▁saw	-651
sh	-652
▁same	-653
body	-654
wards	-655
arly	-656
▁occ	-657
but	-658
ack	-659
▁inf	-660
▁dec	-661
▁happy	-662
▁came	-663
▁eng	-664
▁pleasure	-665
▁ser	-666
▁pe	-667
▁Anne	-668
gether	-669
▁word	-670
▁really	-671
hw	-672
night	-673
arriet	-674
ves	-675
▁found	-676
▁ri	-677
▁bec	-678
▁comm	-679
▁expect	-680
ined	-681
▁vis	-682
▁hour	-683
▁comfort	-684
haps	-685
ived	-686
▁our	-687
less	-688
▁Her	-689
ser	-690
▁something	-691
lic	-692
▁half	-693
▁ye	-694
ces	-695
▁less	-696
lied	-697
▁subject	-698
▁acquaint	-699
▁Harriet	-700
▁few	-701
▁down	-702
ield	-703
ince	-704
▁call	-705
▁while	-706
▁conf	-707
ract	-708
orr	-709
▁heard	-710
ret	-711
▁Will	-712
▁till	-713
ten	-714
ause	-715
oubt	-716
▁West	-717
ider	-718
▁morning	-719
▁adv	-720
▁ey	-721
▁gl	-722
▁going	-723
ep	-724
rest	-725
▁almost	-726
arriage	-727
▁rather	-728
ably	-729
▁woman	-730
cept	-731
▁spir	-732
▁underst	-733
▁gent	-734
▁take	-735
▁where	-736
▁exc	-737
oy	-738
ety	-739
▁place	-740
ason	-741
▁inst	-742
▁myself	-743
!--	-744
▁unc	-745
os	-746
arm	-747
▁sur	-748
▁yet	-749
▁sec	-750
▁Weston	-751
▁tell	-752
▁satis	-753
▁particul	-754
nce	-755
▁world	-756
▁find	-757
▁rest	-758
vour	-759
▁adm	-760
▁ans	-761
▁another	-762
▁believe	-763
ign	-764
▁visit	-765
▁turn	-766
son	-767
▁hard	-768
oth	-769
new	-770
▁thr	-771
ark	-772
▁cl	-773
▁nat	-774
▁daught	-775
▁atte	-776
▁bet	-777
medi	-778
▁rece	-779
me	-780
ase	-781
field	-782
▁consider	-783
▁sit	-784
ctly	-785
▁obli	-786
air	-787
arcy	-788
▁Darcy	-789
▁together	-790
ix	-791
▁conc	-792
▁general	-793
▁immedi	-794
mund	-795
▁tak	-796
▁doubt	-797
unt	-798
inu	-799
▁left	-800
▁looked	-801
▁Edmund	-802
▁delight	-803
lton	-804
ition	-805
▁Elton	-806
▁perfect	-807
▁ask	-808
▁det	-809
▁does	-810
▁get	-811
▁chan	-812
▁opin	-813
▁cried	-814
▁conv	-815
▁since	-816
▁cour	-817
▁evening	-818
▁O	-819
ern	-820
ered	-821
▁least	-822
▁object	-823
▁differe	-824
▁interest	-825
ained	-826
▁manner	-827
nightley	-828
▁count	-829
▁ill	-830
▁best	-831
▁gentle	-832
▁seen	-833
▁those	-834
▁Knightley	-835
▁affection	-836
ath	-837
▁inv	-838
▁whom	-839
▁continu	-840
ween	-841
▁read	-842
▁replied	-843
owed	-844
ney	-845
arry	-846
▁disc	-847
▁appear	-848
apt	-849
▁anything	-850
▁spo	-851
ility	-852
erm	-853
▁act	-854
▁obser	-855
▁perhaps	-856
▁ide	-857
▁fort	-858
ile	-859
▁min	-860
▁knew	-861
▁There	-862
▁child	-863
▁reason	-864
▁In	-865
▁tru	-866
▁both	-867
▁often	-868
▁between	-869
Yes	-870
mer	-871
▁bl	-872
ense	-873
▁person	-874
▁happiness	-875
ople	-876
▁foll	-877
ff	-878
▁Rus	-879
▁three	-880
▁once	-881
▁short	-882
ip	-883
har	-884
ins	-885
irl	-886
▁ke	-887
▁minut	-888
▁whole	-889
▁certainly	-890
ceed	-891
vers	-892
irc	-893
ised	-894
▁nor	-895
▁back	-896
▁surp	-897
du	-898
ught	-899
man	-900
▁girl	-901
▁lady	-902
▁right	-903
▁understand	-904
▁equ	-905
▁circ	-906
▁gone	-907
▁party	-908
▁people	-909
▁therefore	-910
rove	-911
▁life	-912
▁far	-913
▁new	-914
pos	-915
here	-916
▁dire	-917
▁tr	-918
▁el	-919
▁em	-920
ired	-921
▁ref	-922
▁compan	-923
land	-924
oice	-925
▁Hen	-926
▁care	-927
aptain	-928
▁ext	-929
▁told	-930
▁agree	-931
▁ought	-932
▁express	-933
urch	-934
house	-935
▁given	-936
ek	-937
▁opinion	-938
xt	-939
▁Ch	-940
▁side	-941
▁wond	-942
▁point	-943
use	-944
▁co	-945
▁Thom	-946
▁spirits	-947
ap	-948
ited	-949
▁Thomas	-950
▁Wood	-951
▁possible	-952
▁dan	-953
▁respect	-954
pend	-955
ennet	-956
▁Bennet	-957
oh	-958
aut	-959
cess	-960
▁each	-961
▁others	-962
▁Captain	-963
▁This	-964
▁prev	-965
▁suppose	-966
▁acquaintance	-967
sel	-968
▁immediately	-969
ude	-970
▁friends	-971
ery	-972
iment	-973
▁hardly	-974
ger	-975
▁began	-976
ial	-977
▁next	-978
ram	-979
▁else	-980
▁sett	-981
ue	-982
ower	-983
▁His	-984
▁prom	-985
lli	-986
▁meet	-987
day	-988
▁poor	-989
agement	-990
▁mis	-991
ohn	-992
▁known	-993
▁charact	-994
▁hands	-995
wer	-996
▁deal	-997
▁passed	-998
hes	-999
▁sil	-1000
▁resol	-1001
▁through	-1002
▁towards	-1003
▁John	-1004
▁favour	-1005
▁hop	-1006
▁old	-1007
▁able	-1008
▁aunt	-1009
▁imag	-1010
ingley	-1011
ven	-1012
▁opp	-1013
▁eyes	-1014
▁idea	-1015
▁leave	-1016
▁Bingley	-1017
by	-1018
▁We	-1019
▁put	-1020
ished	-1021
▁Char	-1022
▁Woodhouse	-1023
for	-1024
olon	-1025
ertram	-1026
▁inter	-1027
▁account	-1028
▁pret	-1029
▁against	-1030
▁If	-1031
olonel	-1032
▁Bertram	-1033
▁sus	-1034
asion	-1035
▁week	-1036
▁these	-1037
▁answer	-1038
▁bus	-1039
▁str	-1040
▁sort	-1041
▁marry	-1042
▁che	-1043
▁jud	-1044
▁daughter	-1045
ner	-1046
selves	-1047
But	-1048
ove	-1049
▁gu	-1050
lliot	-1051
▁went	-1052
▁attention	-1053
ult	-1054
▁Elliot	-1055
▁coming	-1056
It	-1057
▁seeing	-1058
app	-1059
No	-1060
ighb	-1061
▁stay	-1062
itation	-1063
▁longer	-1064
ham	-1065
ided	-1066
▁gave	-1067
▁years	-1068
▁hon	-1069
▁rel	-1070
ingly	-1071
▁wonder	-1072
▁anx	-1073
▁door	-1074
▁situ	-1075
ollect	-1076
And	-1077
ashw	-1078
▁Dashw	-1079
▁Dashwood	-1080
▁cous	-1081
▁glad	-1082
▁circum	-1083
▁Colonel	-1084
▁brought	-1085
▁obliged	-1086
ient	-1087
▁pur	-1088
▁character	-1089
▁seem	-1090
▁either	-1091
▁How	-1092
▁What	-1093
▁char	-1094
▁compl	-1095
▁strong	-1096
▁Is	-1097
▁My	-1098
▁Church	-1099
ton	-1100
▁gra	-1101
▁use	-1102
▁open	-1103
▁sent	-1104
▁determ	-1105
▁circumst	-1106
riv	-1107
▁cond	-1108
▁pain	-1109
▁wife	-1110
▁course	-1111
▁Lu	-1112
▁surpr	-1113
be	-1114
▁small	-1115
omm	-1116
ates	-1117
ances	-1118
▁Edward	-1119
▁necess	-1120
▁everything	-1121
yond	-1122
itude	-1123
▁Henry	-1124
▁minutes	-1125
▁dre	-1126
▁tem	-1127
▁list	-1128
▁perfectly	-1129
arn	-1130
iam	-1131
iving	-1132
arried	-1133
ib	-1134
aged	-1135
▁sens	-1136
▁abs	-1137
▁eas	-1138
▁pass	-1139
▁convers	-1140
to	-1141
▁Y	-1142
▁To	-1143
▁ra	-1144
▁mak	-1145
▁persu	-1146
nded	-1147
▁beyond	-1148
▁satisf	-1149
ully	-1150
▁body	-1151
▁matter	-1152
▁different	-1153
ren	-1154
▁jo	-1155
iting	-1156
▁beha	-1157
▁prob	-1158
▁head	-1159
ust	-1160
▁fl	-1161
▁est	-1162
posed	-1163
▁town	-1164
▁regard	-1165
▁aw	-1166
▁wa	-1167
▁din	-1168
worth	-1169
▁took	-1170
▁because	-1171
▁occasion	-1172
▁te	-1173
▁suff	-1174
dd	-1175
▁warm	-1176
▁means	-1177
mpt	-1178
▁diff	-1179
▁quest	-1180
▁whether	-1181
▁received	-1182
▁agreeable	-1183
▁situation	-1184
ager	-1185
eness	-1186
aim	-1187
--"	-1188
ting	-1189
▁let	-1190
▁feeling	-1191
une	-1192
▁All	-1193
▁When	-1194
▁impo	-1195
▁wished	-1196
▁business	-1197
ons	-1198
oint	-1199
▁Mary	-1200
▁natur	-1201
▁whose	-1202
▁talked	-1203
▁days	-1204
▁serv	-1205
▁beaut	-1206
▁disapp	-1207
▁added	-1208
▁yourself	-1209
?--	-1210
ans	-1211
iew	-1212
sequ	-1213
▁draw	-1214
▁power	-1215
▁attach	-1216
▁within	-1217
ilney	-1218
▁play	-1219
▁conversation	-1220
fax	-1221
ory	-1222
▁fan	-1223
▁Fair	-1224
▁Tilney	-1225
▁Fairfax	-1226
▁pretty	-1227
iz	-1228
ross	-1229
▁remem	-1230
▁Churchill	-1231
rank	-1232
ondon	-1233
▁uncle	-1234
▁London	-1235
▁wanted	-1236
▁Ly	-1237
onth	-1238
adies	-1239
owing	-1240
▁Jenn	-1241
▁begin	-1242
▁walked	-1243
▁Jennings	-1244
▁'	-1245
err	-1246
▁carriage	-1247
ior	-1248
▁hel	-1249
▁mist	-1250
ured	-1251
ently	-1252
▁ladies	-1253
▁looking	-1254
▁manners	-1255
uct	-1256
uth	-1257
▁high	-1258
▁name	-1259
pl	-1260
▁hus	-1261
▁grat	-1262
▁spoke	-1263
▁taken	-1264
▁entire	-1265
cri	-1266
nding	-1267
▁called	-1268
▁concern	-1269
▁continued	-1270
ments	-1271
ating	-1272
▁conne	-1273
ella	-1274
ached	-1275
▁state	-1276
▁William	-1277
▁mention	-1278
▁marriage	-1279
▁As	-1280
▁among	-1281
▁themselves	-1282
ass	-1283
orry	-1284
▁returned	-1285
par	-1286
▁No	-1287
that	-1288
cious	-1289
▁near	-1290
▁ready	-1291
band	-1292
ship	-1293
▁dare	-1294
abella	-1295
hworth	-1296
▁voice	-1297
▁distress	-1298
▁engagement	-1299
pose	-1300
▁hum	-1301
▁sorry	-1302
▁comple	-1303
▁Rushworth	-1304
cour	-1305
reet	-1306
▁eager	-1307
▁things	-1308
▁husband	-1309
▁gentleman	-1310
The	-1311
ready	-1312
▁Bath	-1313
▁fine	-1314
▁help	-1315
▁consequ	-1316
know	-1317
▁tri	-1318
ively	-1319
oughby	-1320
entworth	-1321
▁serious	-1322
▁children	-1323
▁determined	-1324
My	-1325
▁Willoughby	-1326
▁es	-1327
▁cle	-1328
ering	-1329
itting	-1330
▁Isabella	-1331
▁Wentworth	-1332
▁already	-1333
▁sisters	-1334
▁impossible	-1335
joy	-1336
▁advant	-1337
▁ins	-1338
▁view	-1339
lu	-1340
ute	-1341
▁settled	-1342
ched	-1343
cing	-1344
ston	-1345
▁fre	-1346
antly	-1347
▁enjoy	-1348
ference	-1349
▁difficul	-1350
▁entirely	-1351
ia	-1352
;--	-1353
▁exa	-1354
ience	-1355
orris	-1356
▁change	-1357
▁saying	-1358
▁married	-1359
▁disappoint	-1360
vi	-1361
uli	-1362
▁civ	-1363
▁usu	-1364
▁poss	-1365
▁Norris	-1366
▁real	-1367
▁self	-1368
arce	-1369
raid	-1370
▁bre	-1371
▁sense	-1372
▁words	-1373
iet	-1374
▁requ	-1375
▁night	-1376
▁country	-1377
iled	-1378
ledge	-1379
aid	-1380
▁doing	-1381
▁deg	-1382
▁son	-1383
▁appro	-1384
▁equal	-1385
▁afraid	-1386
vo	-1387
▁need	-1388
▁kindness	-1389
▁hor	-1390
▁yes	-1391
▁keep	-1392
▁Frank	-1393
▁honour	-1394
itted	-1395
▁full	-1396
▁month	-1397
▁proper	-1398
▁Sm	-1399
▁ef	-1400
orland	-1401
▁allow	-1402
▁appeared	-1403
▁satisfied	-1404
▁ten	-1405
▁bring	-1406
▁expected	-1407
▁ro	-1408
fter	-1409
▁accept	-1410
▁prevent	-1411
▁recollect	-1412
▁hur	-1413
▁ste	-1414
▁decl	-1415
▁talking	-1416
acy	-1417
▁men	-1418
▁met	-1419
▁depend	-1420
▁directly	-1421
up	-1422
like	-1423
▁lau	-1424
▁inqu	-1425
ickham	-1426
▁worth	-1427
▁assure	-1428
▁believed	-1429
▁thinking	-1430
ging	-1431
imes	-1432
▁giving	-1433
▁making	-1434
▁Charles	-1435
idd	-1436
▁St	-1437
▁air	-1438
▁expl	-1439
▁thank	-1440
▁common	-1441
▁fortune	-1442
▁afterwards	-1443
orrow	-1444
▁work	-1445
▁exactly	-1446
ken	-1447
atch	-1448
▁lar	-1449
▁That	-1450
▁likely	-1451
▁Wickham	-1452
▁attachment	-1453
orm	-1454
▁une	-1455
▁engaged	-1456
▁forward	-1457
fully	-1458
▁Smith	-1459
▁early	-1460
Well	-1461
cted	-1462
▁four	-1463
▁usual	-1464
▁turned	-1465
gu	-1466
▁Lucy	-1467
▁year	-1468
▁hours	-1469
▁super	-1470
▁cousin	-1471
▁former	-1472
▁pleased	-1473
▁anxious	-1474
▁handsome	-1475
▁particular	-1476
rant	-1477
▁Coll	-1478
▁forg	-1479
▁import	-1480
▁Collins	-1481
▁satisfa	-1482
▁Wh	-1483
▁dinner	-1484
rely	-1485
will	-1486
▁got	-1487
viour	-1488
▁fart	-1489
▁question	-1490
▁behaviour	-1491
aw	-1492
uri	-1493
▁Mans	-1494
▁bear	-1495
▁true	-1496
▁wind	-1497
arcely	-1498
▁conduct	-1499
He	-1500
▁ele	-1501
▁fix	-1502
▁try	-1503
▁alone	-1504
▁asked	-1505
▁company	-1506
▁neither	-1507
▁particularly	-1508
of	-1509
ury	-1510
iety	-1511
rand	-1512
▁convin	-1513
▁inclin	-1514
▁regret	-1515
ling	-1516
▁tend	-1517
▁used	-1518
▁natural	-1519
▁advantage	-1520
▁appearance	-1521
so	-1522
osed	-1523
▁Thor	-1524
▁nature	-1525
lay	-1526
come	-1527
▁bad	-1528
atter	-1529
▁acknow	-1530
▁Mansfield	-1531
ities	-1532
▁incre	-1533
ighbour	-1534
▁farther	-1535
▁neighbour	-1536
Mr	-1537
▁form	-1538
▁creat	-1539
▁dread	-1540
uch	-1541
used	-1542
▁Mus	-1543
▁aston	-1544
▁scarcely	-1545
▁five	-1546
▁fancy	-1547
▁degree	-1548
▁address	-1549
▁entered	-1550
alth	-1551
ures	-1552
range	-1553
▁Musg	-1554
▁repe	-1555
▁quiet	-1556
▁greater	-1557
▁sometimes	-1558
dia	-1559
▁smile	-1560
▁prop	-1561
▁hoped	-1562
▁attent	-1563
av	-1564
▁At	-1565
▁Do	-1566
iece	-1567
▁evil	-1568
▁Lydia	-1569
▁cheer	-1570
▁encour	-1571
▁attempt	-1572
▁convinced	-1573
wise	-1574
▁soci	-1575
enance	-1576
▁speaking	-1577
▁swe	-1578
ified	-1579
▁With	-1580
▁cold	-1581
▁fear	-1582
▁admir	-1583
▁compliment	-1584
▁sto	-1585
ounds	-1586
uring	-1587
▁fond	-1588
▁conce	-1589
▁round	-1590
▁necessary	-1591
She	-1592
ool	-1593
the	-1594
rodu	-1595
well	-1596
▁cal	-1597
▁ord	-1598
ually	-1599
▁charm	-1600
▁intim	-1601
▁temper	-1602
▁consequence	-1603
aste	-1604
iddle	-1605
ident	-1606
usion	-1607
▁Hart	-1608
▁earn	-1609
▁break	-1610
▁extre	-1611
▁stand	-1612
▁second	-1613
oud	-1614
shire	-1615
▁case	-1616
▁prof	-1617
▁drawing	-1618
▁introdu	-1619
▁ball	-1620
idence	-1621
▁Grant	-1622
ott	-1623
position	-1624
▁Hartfield	-1625
erc	-1626
▁fin	-1627
▁taste	-1628
▁remain	-1629
dden	-1630
▁lik	-1631
oured	-1632
▁Allen	-1633
▁assist	-1634
▁pleasant	-1635
▁supposed	-1636
ene	-1637
pic	-1638
▁sir	-1639
▁ende	-1640
▁truth	-1641
▁except	-1642
▁notice	-1643
enty	-1644
▁sho	-1645
iable	-1646
ouble	-1647
▁fair	-1648
▁After	-1649
▁meant	-1650
ishment	-1651
▁danger	-1652
▁surprise	-1653
ler	-1654
sell	-1655
ying	-1656
▁For	-1657
▁val	-1658
▁const	-1659
▁indif	-1660
▁large	-1661
How	-1662
▁Bates	-1663
▁event	-1664
▁effect	-1665
▁recomm	-1666
▁imagine	-1667
▁society	-1668
▁superior	-1669
▁ce	-1670
ortun	-1671
▁curi	-1672
▁influ	-1673
▁extreme	-1674
,--	-1675
osity	-1676
ution	-1677
▁stru	-1678
▁produ	-1679
▁sudden	-1680
▁earnest	-1681
▁meeting	-1682
▁circumstances	-1683
ames	-1684
inci	-1685
▁eye	-1686
alter	-1687
ising	-1688
▁taking	-1689
▁pi	-1690
cell	-1691
iles	-1692
▁pra	-1693
▁face	-1694
ession	-1695
▁Maria	-1696
▁occur	-1697
▁quick	-1698
▁months	-1699
▁thoughts	-1700
▁recommend	-1701
bert	-1702
over	-1703
▁emp	-1704
▁mod	-1705
▁spite	-1706
▁Russell	-1707
▁satisfaction	-1708
What	-1709
gment	-1710
▁nobody	-1711
▁remember	-1712
▁Not	-1713
▁sim	-1714
▁Your	-1715
▁table	-1716
▁write	-1717
▁walking	-1718
▁complete	-1719
▁greatest	-1720
▁knowledge	-1721
▁countenance	-1722
rie	-1723
▁def	-1724
▁refle	-1725
▁Morland	-1726
▁servant	-1727
▁sitting	-1728
▁opportun	-1729
▁probably	-1730
▁bo	-1731
ased	-1732
▁Sus	-1733
▁dut	-1734
▁remo	-1735
randon	-1736
▁claim	-1737
▁beginning	-1738
eng	-1739
ual	-1740
▁alarm	-1741
▁princi	-1742
▁Brandon	-1743
▁hearing	-1744
wh	-1745
▁news	-1746
▁sweet	-1747
▁wrong	-1748
no	-1749
▁Thorpe	-1750
▁unp	-1751
▁deser	-1752
▁allowed	-1753
▁proceed	-1754
mb	-1755
arr	-1756
aded	-1757
▁lea	-1758
▁eleg	-1759
ousand	-1760
▁excell	-1761
▁listen	-1762
▁silence	-1763
▁thousand	-1764
gg	-1765
oun	-1766
▁dress	-1767
▁impro	-1768
▁Street	-1769
▁Walter	-1770
▁beauty	-1771
▁decided	-1772
▁followed	-1773
loy	-1774
rice	-1775
fered	-1776
▁live	-1777
▁wishes	-1778
▁acquainted	-1779
amp	-1780
men	-1781
ulia	-1782
▁descri	-1783
▁slight	-1784
ub	-1785
▁Per	-1786
▁avo	-1787
▁why	-1788
▁quar	-1789
▁trouble	-1790
▁delighted	-1791
rud	-1792
▁Oh	-1793
ific	-1794
▁plac	-1795
▁forget	-1796
▁tender	-1797
▁purpose	-1798
▁cheerful	-1799
oor	-1800
val	-1801
aken	-1802
hood	-1803
wered	-1804
▁book	-1805
▁easy	-1806
▁hast	-1807
idered	-1808
▁Julia	-1809
▁Susan	-1810
ibility	-1811
▁everybody	-1812
outh	-1813
olute	-1814
▁sight	-1815
▁window	-1816
▁suspect	-1817
▁curiosity	-1818
▁considered	-1819
▁difference	-1820
▁opportunity	-1821
gr	-1822
▁ago	-1823
▁worse	-1824
▁employ	-1825
▁inform	-1826
▁living	-1827
▁comfortable	-1828
ray	-1829
ages	-1830
▁dri	-1831
iling	-1832
▁Every	-1833
ination	-1834
▁inquir	-1835
▁Musgrove	-1836
▁answered	-1837
ead	-1838
res	-1839
ted	-1840
uck	-1841
▁On	-1842
fast	-1843
unic	-1844
▁cap	-1845
▁eld	-1846
redit	-1847
▁late	-1848
errars	-1849
▁perce	-1850
▁silent	-1851
▁communic	-1852
▁sensible	-1853
▁delightful	-1854
ief	-1855
▁hab	-1856
▁par	-1857
rance	-1858
rival	-1859
▁sake	-1860
▁sche	-1861
morrow	-1862
▁aware	-1863
▁trust	-1864
▁Ferrars	-1865
▁arrival	-1866
▁equally	-1867
▁whatever	-1868
▁daughters	-1869
▁fell	-1870
▁priv	-1871
▁tran	-1872
▁contr	-1873
▁looks	-1874
▁times	-1875
▁health	-1876
▁intell	-1877
▁creature	-1878
▁instantly	-1879
▁cor	-1880
aring	-1881
rived	-1882
▁fore	-1883
ctions	-1884
▁dance	-1885
▁praise	-1886
▁companion	-1887
▁influence	-1888
ze	-1889
▁mer	-1890
▁mus	-1891
tered	-1892
▁plan	-1893
▁pros	-1894
▁concl	-1895
▁indul	-1896
▁loved	-1897
▁repeated	-1898
▁admiration	-1899
▁disposition	-1900
▁So	-1901
▁ve	-1902
▁sum	-1903
▁jour	-1904
▁past	-1905
▁accom	-1906
▁girls	-1907
▁laugh	-1908
▁remark	-1909
▁amiable	-1910
▁resolved	-1911
alls	-1912
▁joy	-1913
▁mot	-1914
arest	-1915
▁safe	-1916
▁fixed	-1917
▁spent	-1918
▁exceed	-1919
▁observ	-1920
▁remained	-1921
▁invitation	-1922
▁circumstance	-1923
ony	-1924
ote	-1925
▁toler	-1926
▁conscious	-1927
▁extremely	-1928
If	-1929
ili	-1930
nde	-1931
▁pay	-1932
▁excl	-1933
▁lost	-1934
▁Their	-1935
▁light	-1936
▁Middle	-1937
▁Middleton	-1938
gy	-1939
she	-1940
oney	-1941
▁inj	-1942
never	-1943
▁became	-1944
▁credit	-1945
ses	-1946
▁sy	-1947
ides	-1948
sured	-1949
▁grie	-1950
▁anybody	-1951
▁absolute	-1952
▁understanding	-1953
Th	-1954
That	-1955
ouis	-1956
▁Long	-1957
▁hint	-1958
▁Price	-1959
▁match	-1960
ighbury	-1961
▁knowing	-1962
▁judgment	-1963
▁observed	-1964
▁acknowled	-1965
▁beh	-1966
ouisa	-1967
▁happened	-1968
abl	-1969
pped	-1970
▁six	-1971
inary	-1972
▁shew	-1973
icient	-1974
▁James	-1975
▁desire	-1976
▁merely	-1977
▁spoken	-1978
▁entreat	-1979
▁letters	-1980
▁intellig	-1981
▁breakfast	-1982
▁excellent	-1983
▁persuaded	-1984
you	-1985
▁pa	-1986
▁ut	-1987
peci	-1988
▁stri	-1989
▁delic	-1990
▁pride	-1991
▁relie	-1992
▁seems	-1993
▁weeks	-1994
▁Louisa	-1995
▁spirit	-1996
▁journey	-1997
▁Highbury	-1998
▁difficult	-1999
▁gratitude	-2000
▁ir	-2001
rupt	-2002
▁ran	-2003
▁var	-2004
right	-2005
▁amuse	-2006
▁inclination	-2007
lot	-2008
arent	-2009
where	-2010
▁Such	-2011
▁exert	-2012
▁tried	-2013
▁easily	-2014
pecially	-2015
gin	-2016
▁Ad	-2017
▁Re	-2018
angu	-2019
hens	-2020
iful	-2021
▁sty	-2022
avour	-2023
iction	-2024
rehens	-2025
▁fault	-2026
▁hopes	-2027
▁attentions	-2028
▁mo	-2029
▁low	-2030
▁join	-2031
▁kept	-2032
▁spee	-2033
▁money	-2034
▁repro	-2035
▁forgot	-2036
▁absence	-2037
▁leaving	-2038
▁meaning	-2039
▁surprised	-2040
ency	-2041
fair	-2042
▁wel	-2043
lotte	-2044
▁calm	-2045
▁fall	-2046
▁avoid	-2047
▁highly	-2048
▁support	-2049
▁Charlotte	-2050
▁mentioned	-2051
rew	-2052
▁Co	-2053
king	-2054
▁Har	-2055
▁tre	-2056
▁vain	-2057
orough	-2058
▁extra	-2059
▁frequ	-2060
▁suspic	-2061
▁mistaken	-2062
▁endeavour	-2063
▁ma	-2064
bour	-2065
▁bel	-2066
▁pat	-2067
▁pol	-2068
▁sing	-2069
▁style	-2070
▁behind	-2071
▁weather	-2072
▁esc	-2073
▁tra	-2074
▁duty	-2075
▁delay	-2076
▁share	-2077
▁struck	-2078
▁instead	-2079
▁enjoyment	-2080
▁also	-2081
▁none	-2082
▁impat	-2083
▁solic	-2084
▁women	-2085
▁favourite	-2086
▁friendship	-2087
▁disappointment	-2088
ors	-2089
▁fut	-2090
▁Mart	-2091
▁incon	-2092
▁offer	-2093
▁chance	-2094
▁assured	-2095
▁especially	-2096
Do	-2097
▁age	-2098
▁emb	-2099
aster	-2100
reder	-2101
▁leng	-2102
▁loss	-2103
▁mort	-2104
▁pres	-2105
▁close	-2106
▁plain	-2107
▁reply	-2108
retched	-2109
▁afford	-2110
▁future	-2111
▁improve	-2112
▁conviction	-2113
▁resolution	-2114
old	-2115
what	-2116
hamed	-2117
unate	-2118
▁Gard	-2119
▁tone	-2120
▁lived	-2121
▁Freder	-2122
▁attend	-2123
ph	-2124
look	-2125
rehe	-2126
▁dep	-2127
▁run	-2128
▁vex	-2129
▁judge	-2130
▁separ	-2131
▁information	-2132
.'	-2133
▁bu	-2134
edly	-2135
▁ang	-2136
▁led	-2137
▁luck	-2138
▁wait	-2139
ottage	-2140
▁desir	-2141
▁watch	-2142
▁trying	-2143
▁cousins	-2144
▁finding	-2145
▁sentiment	-2146
zy	-2147
▁aff	-2148
▁disp	-2149
▁ease	-2150
▁thus	-2151
▁above	-2152
▁treat	-2153
▁Gardin	-2154
▁ashamed	-2155
▁conceal	-2156
▁reached	-2157
▁smallest	-2158
▁gentlemen	-2159
▁otherwise	-2160
▁exceedingly	-2161
mir	-2162
sit	-2163
happ	-2164
▁neg	-2165
▁suc	-2166
▁tea	-2167
▁hurry	-2168
▁forced	-2169
▁anxiety	-2170
▁succeed	-2171
▁confidence	-2172
▁understood	-2173
reed	-2174
▁God	-2175
▁clo	-2176
miral	-2177
▁exam	-2178
▁fact	-2179
▁chief	-2180
▁horse	-2181
▁niece	-2182
▁affair	-2183
▁dancing	-2184
▁distance	-2185
▁listened	-2186
▁interesting	-2187
We	-2188
ash	-2189
▁Ro	-2190
▁ed	-2191
▁ur	-2192
airs	-2193
ring	-2194
▁bed	-2195
▁says	-2196
▁thir	-2197
▁civil	-2198
▁press	-2199
▁yester	-2200
▁Admiral	-2201
▁agitation	-2202
▁consideration	-2203
uc	-2204
▁De	-2205
▁One	-2206
There	-2207
arted	-2208
ccess	-2209
itten	-2210
▁deep	-2211
▁stre	-2212
licity	-2213
▁bless	-2214
▁occup	-2215
▁joined	-2216
▁promise	-2217
▁charming	-2218
▁marrying	-2219
▁thorough	-2220
▁yesterday	-2221
▁difficulty	-2222
nat	-2223
row	-2224
ives	-2225
izzy	-2226
urst	-2227
xion	-2228
▁art	-2229
anity	-2230
▁Here	-2231
▁blus	-2232
▁dece	-2233
▁angry	-2234
ability	-2235
▁itself	-2236
▁useful	-2237
together	-2238
▁turning	-2239
▁waiting	-2240
▁civility	-2241
▁promised	-2242
▁wretched	-2243
▁generally	-2244
▁absolutely	-2245
▁importance	-2246
ont	-2247
vill	-2248
ndeed	-2249
▁Bart	-2250
▁mine	-2251
▁prep	-2252
▁cause	-2253
▁music	-2254
▁proof	-2255
▁scheme	-2256
▁wishing	-2257
▁Gardiner	-2258
▁neighbourhood	-2259
com	-2260
ify	-2261
This	-2262
cked	-2263
▁bro	-2264
▁Well	-2265
▁pity	-2266
▁send	-2267
bation	-2268
erable	-2269
▁disag	-2270
▁resent	-2271
▁twenty	-2272
▁unhapp	-2273
▁Harvill	-2274
▁attended	-2275
▁altogether	-2276
uded	-2277
onage	-2278
▁miles	-2279
▁eldest	-2280
▁arrived	-2281
▁wanting	-2282
▁written	-2283
▁disposed	-2284
▁prospect	-2285
▁Tom	-2286
▁den	-2287
▁disg	-2288
▁Martin	-2289
▁perfor	-2290
▁justice	-2291
▁disagree	-2292
▁pleasing	-2293
▁whenever	-2294
▁affectionate	-2295
bed	-2296
▁div	-2297
▁bene	-2298
▁rememb	-2299
▁confess	-2300
▁consent	-2301
▁dearest	-2302
▁intended	-2303
▁occurred	-2304
Not	-2305
cas	-2306
▁boy	-2307
▁rid	-2308
▁suf	-2309
▁tot	-2310
▁wit	-2311
▁fire	-2312
▁pict	-2313
▁guess	-2314
▁oppos	-2315
▁Barton	-2316
▁belong	-2317
▁excess	-2318
▁length	-2319
▁please	-2320
▁pounds	-2321
lly	-2322
▁Now	-2323
▁arm	-2324
▁cur	-2325
bourn	-2326
▁term	-2327
▁grave	-2328
▁pause	-2329
▁excuse	-2330
▁secret	-2331
▁suffer	-2332
▁Longbourn	-2333
▁expressed	-2334
ett	-2335
▁ru	-2336
bell	-2337
▁Had	-2338
▁Pal	-2339
▁due	-2340
inter	-2341
▁Rand	-2342
▁vent	-2343
itable	-2344
▁during	-2345
▁collect	-2346
▁command	-2347
▁success	-2348
Wh	-2349
not	-2350
wick	-2351
▁ear	-2352
▁pub	-2353
▁sad	-2354
▁anim	-2355
▁lead	-2356
▁pref	-2357
▁happi	-2358
▁learn	-2359
▁admire	-2360
▁formed	-2361
▁latter	-2362
▁quarter	-2363
▁receive	-2364
▁welcome	-2365
▁Randalls	-2366
▁fortnight	-2367
▁expectation	-2368
orn	-2369
ows	-2370
ingu	-2371
ison	-2372
lean	-2373
▁ign	-2374
▁wat	-2375
▁Park	-2376
▁card	-2377
▁ignor	-2378
▁offic	-2379
▁misery	-2380
arsonage	-2381
▁comprehe	-2382
▁independ	-2383
ibly	-2384
mber	-2385
semb	-2386
▁gall	-2387
▁hold	-2388
▁subm	-2389
aining	-2390
ateful	-2391
resent	-2392
▁Lizzy	-2393
▁Lucas	-2394
▁caught	-2395
▁compar	-2396
▁strange	-2397
▁attached	-2398
▁produced	-2399
▁immediate	-2400
ich	-2401
roft	-2402
▁bes	-2403
▁hig	-2404
alous	-2405
ament	-2406
mouth	-2407
riety	-2408
▁trif	-2409
▁assur	-2410
▁regul	-2411
▁sever	-2412
▁tempt	-2413
▁uneas	-2414
▁choice	-2415
▁prepar	-2416
▁streng	-2417
ordinary	-2418
▁interrupt	-2419
▁necessity	-2420
▁indifference	-2421
▁vi	-2422
▁ama	-2423
▁odd	-2424
▁rej	-2425
▁vol	-2426
▁Camp	-2427
▁educ	-2428
▁Croft	-2429
▁langu	-2430
▁value	-2431
▁income	-2432
▁speech	-2433
▁cottage	-2434
▁service	-2435
▁Campbell	-2436
▁objection	-2437
▁prevented	-2438
▁particulars	-2439
▁astonishment	-2440
iod	-2441
irt	-2442
law	-2443
arer	-2444
polo	-2445
▁seat	-2446
iously	-2447
▁Perry	-2448
▁knows	-2449
▁mater	-2450
▁pursu	-2451
▁agreed	-2452
▁fright	-2453
▁period	-2454
▁proved	-2455
▁reading	-2456
▁following	-2457
▁relations	-2458
▁observation	-2459
▁consciousness	-2460
▁extraordinary	-2461
pon	-2462
elly	-2463
iced	-2464
▁col	-2465
▁hers	-2466
▁miss	-2467
▁note	-2468
▁scru	-2469
leanor	-2470
▁comes	-2471
▁instru	-2472
▁minute	-2473
▁exclaim	-2474
▁dreadful	-2475
▁persuade	-2476
▁acknowledged	-2477
mp	-2478
how	-2479
vey	-2480
hill	-2481
▁Let	-2482
ardon	-2483
▁prot	-2484
▁rich	-2485
assion	-2486
▁alter	-2487
▁apolo	-2488
▁conte	-2489
▁explan	-2490
▁writing	-2491
▁inconven	-2492
▁suffered	-2493
▁beautiful	-2494
▁returning	-2495
,'	-2496
▁fo	-2497
itty	-2498
▁num	-2499
▁sol	-2500
isure	-2501
undred	-2502
▁famili	-2503
▁horses	-2504
▁public	-2505
▁Eleanor	-2506
▁arrange	-2507
▁getting	-2508
▁leisure	-2509
teen	-2510
▁Eng	-2511
pperc	-2512
▁Poor	-2513
▁prov	-2514
ission	-2515
▁eight	-2516
▁folly	-2517
▁Palmer	-2518
▁happen	-2519
▁simple	-2520
▁capable	-2521
▁hundred	-2522
▁moments	-2523
▁partial	-2524
▁princip	-2525
▁staying	-2526
ppercross	-2527
▁concerned	-2528
▁expression	-2529
▁sl	-2530
▁pec	-2531
ative	-2532
ggest	-2533
▁soft	-2534
▁fears	-2535
▁liked	-2536
▁stood	-2537
▁terms	-2538
▁consol	-2539
▁design	-2540
▁secure	-2541
▁smiling	-2542
▁suggest	-2543
▁important	-2544
▁compassion	-2545
▁completely	-2546
▁intelligence	-2547
atul	-2548
ples	-2549
posal	-2550
▁viol	-2551
gratul	-2552
▁tears	-2553
▁yours	-2554
▁advice	-2555
▁lately	-2556
▁vanity	-2557
▁dislike	-2558
▁Harville	-2559
▁distingu	-2560
▁required	-2561
▁amusement	-2562
▁entertain	-2563
▁sufficient	-2564
To	-2565
eper	-2566
etta	-2567
asing	-2568
otion	-2569
▁auth	-2570
▁meas	-2571
▁whis	-2572
aching	-2573
rietta	-2574
▁fresh	-2575
▁spend	-2576
▁establ	-2577
▁nearly	-2578
▁placed	-2579
▁surpri	-2580
▁unwill	-2581
▁calling	-2582
▁painful	-2583
▁unhappy	-2584
▁intimacy	-2585
▁Henrietta	-2586
▁forgotten	-2587
▁receiving	-2588
▁represent	-2589
▁suffering	-2590
nch	-2591
▁Dr	-2592
▁Net	-2593
▁caut	-2594
▁seve	-2595
itated	-2596
▁death	-2597
▁infer	-2598
▁reser	-2599
▁Nether	-2600
▁fellow	-2601
▁several	-2602
▁actually	-2603
▁ladyship	-2604
▁congratul	-2605
▁Netherfield	-2606
▁respectable	-2607
▁difficulties	-2608
▁disappointed	-2609
▁encouragement	-2610
bey	-2611
ches	-2612
elve	-2613
ergy	-2614
▁ine	-2615
▁sun	-2616
ision	-2617
▁From	-2618
▁park	-2619
▁road	-2620
ferent	-2621
▁Kelly	-2622
▁makes	-2623
▁sound	-2624
▁trave	-2625
▁wrote	-2626
▁author	-2627
▁clever	-2628
▁embarr	-2629
▁lively	-2630
▁opened	-2631
▁parted	-2632
▁accompl	-2633
▁besides	-2634
▁flatter	-2635
▁parties	-2636
▁selfish	-2637
▁Kellynch	-2638
▁declared	-2639
▁standing	-2640
▁considering	-2641
ye	-2642
rawn	-2643
ster	-2644
▁Ste	-2645
▁ann	-2646
▁fat	-2647
ality	-2648
ember	-2649
gence	-2650
▁dest	-2651
▁furn	-2652
▁indu	-2653
▁lear	-2654
▁post	-2655
▁valu	-2656
overed	-2657
▁Kitty	-2658
▁catch	-2659
▁clear	-2660
▁habit	-2661
▁preva	-2662
▁claims	-2663
▁ground	-2664
▁humour	-2665
▁winter	-2666
▁constant	-2667
▁delicacy	-2668
▁increased	-2669
▁reasonable	-2670
▁reflection	-2671
▁indifferent	-2672
ON	-2673
avy	-2674
hum	-2675
rim	-2676
Your	-2677
▁Ben	-2678
omest	-2679
ption	-2680
using	-2681
▁gard	-2682
▁harm	-2683
▁sole	-2684
Indeed	-2685
▁carry	-2686
▁rooms	-2687
▁tired	-2688
▁peculi	-2689
▁wholly	-2690
▁Benwick	-2691
▁declare	-2692
▁observe	-2693
▁passing	-2694
▁unpleas	-2695
▁education	-2696
ug	-2697
▁By	-2698
▁mad	-2699
▁pen	-2700
arily	-2701
esday	-2702
▁dine	-2703
▁drew	-2704
▁lose	-2705
▁nice	-2706
▁ideas	-2707
▁views	-2708
▁libert	-2709
▁smiled	-2710
▁tranqu	-2711
▁twelve	-2712
▁unfort	-2713
ification	-2714
▁addition	-2715
▁disagreeable	-2716
Ah	-2717
▁Be	-2718
orts	-2719
▁cou	-2720
aging	-2721
▁Stee	-2722
▁horr	-2723
▁sign	-2724
posure	-2725
▁cross	-2726
▁exerc	-2727
ception	-2728
▁acting	-2729
▁become	-2730
▁convey	-2731
▁master	-2732
▁prefer	-2733
▁suppos	-2734
▁Nothing	-2735
▁private	-2736
▁thoroughly	-2737
ape	-2738
cho	-2739
ize	-2740
▁je	-2741
ines	-2742
lace	-2743
▁Clay	-2744
▁Lyme	-2745
▁este	-2746
▁fool	-2747
▁sick	-2748
▁Robert	-2749
▁summer	-2750
▁content	-2751
▁elegant	-2752
▁picture	-2753
▁affected	-2754
▁prepared	-2755
▁solicitude	-2756
▁recollection	-2757
ald	-2758
ilt	-2759
▁Don	-2760
▁bar	-2761
▁dev	-2762
ribut	-2763
▁proc	-2764
▁Yates	-2765
▁polit	-2766
▁eagerly	-2767
▁impress	-2768
▁invited	-2769
▁partner	-2770
▁naturally	-2771
▁suspicion	-2772
▁introduced	-2773
▁tenderness	-2774
▁explanation	-2775
▁considerable	-2776
Miss	-2777
race	-2778
some	-2779
▁Why	-2780
inite	-2781
▁desp	-2782
▁foot	-2783
▁rain	-2784
▁shame	-2785
looking	-2786
▁estate	-2787
▁ration	-2788
▁relief	-2789
▁warmth	-2790
▁greatly	-2791
▁younger	-2792
▁grateful	-2793
ER	-2794
▁ga	-2795
rist	-2796
▁fif	-2797
▁sle	-2798
▁mark	-2799
▁unex	-2800
▁unre	-2801
▁negle	-2802
▁scene	-2803
▁conven	-2804
▁distin	-2805
▁thrown	-2806
▁warmly	-2807
▁matters	-2808
▁profess	-2809
▁removed	-2810
▁stopped	-2811
▁elegance	-2812
▁felicity	-2813
▁obliging	-2814
▁opinions	-2815
▁strength	-2816
▁Parsonage	-2817
▁attending	-2818
▁impatient	-2819
▁ourselves	-2820
▁proceeded	-2821
▁unwilling	-2822
▁favourable	-2823
de	-2824
ian	-2825
lan	-2826
ancy	-2827
crif	-2828
ghed	-2829
lour	-2830
ruel	-2831
▁fur	-2832
▁lay	-2833
ously	-2834
▁paid	-2835
▁sigh	-2836
▁begun	-2837
▁exist	-2838
▁peace	-2839
▁accord	-2840
▁feared	-2841
▁sacrif	-2842
▁sooner	-2843
▁consult	-2844
▁laughed	-2845
▁likewise	-2846
▁servants	-2847
▁suddenly	-2848
▁seriously	-2849
▁astonished	-2850
▁unpleasant	-2851
▁possibility	-2852
lock	-2853
▁cut	-2854
▁rap	-2855
▁rev	-2856
▁sou	-2857
▁unf	-2858
▁suit	-2859
▁books	-2860
▁chair	-2861
▁earli	-2862
▁proud	-2863
▁restr	-2864
▁youth	-2865
▁couple	-2866
▁single	-2867
▁evident	-2868
▁jealous	-2869
▁totally	-2870
▁exercise	-2871
▁inferior	-2872
▁properly	-2873
▁desirable	-2874
▁miserable	-2875
cul	-2876
▁Ab	-2877
read	-2878
▁bit	-2879
▁Cole	-2880
▁Nort	-2881
▁fast	-2882
▁hist	-2883
▁move	-2884
ashion	-2885
ishing	-2886
▁becom	-2887
▁blame	-2888
▁blind	-2889
▁fatig	-2890
▁fully	-2891
▁guard	-2892
▁story	-2893
▁offend	-2894
▁street	-2895
▁conject	-2896
▁further	-2897
▁liberty	-2898
▁request	-2899
rehension	-2900
▁bringing	-2901
▁displeas	-2902
▁intimate	-2903
▁proposal	-2904
▁earnestly	-2905
▁profession	-2906
:--	-2907
phe	-2908
uss	-2909
▁fit	-2910
▁ner	-2911
ining	-2912
▁dign	-2913
▁line	-2914
ifying	-2915
▁along	-2916
▁drive	-2917
▁imprud	-2918
▁parent	-2919
▁inquiry	-2920
▁accepted	-2921
▁infinite	-2922
▁confusion	-2923
▁assistance	-2924
▁comprehend	-2925
▁improvement	-2926
ns	-2927
ica	-2928
dard	-2929
ises	-2930
with	-2931
▁mut	-2932
▁tou	-2933
enced	-2934
owers	-2935
there	-2936
▁choo	-2937
▁pray	-2938
▁vill	-2939
▁weak	-2940
ginald	-2941
▁burst	-2942
▁doors	-2943
▁drawn	-2944
▁invol	-2945
▁dining	-2946
▁thinks	-2947
▁utmost	-2948
▁Goddard	-2949
▁perform	-2950
▁Reginald	-2951
▁observing	-2952
▁tolerably	-2953
▁imagination	-2954
lor	-2955
zed	-2956
illy	-2957
▁awk	-2958
▁sch	-2959
choly	-2960
▁Lord	-2961
▁cord	-2962
▁apart	-2963
▁ended	-2964
▁grand	-2965
▁melan	-2966
▁order	-2967
▁paper	-2968
▁trans	-2969
▁twice	-2970
ilities	-2971
▁charge	-2972
▁confir	-2973
▁severe	-2974
▁spring	-2975
▁awkward	-2976
▁opening	-2977
▁parting	-2978
▁removal	-2979
▁travell	-2980
▁material	-2981
▁subjects	-2982
▁Frederica	-2983
▁composure	-2984
▁propriety	-2985
▁melancholy	-2986
▁acknowledge	-2987
▁approbation	-2988
▁probability	-2989
een	-2990
lig	-2991
pan	-2992
▁id	-2993
loom	-2994
▁Yes	-2995
▁dem	-2996
▁med	-2997
▁pun	-2998
▁Mery	-2999
▁coun	-3000
▁mere	-3001
▁mess	-3002
▁pract	-3003
▁colour	-3004
▁escape	-3005
▁follow	-3006
▁supply	-3007
▁England	-3008
▁Meryton	-3009
▁gallant	-3010
▁instant	-3011
▁telling	-3012
▁admitted	-3013
▁contrary	-3014
▁exertion	-3015
▁mistress	-3016
▁intention	-3017
▁connection	-3018
▁resentment	-3019
ey	-3020
inc	-3021
jud	-3022
wel	-3023
phew	-3024
▁fig	-3025
▁mem	-3026
cking	-3027
▁grad	-3028
▁shut	-3029
leness	-3030
ounded	-3031
▁prete	-3032
▁trium	-3033
▁around	-3034
▁gained	-3035
▁indign	-3036
▁motive	-3037
▁nephew	-3038
▁resist	-3039
▁deserve	-3040
▁imagined	-3041
▁increase	-3042
▁language	-3043
▁overcome	-3044
▁interested	-3045
▁consolation	-3046
De	-3047
So	-3048
ips	-3049
▁feat	-3050
▁wild	-3051
ortion	-3052
ressed	-3053
▁merit	-3054
▁rapid	-3055
▁renew	-3056
onsense	-3057
▁absent	-3058
▁consci	-3059
▁glance	-3060
▁settle	-3061
▁sorrow	-3062
▁houseke	-3063
▁satisfy	-3064
▁willing	-3065
▁entrance	-3066
▁exclaimed	-3067
▁listening	-3068
▁comparison	-3069
▁frequently	-3070
▁politeness	-3071
br	-3072
rem	-3073
They	-3074
aven	-3075
erty	-3076
ldom	-3077
▁nur	-3078
▁pit	-3079
alent	-3080
overy	-3081
▁grew	-3082
▁hero	-3083
▁rend	-3084
▁soul	-3085
▁While	-3086
▁gover	-3087
▁indis	-3088
▁liber	-3089
▁spare	-3090
omestic	-3091
▁circle	-3092
▁clergy	-3093
▁height	-3094
▁pardon	-3095
otherton	-3096
▁admired	-3097
▁emotion	-3098
▁expense	-3099
▁growing	-3100
▁mistake	-3101
▁readily	-3102
▁whisper	-3103
▁property	-3104
▁suspected	-3105
▁indulgence	-3106
▁compliments	-3107
con	-3108
ants	-3109
ical	-3110
▁dro	-3111
rigin	-3112
▁Then	-3113
▁spot	-3114
▁stup	-3115
▁dared	-3116
▁lines	-3117
▁stran	-3118
▁theat	-3119
idently	-3120
▁Pember	-3121
▁closed	-3122
▁intent	-3123
▁seated	-3124
▁steady	-3125
▁carried	-3126
▁fashion	-3127
▁history	-3128
▁domestic	-3129
▁laughing	-3130
▁proposed	-3131
▁reproach	-3132
▁Pemberley	-3133
▁Sotherton	-3134
▁assurance	-3135
▁connected	-3136
▁fortunate	-3137
▁questions	-3138
▁supposing	-3139
▁instrument	-3140
▁sentiments	-3141
Is	-3142
Per	-3143
mas	-3144
ume	-3145
hank	-3146
hest	-3147
inte	-3148
pond	-3149
▁Bet	-3150
▁Tay	-3151
▁err	-3152
ommod	-3153
▁free	-3154
▁hair	-3155
stairs	-3156
▁posit	-3157
▁provo	-3158
▁reach	-3159
▁third	-3160
▁esteem	-3161
▁garden	-3162
▁honest	-3163
▁modest	-3164
▁origin	-3165
▁raised	-3166
▁result	-3167
▁seldom	-3168
▁Norland	-3169
▁offered	-3170
▁recover	-3171
▁accompan	-3172
▁inclined	-3173
▁possibly	-3174
▁eagerness	-3175
▁inquiries	-3176
▁principal	-3177
▁tolerable	-3178
▁inconvenience	-3179
apa	-3180
ric	-3181
▁sk	-3182
rown	-3183
▁enc	-3184
▁irr	-3185
which	-3186
▁step	-3187
▁Could	-3188
▁These	-3189
▁blush	-3190
▁madam	-3191
▁speed	-3192
▁wants	-3193
▁worst	-3194
▁Christ	-3195
▁Taylor	-3196
▁asking	-3197
▁direct	-3198
▁number	-3199
▁unable	-3200
▁discour	-3201
▁discuss	-3202
▁hurried	-3203
▁protest	-3204
▁village	-3205
▁accident	-3206
▁frequent	-3207
▁friendly	-3208
▁embarrass	-3209
▁succeeded	-3210
▁cheerfulness	-3211
▁communication	-3212
tw	-3213
Why	-3214
ang	-3215
den	-3216
onc	-3217
tic	-3218
rink	-3219
▁eat	-3220
▁fal	-3221
▁sea	-3222
ernon	-3223
▁stud	-3224
▁admit	-3225
▁cruel	-3226
▁enter	-3227
▁heavy	-3228
▁moved	-3229
▁perse	-3230
▁prove	-3231
▁Though	-3232
▁lament	-3233
▁powers	-3234
▁report	-3235
▁smiles	-3236
▁stupid	-3237
oubtedly	-3238
▁courage	-3239
▁agitated	-3240
▁apparent	-3241
▁gratified	-3242
▁perceived	-3243
▁affections	-3244
▁employment	-3245
▁sensations	-3246
▁arrangement	-3247
;"	-3248
mn	-3249
ERN	-3250
ding	-3251
sing	-3252
▁Dix	-3253
▁Ros	-3254
▁mix	-3255
ERNON	-3256
ences	-3257
▁hall	-3258
▁prud	-3259
▁rank	-3260
▁rate	-3261
▁shru	-3262
▁sour	-3263
▁arran	-3264
▁chose	-3265
▁piece	-3266
▁seven	-3267
▁start	-3268
▁ceased	-3269
▁church	-3270
▁figure	-3271
▁preser	-3272
▁quarre	-3273
▁solemn	-3274
▁unless	-3275
▁Rosings	-3276
▁illness	-3277
▁regular	-3278
▁restore	-3279
▁witness	-3280
▁heartily	-3281
▁improved	-3282
▁interval	-3283
▁occupied	-3284
▁rational	-3285
▁evidently	-3286
▁tranquill	-3287
▁complexion	-3288
▁description	-3289
▁excessively	-3290
do	-3291
Mrs	-3292
ano	-3293
cied	-3294
etch	-3295
just	-3296
kind	-3297
oted	-3298
ially	-3299
iding	-3300
iture	-3301
▁busy	-3302
▁gown	-3303
▁sink	-3304
▁unne	-3305
▁anger	-3306
▁false	-3307
▁human	-3308
Perhaps	-3309
▁bright	-3310
▁corres	-3311
▁habits	-3312
▁kindly	-3313
▁learnt	-3314
▁orders	-3315
▁spared	-3316
▁talent	-3317
▁volunt	-3318
▁Perhaps	-3319
▁fancied	-3320
▁quietly	-3321
▁quitted	-3322
▁perceive	-3323
▁probable	-3324
▁unnecess	-3325
▁direction	-3326
▁remaining	-3327
▁conscience	-3328
set	-3329
cies	-3330
ices	-3331
orne	-3332
osen	-3333
vous	-3334
▁env	-3335
▁obt	-3336
▁saf	-3337
clock	-3338
ening	-3339
gress	-3340
▁dark	-3341
▁deli	-3342
▁diss	-3343
▁fill	-3344
▁hill	-3345
▁narr	-3346
▁rejo	-3347
▁wood	-3348
ounced	-3349
▁Ports	-3350
▁benef	-3351
▁forth	-3352
▁hesit	-3353
▁piano	-3354
▁truly	-3355
▁refuse	-3356
▁rising	-3357
▁school	-3358
ertainly	-3359
▁altered	-3360
▁attract	-3361
▁possess	-3362
▁related	-3363
▁finished	-3364
▁patience	-3365
▁presence	-3366
▁pleasures	-3367
▁Portsmouth	-3368
▁distressed	-3369
▁infinitely	-3370
▁differently	-3371
▁expressions	-3372
▁housekeeper	-3373
ec	-3374
isk	-3375
ork	-3376
Then	-3377
▁tor	-3378
▁uns	-3379
pping	-3380
under	-3381
▁maid	-3382
▁nove	-3383
course	-3384
▁breat	-3385
▁cerem	-3386
fulness	-3387
▁betray	-3388
▁effort	-3389
▁points	-3390
▁Donwell	-3391
▁chiefly	-3392
▁cordial	-3393
▁parlour	-3394
fordshire	-3395
▁becoming	-3396
▁contempt	-3397
▁deceived	-3398
▁deserved	-3399
▁families	-3400
▁connexion	-3401
▁wonderful	-3402
▁frightened	-3403
▁increasing	-3404
▁separation	-3405
▁intercourse	-3406
▁unfortunate	-3407
att	-3408
.--"	-3409
ainw	-3410
ized	-3411
uses	-3412
▁wed	-3413
forte	-3414
ommon	-3415
▁stop	-3416
omfort	-3417
▁Dixon	-3418
▁Mainw	-3419
▁borne	-3420
▁court	-3421
▁rever	-3422
▁stead	-3423
▁attack	-3424
▁chosen	-3425
▁faults	-3426
▁caution	-3427
▁hastily	-3428
▁careless	-3429
▁convince	-3430
▁nonsense	-3431
▁watching	-3432
▁furniture	-3433
▁conclusion	-3434
▁engagements	-3435
▁independence	-3436
Did	-3437
▁di	-3438
ilar	-3439
omin	-3440
road	-3441
▁don	-3442
▁lod	-3443
pered	-3444
roves	-3445
while	-3446
▁enqu	-3447
▁fema	-3448
▁hurt	-3449
▁ways	-3450
ensive	-3451
though	-3452
▁escap	-3453
▁pains	-3454
▁apolog	-3455
▁declin	-3456
▁demand	-3457
▁distur	-3458
▁engage	-3459
▁safely	-3460
▁stairs	-3461
▁strugg	-3462
▁uneasy	-3463
▁unlike	-3464
▁applied	-3465
▁dignity	-3466
▁foolish	-3467
▁grounds	-3468
▁happier	-3469
▁measure	-3470
▁neglect	-3471
▁variety	-3472
▁visitor	-3473
▁accommod	-3474
▁blessing	-3475
▁moreover	-3476
▁progress	-3477
▁Frederick	-3478
▁ignorance	-3479
▁presently	-3480
▁impression	-3481
▁neighbours	-3482
▁persuasion	-3483
▁remembrance	-3484
.,	-3485
▁da	-3486
▁fr	-3487
▁ow	-3488
luck	-3489
reen	-3490
▁Hay	-3491
▁bow	-3492
▁hot	-3493
anced	-3494
loved	-3495
vered	-3496
▁cand	-3497
▁firm	-3498
▁held	-3499
▁qual	-3500
▁rapt	-3501
▁tall	-3502
▁build	-3503
▁coach	-3504
▁estim	-3505
▁exper	-3506
▁force	-3507
▁gives	-3508
▁lover	-3509
hearted	-3510
▁Hayter	-3511
▁across	-3512
▁bitter	-3513
▁broken	-3514
▁insens	-3515
▁sought	-3516
▁waited	-3517
▁beloved	-3518
▁disgust	-3519
▁highest	-3520
▁pressed	-3521
▁require	-3522
▁treated	-3523
▁watched	-3524
▁conveyed	-3525
▁employed	-3526
▁stronger	-3527
▁addressed	-3528
▁attentive	-3529
▁concluded	-3530
▁expecting	-3531
▁gradually	-3532
▁recovered	-3533
▁possession	-3534
▁unnecessary	-3535
▁embarrassment	-3536
cha	-3537
sey	-3538
▁TO	-3539
▁pu	-3540
play	-3541
▁gen	-3542
assed	-3543
▁fail	-3544
▁mile	-3545
▁papa	-3546
▁prec	-3547
▁quit	-3548
▁slow	-3549
▁wear	-3550
▁chuse	-3551
▁dwell	-3552
▁grace	-3553
▁noise	-3554
▁shrub	-3555
▁yield	-3556
onshire	-3557
▁advise	-3558
▁choose	-3559
▁depart	-3560
▁forese	-3561
▁hither	-3562
▁mutual	-3563
itations	-3564
▁excited	-3565
▁explain	-3566
▁passage	-3567
▁sending	-3568
▁theatre	-3569
▁concerns	-3570
▁entering	-3571
▁happiest	-3572
▁personal	-3573
▁vexation	-3574
▁clergyman	-3575
▁sincerely	-3576
▁uncomfort	-3577
▁Mainwaring	-3578
▁impatience	-3579
▁intentions	-3580
▁distressing	-3581
▁undoubtedly	-3582
ime	-3583
▁ph	-3584
ctory	-3585
ouses	-3586
▁Hert	-3587
▁laid	-3588
▁land	-3589
▁lips	-3590
vering	-3591
▁Place	-3592
▁affli	-3593
▁amend	-3594
▁raise	-3595
natured	-3596
▁amused	-3597
▁assert	-3598
▁calcul	-3599
▁impert	-3600
▁memory	-3601
▁parish	-3602
▁united	-3603
▁secured	-3604
▁trusted	-3605
▁features	-3606
▁ignorant	-3607
▁peculiar	-3608
▁somebody	-3609
▁Musgroves	-3610
▁sacrifice	-3611
▁Churchhill	-3612
▁companions	-3613
▁correspond	-3614
▁dependence	-3615
▁Hertfordshire	-3616
In	-3617
af	-3618
urd	-3619
▁MR	-3620
▁Of	-3621
pher	-3622
then	-3623
▁inn	-3624
▁law	-3625
table	-3626
▁Wall	-3627
▁boys	-3628
▁crow	-3629
▁dull	-3630
▁insu	-3631
▁pron	-3632
▁rous	-3633
▁susp	-3634
twenty	-3635
▁drove	-3636
▁exped	-3637
▁maint	-3638
onsider	-3639
▁assemb	-3640
▁belief	-3641
▁higher	-3642
▁matrim	-3643
▁resemb	-3644
▁taught	-3645
arriages	-3646
▁changed	-3647
▁commend	-3648
▁display	-3649
▁distant	-3650
▁message	-3651
▁objects	-3652
▁reserve	-3653
▁triumph	-3654
▁venture	-3655
▁wedding	-3656
▁depended	-3657
▁disgrace	-3658
▁impertin	-3659
▁instance	-3660
▁opposite	-3661
▁strongly	-3662
▁uncommon	-3663
▁explained	-3664
▁prevailed	-3665
▁interrupted	-3666
▁introduction	-3667
▁uncomfortable	-3668
Now	-3669
ail	-3670
che	-3671
pit	-3672
▁Tu	-3673
Dear	-3674
Good	-3675
Have	-3676
When	-3677
aple	-3678
aret	-3679
atur	-3680
iter	-3681
▁mam	-3682
aking	-3683
ourgh	-3684
▁Have	-3685
▁Some	-3686
▁hate	-3687
▁show	-3688
▁sunk	-3689
llable	-3690
▁boast	-3691
▁daily	-3692
▁faith	-3693
▁lucky	-3694
unately	-3695
▁Bourgh	-3696
▁Steele	-3697
▁applic	-3698
▁missed	-3699
▁morrow	-3700
▁notion	-3701
▁unkind	-3702
▁unluck	-3703
omething	-3704
▁Forster	-3705
▁However	-3706
▁Tuesday	-3707
▁desired	-3708
▁divided	-3709
▁persons	-3710
▁produce	-3711
▁shortly	-3712
▁sincere	-3713
▁approach	-3714
▁attribut	-3715
▁calmness	-3716
▁softened	-3717
▁trifling	-3718
▁valuable	-3719
▁authority	-3720
▁believing	-3721
▁discourse	-3722
▁preparing	-3723
▁alteration	-3724
▁opposition	-3725
▁partiality	-3726
▁pianoforte	-3727
▁remarkably	-3728
▁uneasiness	-3729
▁tranquillity	-3730
AD	-3731
As	-3732
als	-3733
ges	-3734
ier	-3735
ked	-3736
oms	-3737
▁DE	-3738
back	-3739
gent	-3740
idst	-3741
▁Did	-3742
▁elo	-3743
▁gay	-3744
▁sex	-3745
garet	-3746
unday	-3747
▁bust	-3748
▁incl	-3749
▁loud	-3750
▁rose	-3751
▁Abbey	-3752
▁aloud	-3753
▁cares	-3754
▁crowd	-3755
▁drink	-3756
▁grown	-3757
▁oblig	-3758
▁vexed	-3759
attered	-3760
▁Sunday	-3761
▁chaise	-3762
▁deeply	-3763
▁endeav	-3764
▁horror	-3765
▁moving	-3766
▁shewed	-3767
▁thanks	-3768
▁worthy	-3769
▁discern	-3770
▁happily	-3771
▁keeping	-3772
▁afforded	-3773
▁arranged	-3774
▁confined	-3775
▁discover	-3776
▁goodness	-3777
▁sentence	-3778
▁unexpect	-3779
▁meanwhile	-3780
▁restraint	-3781
▁recommended	-3782
ift	-3783
itz	-3784
ung	-3785
ush	-3786
▁Ex	-3787
irth	-3788
rive	-3789
▁lat	-3790
ormed	-3791
ticip	-3792
▁argu	-3793
▁dism	-3794
▁fate	-3795
▁idle	-3796
▁size	-3797
▁symp	-3798
▁Satur	-3799
▁Where	-3800
▁elder	-3801
▁moder	-3802
▁noble	-3803
▁sleep	-3804
▁Wallis	-3805
▁active	-3806
▁anyone	-3807
▁destro	-3808
▁endure	-3809
▁events	-3810
▁induce	-3811
▁judged	-3812
▁nearer	-3813
▁purcha	-3814
▁spread	-3815
▁undert	-3816
▁visits	-3817
▁anticip	-3818
▁confirm	-3819
▁fearful	-3820
▁seeming	-3821
▁setting	-3822
▁Saturday	-3823
▁anywhere	-3824
▁directed	-3825
▁shrubber	-3826
▁surprize	-3827
▁unreason	-3828
▁wondered	-3829
▁Christmas	-3830
▁certainty	-3831
▁complaint	-3832
▁principle	-3833
▁uncertain	-3834
▁distinction	-3835
▁indignation	-3836
▁recollected	-3837
▁occasionally	-3838
my	-3839
ron	-3840
urs	-3841
Emma	-3842
▁Yet	-3843
Thank	-3844
isite	-3845
isted	-3846
▁Fitz	-3847
▁neck	-3848
▁risk	-3849
▁summ	-3850
▁wise	-3851
olence	-3852
▁steps	-3853
william	-3854
▁abroad	-3855
▁longed	-3856
▁lovely	-3857
▁merits	-3858
▁middle	-3859
▁season	-3860
interest	-3861
▁behaved	-3862
▁forming	-3863
▁offence	-3864
▁putting	-3865
▁violent	-3866
▁windows	-3867
▁Margaret	-3868
▁comforts	-3869
▁composed	-3870
▁delicate	-3871
▁informed	-3872
▁officers	-3873
▁relation	-3874
▁syllable	-3875
▁visitors	-3876
▁youngest	-3877
▁Dashwoods	-3878
▁continual	-3879
▁determine	-3880
▁residence	-3881
▁addressing	-3882
▁advantages	-3883
▁encouraged	-3884
▁preference	-3885
▁remembered	-3886
▁Fitzwilliam	-3887
▁independent	-3888
▁interference	-3889
▁distinguished	-3890
zz	-3891
gar	-3892
kes	-3893
omp	-3894
▁av	-3895
----	-3896
maid	-3897
▁Ens	-3898
▁asc	-3899
▁ing	-3900
▁war	-3901
▁wid	-3902
combe	-3903
erity	-3904
known	-3905
lance	-3906
lying	-3907
▁amaz	-3908
▁cool	-3909
▁forb	-3910
liness	-3911
▁Hurst	-3912
▁arise	-3913
▁cared	-3914
▁cheek	-3915
▁fetch	-3916
▁fifty	-3917
▁gloom	-3918
▁overp	-3919
▁silly	-3920
▁bustle	-3921
▁doubts	-3922
▁humble	-3923
▁office	-3924
▁thirty	-3925
▁trifle	-3926
▁wealth	-3927
▁amongst	-3928
▁apology	-3929
▁destroy	-3930
▁dressed	-3931
▁earlier	-3932
▁grieved	-3933
▁notions	-3934
▁pretend	-3935
▁rejoice	-3936
▁Bertrams	-3937
▁Enscombe	-3938
▁continue	-3939
▁generous	-3940
▁offended	-3941
▁provided	-3942
▁rendered	-3943
▁striking	-3944
▁suspense	-3945
▁abilities	-3946
▁animation	-3947
▁condition	-3948
▁decidedly	-3949
▁described	-3950
▁gallantry	-3951
▁introduce	-3952
▁surprized	-3953
▁endeavoured	-3954
▁established	-3955
▁reflections	-3956
▁accomplished	-3957
bb	-3958
og	-3959
ADY	-3960
For	-3961
eor	-3962
rid	-3963
umb	-3964
▁Ag	-3965
▁Ne	-3966
▁Sh	-3967
▁et	-3968
▁kn	-3969
▁la	-3970
aper	-3971
ards	-3972
hall	-3973
qual	-3974
rose	-3975
▁Cam	-3976
▁ban	-3977
▁ung	-3978
ading	-3979
aning	-3980
month	-3981
rence	-3982
▁LADY	-3983
▁clot	-3984
▁cure	-3985
▁died	-3986
▁farm	-3987
▁game	-3988
▁grow	-3989
▁mild	-3990
arance	-3991
humour	-3992
▁Phill	-3993
▁arose	-3994
▁black	-3995
▁forbe	-3996
▁hints	-3997
▁shook	-3998
▁touch	-3999
raction	-4000
▁danced	-4001
▁fatigu	-4002
▁forgiv	-4003
▁places	-4004
▁relate	-4005
▁unjust	-4006
▁escaped	-4007
▁injured	-4008
▁justify	-4009
▁misfort	-4010
▁shocked	-4011
▁brothers	-4012
▁ceremony	-4013
▁gracious	-4014
▁quitting	-4015
▁restored	-4016
▁upstairs	-4017
▁attempted	-4018
▁continually	-4019
▁encouraging	-4020
ls	-4021
ici	-4022
let	-4023
pet	-4024
▁Tw	-4025
alry	-4026
amed	-4027
pper	-4028
vent	-4029
▁Can	-4030
▁Was	-4031
▁Who	-4032
▁ter	-4033
after	-4034
igned	-4035
olent	-4036
onday	-4037
▁Pray	-4038
▁cens	-4039
▁elig	-4040
▁rehe	-4041
▁ride	-4042
▁surr	-4043
hanger	-4044
▁abbey	-4045
▁amaze	-4046
▁cards	-4047
▁guest	-4048
▁schem	-4049
▁sympt	-4050
▁throw	-4051
▁Nobody	-4052
▁absurd	-4053
▁desert	-4054
▁preced	-4055
▁reward	-4056
▁roused	-4057
▁source	-4058
humoured	-4059
▁contrad	-4060
▁induced	-4061
▁motives	-4062
▁unworth	-4063
▁various	-4064
▁visited	-4065
▁Phillips	-4066
▁honoured	-4067
▁shocking	-4068
▁thankful	-4069
▁apartment	-4070
▁appearing	-4071
▁ascertain	-4072
▁carriages	-4073
▁departure	-4074
▁discovery	-4075
▁existence	-4076
▁justified	-4077
▁supported	-4078
▁discussion	-4079
▁honourable	-4080
▁objections	-4081
▁approaching	-4082
▁performance	-4083
▁superiority	-4084
▁twelvemonth	-4085
▁apprehension	-4086
▁mortification	-4087
"--	-4088
ela	-4089
hab	-4090
hor	-4091
imp	-4092
pul	-4093
ump	-4094
was	-4095
Poor	-4096
ains	-4097
enes	-4098
iest	-4099
they	-4100
usal	-4101
▁ess	-4102
▁lie	-4103
alrym	-4104
brary	-4105
iance	-4106
pherd	-4107
place	-4108
rible	-4109
xford	-4110
▁Geor	-4111
▁Nove	-4112
▁bore	-4113
▁curt	-4114
▁perm	-4115
▁seek	-4116
▁vast	-4117
retion	-4118
▁evils	-4119
▁haste	-4120
▁plans	-4121
▁takes	-4122
▁withd	-4123
righton	-4124
▁Betsey	-4125
▁Dalrym	-4126
▁Monday	-4127
▁begged	-4128
▁dances	-4129
▁excite	-4130
▁fallen	-4131
▁invite	-4132
▁openly	-4133
▁paying	-4134
▁polite	-4135
▁safety	-4136
▁submit	-4137
ableness	-4138
▁affairs	-4139
▁censure	-4140
▁forgive	-4141
▁leading	-4142
▁library	-4143
▁thanked	-4144
Certainly	-4145
▁Brighton	-4146
▁November	-4147
▁decision	-4148
▁formerly	-4149
▁hitherto	-4150
▁relieved	-4151
▁amazement	-4152
▁Northanger	-4153
▁characters	-4154
▁civilities	-4155
▁imprudence	-4156
▁accordingly	-4157
▁resemblance	-4158
▁consequently	-4159
▁expectations	-4160
..	-4161
ox	-4162
atis	-4163
case	-4164
onci	-4165
onst	-4166
ture	-4167
vant	-4168
▁Wed	-4169
▁aut	-4170
▁der	-4171
▁smo	-4172
inded	-4173
ounce	-4174
paper	-4175
urity	-4176
xions	-4177
▁Good	-4178
▁gain	-4179
▁inev	-4180
▁nine	-4181
olding	-4182
▁Grove	-4183
▁House	-4184
▁alike	-4185
▁cease	-4186
▁shewn	-4187
▁urged	-4188
▁water	-4189
welcome	-4190
▁Oxford	-4191
▁enquir	-4192
▁female	-4193
▁marked	-4194
▁scenes	-4195
▁supper	-4196
▁approve	-4197
▁doubted	-4198
▁inquire	-4199
▁parents	-4200
▁reconci	-4201
▁running	-4202
▁similar	-4203
▁sympath	-4204
▁Shepherd	-4205
▁bestowed	-4206
▁fancying	-4207
▁ventured	-4208
▁collected	-4209
▁connexions	-4210
▁continuing	-4211
▁convenience	-4212
▁displeasure	-4213
▁endeavouring	-4214
▁establishment	-4215
CY	-4216
ex	-4217
any	-4218
ete	-4219
rep	-4220
umn	-4221
irty	-4222
ners	-4223
rust	-4224
▁MRS	-4225
▁bew	-4226
▁unt	-4227
acity	-4228
arded	-4229
armed	-4230
cence	-4231
chief	-4232
erton	-4233
▁Wedn	-4234
▁born	-4235
▁chat	-4236
▁dead	-4237
▁goes	-4238
▁shop	-4239
▁virt	-4240
▁Eliza	-4241
▁Maple	-4242
▁flirt	-4243
▁parts	-4244
▁sangu	-4245
▁saved	-4246
▁subst	-4247
▁tremb	-4248
▁utter	-4249
elaford	-4250
▁corner	-4251
▁fairly	-4252
▁fitted	-4253
▁gaiety	-4254
▁houses	-4255
▁narrow	-4256
▁prejud	-4257
▁valued	-4258
incerity	-4259
▁falling	-4260
▁liberal	-4261
▁playing	-4262
▁prosper	-4263
▁refused	-4264
▁resolve	-4265
▁tempted	-4266
▁advanced	-4267
▁compared	-4268
▁contrast	-4269
▁declined	-4270
▁doubtful	-4271
▁dressing	-4272
▁improper	-4273
▁jealousy	-4274
▁positive	-4275
▁sanguine	-4276
▁scruples	-4277
▁solitude	-4278
▁spending	-4279
▁stranger	-4280
▁Wednesday	-4281
▁dangerous	-4282
▁matrimony	-4283
▁newspaper	-4284
▁unwelcome	-4285
▁assurances	-4286
▁commission	-4287
▁convenient	-4288
▁perceiving	-4289
▁previously	-4290
▁suspicions	-4291
▁application	-4292
▁voluntarily	-4293
▁unreasonable	-4294
▁wretchedness	-4295
RCY	-4296
bly	-4297
etr	-4298
ets	-4299
rit	-4300
uns	-4301
▁CO	-4302
▁er	-4303
Such	-4304
akes	-4305
emed	-4306
lish	-4307
recy	-4308
uous	-4309
▁Cle	-4310
▁Nor	-4311
▁bas	-4312
▁bri	-4313
▁car	-4314
▁shy	-4315
ethod	-4316
hampt	-4317
oting	-4318
▁Full	-4319
▁Hall	-4320
▁Hill	-4321
▁cost	-4322
▁deny	-4323
▁glow	-4324
▁lodg	-4325
▁puzz	-4326
▁soot	-4327
▁terr	-4328
▁worn	-4329
▁error	-4330
▁fever	-4331
▁lives	-4332
▁loves	-4333
▁lower	-4334
▁Camden	-4335
▁autumn	-4336
▁declar	-4337
▁driven	-4338
▁duties	-4339
▁extent	-4340
▁insuff	-4341
▁larger	-4342
▁motion	-4343
▁nerves	-4344
▁Steeles	-4345
▁blushed	-4346
▁consist	-4347
▁counter	-4348
▁nervous	-4349
▁pointed	-4350
▁quickly	-4351
▁renewed	-4352
▁ridicul	-4353
▁schemes	-4354
▁scruple	-4355
▁thither	-4356
▁Delaford	-4357
▁alarming	-4358
▁carrying	-4359
▁describe	-4360
▁engaging	-4361
▁likeness	-4362
▁respects	-4363
▁somewhat	-4364
▁speeches	-4365
▁unworthy	-4366
interested	-4367
▁Northampt	-4368
▁accepting	-4369
▁contented	-4370
▁excepting	-4371
▁hereafter	-4372
▁preferred	-4373
▁acceptable	-4374
▁discretion	-4375
▁peculiarly	-4376
▁pleasantly	-4377
▁principles	-4378
▁remarkable	-4379
▁connections	-4380
▁sensibility	-4381
▁satisfactory	-4382
Aye	-4383
act	-4384
agn	-4385
ned	-4386
▁Sc	-4387
,"--	-4388
."--	-4389
ital	-4390
plex	-4391
uted	-4392
vity	-4393
your	-4394
▁box	-4395
▁etc	-4396
▁hat	-4397
▁pal	-4398
icing	-4399
quest	-4400
uding	-4401
▁obst	-4402
▁ones	-4403
▁simp	-4404
▁stir	-4405
asions	-4406
▁balls	-4407
▁grief	-4408
▁prett	-4409
▁shake	-4410
▁white	-4411
▁widow	-4412
▁wound	-4413
quisite	-4414
▁failed	-4415
▁hoping	-4416
▁recall	-4417
▁weight	-4418
▁benefit	-4419
▁driving	-4420
▁ordered	-4421
▁passion	-4422
▁plainly	-4423
▁privile	-4424
▁reflect	-4425
▁animated	-4426
▁contradi	-4427
▁desirous	-4428
▁entreaty	-4429
▁familiar	-4430
▁lodgings	-4431
▁regiment	-4432
▁separate	-4433
▁tomorrow	-4434
▁Dalrymple	-4435
▁imprudent	-4436
▁mortified	-4437
▁shrubbery	-4438
▁suggested	-4439
▁affliction	-4440
▁misfortune	-4441
▁obligation	-4442
▁repeatedly	-4443
▁unexpected	-4444
▁professions	-4445
▁selfishness	-4446
▁disinterested	-4447
▁recommendation	-4448
On	-4449
Are	-4450
His	-4451
Nay	-4452
ils	-4453
vag	-4454
▁Bu	-4455
▁ec	-4456
hand	-4457
hard	-4458
noon	-4459
nton	-4460
▁Com	-4461
▁ali	-4462
▁cry	-4463
▁lim	-4464
▁pri	-4465
count	-4466
itary	-4467
ivers	-4468
olded	-4469
oring	-4470
stand	-4471
▁Come	-4472
▁inno	-4473
▁neat	-4474
▁save	-4475
▁sees	-4476
▁wand	-4477
eneral	-4478
ential	-4479
veland	-4480
▁Build	-4481
▁Crown	-4482
▁artic	-4483
▁subdu	-4484
▁total	-4485
▁trick	-4486
▁abomin	-4487
▁bestow	-4488
▁cheeks	-4489
▁denied	-4490
▁diseng	-4491
▁oblige	-4492
▁played	-4493
▁prompt	-4494
lessness	-4495
▁alarmed	-4496
▁appears	-4497
▁appoint	-4498
▁engross	-4499
▁fatigue	-4500
▁prepare	-4501
▁project	-4502
▁secrecy	-4503
▁signify	-4504
▁station	-4505
▁earliest	-4506
▁pressing	-4507
▁previous	-4508
▁Fullerton	-4509
▁apprehens	-4510
▁concealed	-4511
▁exquisite	-4512
▁reception	-4513
▁sincerity	-4514
▁sweetness	-4515
▁wondering	-4516
▁Everything	-4517
▁approached	-4518
▁discovered	-4519
▁expressing	-4520
▁gratifying	-4521
▁insensible	-4522
▁forbearance	-4523
ais	-4524
ays	-4525
pri	-4526
que	-4527
▁du	-4528
▁hy	-4529
▁sw	-4530
!"--	-4531
fied	-4532
gers	-4533
hour	-4534
ites	-4535
omer	-4536
oned	-4537
ters	-4538
when	-4539
yard	-4540
▁Dev	-4541
▁buy	-4542
▁kno	-4543
▁won	-4544
ailed	-4545
avens	-4546
isely	-4547
ustom	-4548
▁Cour	-4549
▁East	-4550
▁Even	-4551
▁Only	-4552
▁cast	-4553
▁debt	-4554
▁envy	-4555
▁rise	-4556
▁sofa	-4557
▁urge	-4558
posing	-4559
▁acted	-4560
▁baron	-4561
▁corre	-4562
▁dined	-4563
▁dream	-4564
▁forty	-4565
▁front	-4566
▁incap	-4567
▁likes	-4568
▁midst	-4569
▁names	-4570
▁smart	-4571
▁staid	-4572
▁trial	-4573
▁finest	-4574
▁guided	-4575
▁lessen	-4576
▁liking	-4577
▁method	-4578
▁novelt	-4579
▁General	-4580
▁clothes	-4581
▁perplex	-4582
▁remains	-4583
▁remarks	-4584
▁seeking	-4585
▁sixteen	-4586
▁talents	-4587
▁unlucky	-4588
▁accounts	-4589
▁catching	-4590
▁extravag	-4591
▁inquired	-4592
▁involved	-4593
▁overlook	-4594
▁precious	-4595
▁rejoiced	-4596
▁reserved	-4597
▁resolute	-4598
▁wherever	-4599
▁Buildings	-4600
▁Campbells	-4601
▁Cleveland	-4602
▁belonging	-4603
▁submitted	-4604
▁conjecture	-4605
▁displeased	-4606
▁gentleness	-4607
▁ridiculous	-4608
▁situations	-4609
▁travelling	-4610
▁declaration	-4611
▁communicated	-4612
▁sufficiently	-4613
▁representation	-4614
eb	-4615
mpl	-4616
opt	-4617
reg	-4618
arse	-4619
feel	-4620
inet	-4621
▁Two	-4622
▁eff	-4623
▁fru	-4624
▁vul	-4625
anted	-4626
ernal	-4627
ieces	-4628
issed	-4629
ushed	-4630
▁bott	-4631
▁gate	-4632
▁inex	-4633
▁lock	-4634
▁reck	-4635
▁snow	-4636
▁unaf	-4637
ection	-4638
hether	-4639
nature	-4640
riving	-4641
urning	-4642
▁broke	-4643
▁guilt	-4644
▁later	-4645
▁nurse	-4646
▁threw	-4647
▁turns	-4648
▁walks	-4649
▁walls	-4650
unsford	-4651
▁Heaven	-4652
▁decide	-4653
▁defect	-4654
▁defici	-4655
▁desper	-4656
▁errand	-4657
▁hearts	-4658
▁heaven	-4659
▁justly	-4660
▁modern	-4661
▁penetr	-4662
▁reluct	-4663
▁repeat	-4664
▁strict	-4665
▁worked	-4666
▁Another	-4667
▁actions	-4668
▁advance	-4669
▁disturb	-4670
▁effects	-4671
▁example	-4672
▁finally	-4673
▁portion	-4674
▁quarrel	-4675
▁unknown	-4676
▁assisted	-4677
▁disappro	-4678
▁necklace	-4679
▁offering	-4680
▁security	-4681
▁unaffect	-4682
▁visiting	-4683
▁weakness	-4684
▁afternoon	-4685
▁flattered	-4686
▁fortitude	-4687
▁governess	-4688
▁promising	-4689
▁sensation	-4690
▁Devonshire	-4691
▁attraction	-4692
▁dreadfully	-4693
▁proportion	-4694
▁preparation	-4695
▁commendation	-4696
▁interruption	-4697
hip	-4698
ism	-4699
who	-4700
appe	-4701
bred	-4702
erby	-4703
inct	-4704
lled	-4705
▁Are	-4706
▁bid	-4707
▁cre	-4708
▁hes	-4709
▁imm	-4710
▁lab	-4711
aving	-4712
conom	-4713
▁arch	-4714
▁bold	-4715
▁elev	-4716
▁flow	-4717
▁flut	-4718
▁insp	-4719
▁jump	-4720
▁lane	-4721
▁owed	-4722
▁path	-4723
▁pump	-4724
▁ruin	-4725
▁song	-4726
itions	-4727
racted	-4728
thened	-4729
▁Derby	-4730
▁abhor	-4731
▁acute	-4732
▁adopt	-4733
▁barou	-4734
▁birth	-4735
▁faint	-4736
▁feels	-4737
▁green	-4738
▁hasty	-4739
▁older	-4740
▁stair	-4741
▁teach	-4742
▁trees	-4743
etition	-4744
▁Crofts	-4745
▁Indeed	-4746
▁condes	-4747
▁econom	-4748
▁exclam	-4749
▁grandm	-4750
▁paused	-4751
▁recent	-4752
▁reject	-4753
▁threat	-4754
▁vulgar	-4755
▁welcom	-4756
▁acquies	-4757
▁amusing	-4758
▁avoided	-4759
▁concert	-4760
▁despair	-4761
▁heroine	-4762
▁judging	-4763
▁learned	-4764
▁novelty	-4765
▁started	-4766
▁torment	-4767
▁building	-4768
▁complais	-4769
▁contempl	-4770
▁distrust	-4771
▁eligible	-4772
▁foreseen	-4773
▁forgiven	-4774
▁indulged	-4775
▁misunder	-4776
▁prudence	-4777
▁confident	-4778
▁contribut	-4779
▁encourage	-4780
▁essential	-4781
▁incapable	-4782
▁staircase	-4783
▁treatment	-4784
▁Derbyshire	-4785
▁accomplish	-4786
▁cordiality	-4787
▁hesitation	-4788
▁pronounced	-4789
▁recovering	-4790
▁sufferings	-4791
▁comfortably	-4792
▁communicate	-4793
▁distinguish	-4794
▁earnestness	-4795
▁principally	-4796
▁congratulate	-4797
▁congratulations	-4798
II	-4799
ux	-4800
wr	-4801
Her	-4802
his	-4803
oci	-4804
ule	-4805
▁Le	-4806
▁ze	-4807
cent	-4808
ctor	-4809
laim	-4810
nder	-4811
rief	-4812
rity	-4813
roat	-4814
▁coo	-4815
▁doz	-4816
▁haz	-4817
▁key	-4818
▁leg	-4819
▁wet	-4820
Fanny	-4821
ature	-4822
enses	-4823
hange	-4824
ndeur	-4825
pless	-4826
verse	-4827
▁Were	-4828
▁hung	-4829
▁joke	-4830
▁lest	-4831
▁rule	-4832
▁shar	-4833
▁thin	-4834
▁wine	-4835
ancing	-4836
ension	-4837
formed	-4838
owered	-4839
▁benev	-4840
▁board	-4841
▁dirty	-4842
▁entit	-4843
▁exult	-4844
▁ingen	-4845
▁punct	-4846
▁shock	-4847
▁space	-4848
▁sport	-4849
Harriet	-4850
nothing	-4851
perhaps	-4852
▁action	-4853
▁amends	-4854
▁associ	-4855
▁brilli	-4856
▁calmly	-4857
▁condem	-4858
▁detest	-4859
▁injury	-4860
▁oppose	-4861
▁perpet	-4862
▁releas	-4863
▁remove	-4864
▁rights	-4865
▁showed	-4866
▁smooth	-4867
▁sounds	-4868
▁strike	-4869
▁blessed	-4870
▁complac	-4871
▁devoted	-4872
▁enjoyed	-4873
▁gallery	-4874
▁longing	-4875
▁promote	-4876
▁reproof	-4877
▁unequal	-4878
▁univers	-4879
▁Hunsford	-4880
▁barouche	-4881
▁belonged	-4882
▁grandeur	-4883
▁hopeless	-4884
▁learning	-4885
▁raptures	-4886
▁regarded	-4887
▁solitary	-4888
▁speedily	-4889
▁struggle	-4890
▁supplied	-4891
▁Everybody	-4892
▁according	-4893
▁anxiously	-4894
▁deficient	-4895
▁elsewhere	-4896
▁intending	-4897
▁intervals	-4898
▁momentary	-4899
▁somewhere	-4900
▁attendance	-4901
▁flattering	-4902
▁materially	-4903
▁mortifying	-4904
▁occasional	-4905
▁occasioned	-4906
▁proceeding	-4907
▁temptation	-4908
▁entertained	-4909
▁impertinent	-4910
▁intelligible	-4911
▁observations	-4912
▁gentlemanlike	-4913
▁gratification	-4914
▁unfortunately	-4915
AN	-4916
oc	-4917
SAN	-4918
cca	-4919
dom	-4920
hib	-4921
ina	-4922
ode	-4923
rer	-4924
Pray	-4925
aces	-4926
only	-4927
▁apt	-4928
▁dim	-4929
▁hos	-4930
▁lux	-4931
▁sal	-4932
acher	-4933
atory	-4934
becca	-4935
ching	-4936
lling	-4937
quare	-4938
▁----	-4939
▁beau	-4940
▁capt	-4941
▁exte	-4942
▁pace	-4943
▁plag	-4944
▁port	-4945
▁sail	-4946
advant	-4947
erning	-4948
idable	-4949
ieties	-4950
priety	-4951
▁Never	-4952
▁Yours	-4953
▁abode	-4954
▁bloom	-4955
▁bride	-4956
▁brief	-4957
▁defer	-4958
▁hence	-4959
▁minds	-4960
▁parce	-4961
▁stage	-4962
▁storm	-4963
ensions	-4964
inement	-4965
▁county	-4966
▁deeper	-4967
▁defend	-4968
▁incomp	-4969
▁leaves	-4970
▁retire	-4971
▁senses	-4972
▁slowly	-4973
▁suited	-4974
▁uncons	-4975
▁Rebecca	-4976
▁chamber	-4977
▁checked	-4978
▁constit	-4979
▁deceive	-4980
▁discont	-4981
▁dreaded	-4982
▁fifteen	-4983
▁guessed	-4984
▁mixture	-4985
▁musical	-4986
▁pursuit	-4987
▁unreser	-4988
▁usually	-4989
▁coloured	-4990
▁conceive	-4991
▁mischief	-4992
▁obtained	-4993
▁procured	-4994
▁purchase	-4995
▁refusing	-4996
▁tendency	-4997
▁accompany	-4998
▁contained	-4999
▁disadvant	-5000
▁excessive	-5001
▁regretted	-5002
▁entreaties	-5003
▁experience	-5004
▁punishment	-5005
▁reasonably	-5006
▁succeeding	-5007
▁unaffected	-5008
▁improvements	-5009
▁correspondence	-5010
";	-5011
Ex	-5012
Can	-5013
Sir	-5014
Who	-5015
has	-5016
pel	-5017
Here	-5018
bing	-5019
comm	-5020
cond	-5021
held	-5022
kins	-5023
resh	-5024
such	-5025
sure	-5026
welt	-5027
▁Car	-5028
▁Our	-5029
▁bye	-5030
▁orn	-5031
▁red	-5032
ricle	-5033
▁Does	-5034
▁Happ	-5035
▁Tell	-5036
▁alac	-5037
▁bill	-5038
▁disd	-5039
▁fare	-5040
▁hang	-5041
▁harp	-5042
▁heir	-5043
▁pers	-5044
▁subs	-5045
▁surm	-5046
▁test	-5047
▁tong	-5048
▁unus	-5049
ursday	-5050
▁agony	-5051
▁aside	-5052
▁cloud	-5053
▁dwelt	-5054
▁inhab	-5055
▁irres	-5056
▁unsus	-5057
perfect	-5058
verance	-5059
▁Eltons	-5060
▁Having	-5061
▁abrupt	-5062
▁actual	-5063
▁appeal	-5064
▁assent	-5065
▁breath	-5066
▁filled	-5067
▁fixing	-5068
▁formal	-5069
▁horrid	-5070
▁needed	-5071
▁presum	-5072
▁repent	-5073
▁speaks	-5074
▁surely	-5075
▁terror	-5076
▁virtue	-5077
▁volume	-5078
▁baronet	-5079
▁careful	-5080
▁compare	-5081
▁correct	-5082
▁cruelty	-5083
▁delayed	-5084
▁gravely	-5085
▁guarded	-5086
▁propose	-5087
▁prudent	-5088
▁reasons	-5089
▁refusal	-5090
▁rehears	-5091
▁touched	-5092
▁working	-5093
▁Thornton	-5094
▁Thursday	-5095
▁alacrity	-5096
▁alliance	-5097
▁allowing	-5098
▁announce	-5099
▁cautious	-5100
▁contents	-5101
▁dwelling	-5102
▁hurrying	-5103
▁ornament	-5104
▁recovery	-5105
▁sweetest	-5106
▁announced	-5107
▁confirmed	-5108
▁deserving	-5109
▁destroyed	-5110
▁expedient	-5111
▁occasions	-5112
▁parsonage	-5113
▁precisely	-5114
▁prospects	-5115
▁resolving	-5116
▁slightest	-5117
▁strongest	-5118
▁calculated	-5119
▁disengaged	-5120
▁everywhere	-5121
▁heightened	-5122
▁positively	-5123
▁simplicity	-5124
▁concealment	-5125
▁continuance	-5126
▁embarrassed	-5127
▁necessarily	-5128
▁unconscious	-5129
▁complaisance	-5130
▁relationship	-5131
▁comprehension	-5132
?'	-5133
.'"	-5134
Let	-5135
eps	-5136
ieu	-5137
irm	-5138
isy	-5139
ius	-5140
olk	-5141
tem	-5142
▁Al	-5143
Come	-5144
arth	-5145
cher	-5146
epte	-5147
head	-5148
hold	-5149
icar	-5150
imed	-5151
mers	-5152
mond	-5153
oman	-5154
orum	-5155
rees	-5156
uine	-5157
ulse	-5158
ural	-5159
year	-5160
▁Haw	-5161
▁Thr	-5162
▁Wey	-5163
▁ard	-5164
▁dry	-5165
▁lot	-5166
▁nay	-5167
▁ple	-5168
▁rom	-5169
▁vac	-5170
aches	-5171
cause	-5172
iring	-5173
piece	-5174
▁Dear	-5175
▁King	-5176
▁Lang	-5177
▁Suck	-5178
▁bent	-5179
▁cent	-5180
▁dict	-5181
▁king	-5182
▁lawn	-5183
▁mama	-5184
▁unac	-5185
▁wore	-5186
oncern	-5187
pulous	-5188
ustice	-5189
▁Septe	-5190
▁abund	-5191
▁advis	-5192
▁alive	-5193
▁check	-5194
▁earth	-5195
▁gross	-5196
▁mouth	-5197
▁shown	-5198
▁study	-5199
▁tells	-5200
▁today	-5201
▁uncon	-5202
Nothing	-5203
command	-5204
▁Before	-5205
▁behave	-5206
▁charms	-5207
▁expose	-5208
▁genius	-5209
▁impart	-5210
▁insult	-5211
▁lasted	-5212
▁occupy	-5213
▁pitied	-5214
atisfied	-5215
▁English	-5216
▁Hawkins	-5217
▁Tilneys	-5218
▁charade	-5219
▁counsel	-5220
▁flutter	-5221
▁genuine	-5222
▁gravity	-5223
▁indulge	-5224
▁lasting	-5225
▁leaning	-5226
▁modesty	-5227
▁nearest	-5228
▁noticed	-5229
▁offices	-5230
▁opposed	-5231
▁presume	-5232
▁refresh	-5233
▁regrets	-5234
▁reverse	-5235
▁shewing	-5236
▁solicit	-5237
▁Weymouth	-5238
▁Woodston	-5239
▁betrayed	-5240
▁coachman	-5241
▁complain	-5242
▁curricle	-5243
▁entitled	-5244
▁evenings	-5245
▁hastened	-5246
▁inviting	-5247
▁moderate	-5248
▁practice	-5249
▁pretence	-5250
▁relative	-5251
▁removing	-5252
▁slighted	-5253
▁sympathy	-5254
▁symptoms	-5255
▁throwing	-5256
▁welcomed	-5257
▁September	-5258
▁amazingly	-5259
▁constancy	-5260
▁contrived	-5261
▁creatures	-5262
▁falsehood	-5263
▁injustice	-5264
▁neglected	-5265
▁presented	-5266
▁proposals	-5267
▁protested	-5268
▁readiness	-5269
▁apparently	-5270
▁attempting	-5271
▁collection	-5272
▁constantly	-5273
▁influenced	-5274
▁irritation	-5275
▁perfection	-5276
▁surrounded	-5277
▁awkwardness	-5278
▁impropriety	-5279
▁troublesome	-5280
▁acquiescence	-5281
▁arrangements	-5282
▁recollections	-5283
▁disapprobation	-5284
AR	-5285
An	-5286
At	-5287
ys	-5288
ari	-5289
kin	-5290
mon	-5291
nal	-5292
oat	-5293
▁ca	-5294
With	-5295
amma	-5296
ebru	-5297
eter	-5298
gate	-5299
ilty	-5300
inth	-5301
lies	-5302
olid	-5303
ries	-5304
uite	-5305
vert	-5306
view	-5307
work	-5308
▁Ind	-5309
▁May	-5310
▁Ric	-5311
▁aud	-5312
▁bon	-5313
▁ere	-5314
▁owe	-5315
▁tid	-5316
Shall	-5317
about	-5318
cient	-5319
erous	-5320
hered	-5321
illed	-5322
ories	-5323
rench	-5324
▁Till	-5325
▁crit	-5326
▁heat	-5327
▁navy	-5328
▁refr	-5329
▁ring	-5330
▁scre	-5331
▁shad	-5332
▁sons	-5333
▁unsu	-5334
cended	-5335
iation	-5336
icious	-5337
▁Those	-5338
▁Would	-5339
▁below	-5340
▁frank	-5341
▁hills	-5342
▁inatt	-5343
▁inval	-5344
▁moral	-5345
▁named	-5346
▁sharp	-5347
▁sides	-5348
▁stout	-5349
▁talks	-5350
▁upper	-5351
▁woods	-5352
atively	-5353
ebruary	-5354
feeling	-5355
▁Thrush	-5356
▁acquit	-5357
▁adding	-5358
▁decent	-5359
▁deject	-5360
▁eating	-5361
▁finish	-5362
▁incred	-5363
▁indisp	-5364
▁joyful	-5365
▁losing	-5366
▁manage	-5367
▁patron	-5368
▁reconc	-5369
▁seized	-5370
▁sevent	-5371
▁specul	-5372
▁stable	-5373
▁tenant	-5374
▁theirs	-5375
▁throat	-5376
▁tongue	-5377
▁urgent	-5378
setshire	-5379
tempered	-5380
▁Cottage	-5381
▁Johnson	-5382
▁Richard	-5383
▁article	-5384
▁cleared	-5385
▁joining	-5386
▁patient	-5387
▁revived	-5388
▁sinking	-5389
▁suspend	-5390
▁Langford	-5391
▁Whatever	-5392
▁approved	-5393
▁argument	-5394
▁attempts	-5395
▁avoiding	-5396
▁conclude	-5397
▁eighteen	-5398
▁enjoying	-5399
▁expenses	-5400
▁flattery	-5401
▁included	-5402
▁measures	-5403
▁stopping	-5404
▁unpardon	-5405
▁Something	-5406
▁addresses	-5407
▁answering	-5408
▁consulted	-5409
▁delivered	-5410
▁exertions	-5411
▁judgement	-5412
▁qualities	-5413
▁travelled	-5414
▁unconcern	-5415
▁cheerfully	-5416
▁discontent	-5417
▁excellence	-5418
▁inevitable	-5419
▁mentioning	-5420
▁thoughtful	-5421
▁throughout	-5422
▁uncommonly	-5423
▁examination	-5424
▁constitution	-5425
▁recollecting	-5426
▁accommodation	-5427
▁entertainment	-5428
By	-5429
HN	-5430
ax	-5431
go	-5432
op	-5433
sc	-5434
OHN	-5435
ama	-5436
dol	-5437
ffe	-5438
ics	-5439
ket	-5440
net	-5441
pho	-5442
rey	-5443
rop	-5444
rue	-5445
acey	-5446
ache	-5447
folk	-5448
from	-5449
poss	-5450
umed	-5451
uten	-5452
▁Mad	-5453
▁amb	-5454
▁deb	-5455
▁die	-5456
▁rob	-5457
▁san	-5458
▁ver	-5459
Never	-5460
Where	-5461
idity	-5462
ivity	-5463
lfare	-5464
▁Agat	-5465
▁Many	-5466
▁ange	-5467
▁arms	-5468
▁blow	-5469
▁dirt	-5470
▁enab	-5471
▁fing	-5472
▁hunt	-5473
▁keen	-5474
▁mead	-5475
▁pale	-5476
▁pert	-5477
▁pred	-5478
▁redu	-5479
▁tire	-5480
▁trem	-5481
arying	-5482
dolpho	-5483
otions	-5484
verted	-5485
▁Lacey	-5486
▁awful	-5487
▁bound	-5488
▁bowed	-5489
▁broad	-5490
▁class	-5491
▁decis	-5492
▁disli	-5493
▁dozen	-5494
▁exact	-5495
▁fruit	-5496
▁griev	-5497
▁holid	-5498
▁mamma	-5499
▁noisy	-5500
▁overt	-5501
▁shade	-5502
▁swell	-5503
▁thick	-5504
▁topic	-5505
▁unfit	-5506
▁unnat	-5507
▁whist	-5508
respect	-5509
▁Courcy	-5510
▁accent	-5511
▁amount	-5512
▁bottom	-5513
▁bought	-5514
▁double	-5515
▁encoun	-5516
▁energy	-5517
▁experi	-5518
▁gladly	-5519
▁guilty	-5520
▁incess	-5521
▁incons	-5522
▁muslin	-5523
▁nieces	-5524
▁obstin	-5525
▁plenty	-5526
▁resour	-5527
▁riding	-5528
▁stayed	-5529
▁unwell	-5530
▁Norfolk	-5531
▁beneath	-5532
▁capital	-5533
▁curious	-5534
▁deliber	-5535
▁demands	-5536
▁designs	-5537
▁examine	-5538
▁foresee	-5539
▁letting	-5540
▁outward	-5541
▁retired	-5542
▁unusual	-5543
▁warmest	-5544
▁welfare	-5545
▁Allenham	-5546
▁Consider	-5547
▁February	-5548
▁breaking	-5549
▁horrible	-5550
▁pictures	-5551
▁reminded	-5552
▁signific	-5553
▁slightly	-5554
▁steadily	-5555
▁violence	-5556
▁Harvilles	-5557
▁apologies	-5558
▁deference	-5559
▁disturbed	-5560
▁engrossed	-5561
▁hesitated	-5562
▁housemaid	-5563
▁imperfect	-5564
▁inquiring	-5565
▁interview	-5566
▁performed	-5567
▁professed	-5568
▁repeating	-5569
▁respected	-5570
▁seventeen	-5571
▁strangers	-5572
▁substance	-5573
▁voluntary	-5574
▁whispered	-5575
▁witnessed	-5576
▁Middletons	-5577
▁complaints	-5578
▁conference	-5579
▁deficiency	-5580
▁directions	-5581
▁downstairs	-5582
▁endeavours	-5583
▁estimation	-5584
▁forgetting	-5585
▁liberality	-5586
▁perplexity	-5587
▁regretting	-5588
▁suspecting	-5589
▁accompanied	-5590
▁complacency	-5591
▁overpowered	-5592
▁unexception	-5593
▁inconvenient	-5594
▁perseverance	-5595
▁affectionately	-5596
▁accomplishments	-5597
Be	-5598
IN	-5599
Me	-5600
nk	-5601
One	-5602
SON	-5603
Was	-5604
dig	-5605
eel	-5606
ias	-5607
itc	-5608
lia	-5609
nor	-5610
ases	-5611
bled	-5612
bted	-5613
cket	-5614
door	-5615
enny	-5616
erke	-5617
halt	-5618
phan	-5619
sett	-5620
▁Hug	-5621
▁Ire	-5622
▁Jan	-5623
▁fro	-5624
▁sly	-5625
alley	-5626
bable	-5627
every	-5628
icked	-5629
ighed	-5630
oline	-5631
orton	-5632
stead	-5633
stood	-5634
▁JOHN	-5635
▁bell	-5636
▁ecst	-5637
▁fret	-5638
▁gout	-5639
▁kitc	-5640
▁oper	-5641
▁phil	-5642
▁poet	-5643
▁rude	-5644
▁shel	-5645
▁sold	-5646
▁ungr	-5647
favour	-5648
inclin	-5649
liance	-5650
▁Coles	-5651
▁Great	-5652
▁angel	-5653
▁apply	-5654
▁blood	-5655
▁built	-5656
▁eloqu	-5657
▁grate	-5658
▁impud	-5659
▁insip	-5660
▁plann	-5661
▁revol	-5662
▁stopt	-5663
▁undes	-5664
conduct	-5665
erkeley	-5666
icarage	-5667
ichmond	-5668
parlour	-5669
utenant	-5670
writing	-5671
▁Agatha	-5672
▁George	-5673
▁Hughes	-5674
▁Morton	-5675
▁captiv	-5676
▁chapel	-5677
▁dearer	-5678
▁insist	-5679
▁labour	-5680
▁overhe	-5681
▁pained	-5682
▁prodig	-5683
▁saving	-5684
informed	-5685
▁Evering	-5686
▁Ireland	-5687
▁JOHNSON	-5688
▁Neither	-5689
▁Without	-5690
▁ancient	-5691
▁apprehe	-5692
▁created	-5693
▁crossed	-5694
▁decorum	-5695
▁economy	-5696
▁endured	-5697
▁exposed	-5698
▁implied	-5699
▁inconst	-5700
▁kindest	-5701
▁kitchen	-5702
▁placing	-5703
▁procure	-5704
▁rapidly	-5705
▁upright	-5706
▁useless	-5707
▁worldly	-5708
▁admiring	-5709
▁beauties	-5710
▁confused	-5711
▁deserves	-5712
▁detained	-5713
▁drawback	-5714
▁indebted	-5715
▁meetings	-5716
▁openness	-5717
▁pursuits	-5718
▁rapidity	-5719
▁requires	-5720
▁restless	-5721
▁settling	-5722
▁startled	-5723
▁suitable	-5724
rehensible	-5725
▁amendment	-5726
▁assembled	-5727
▁carefully	-5728
▁desperate	-5729
▁examining	-5730
▁extensive	-5731
▁horseback	-5732
▁improving	-5733
▁oppressed	-5734
▁preceding	-5735
▁preserved	-5736
▁provoking	-5737
▁purposely	-5738
▁suspended	-5739
▁unaccount	-5740
▁willingly	-5741
▁Everingham	-5742
▁confession	-5743
▁describing	-5744
▁generosity	-5745
▁misconduct	-5746
▁reconciled	-5747
▁retirement	-5748
▁ungrateful	-5749
▁astonishing	-5750
▁represented	-5751
▁delightfully	-5752
▁acknowledgment	-5753
▁unexceptionable	-5754
!'	-5755
bs	-5756
der	-5757
ilf	-5758
ole	-5759
pes	-5760
phy	-5761
rat	-5762
▁Ah	-5763
▁La	-5764
▁od	-5765
▁om	-5766
Jane	-5767
four	-5768
part	-5769
uity	-5770
▁Ame	-5771
▁Box	-5772
▁Oct	-5773
▁Pul	-5774
▁ben	-5775
▁fid	-5776
▁flo	-5777
▁mur	-5778
▁rub	-5779
▁sed	-5780
ected	-5781
grity	-5782
iform	-5783
ilsom	-5784
orted	-5785
ridge	-5786
sight	-5787
sumed	-5788
teney	-5789
uming	-5790
verty	-5791
▁Ford	-5792
▁awak	-5793
▁bare	-5794
▁degr	-5795
▁gift	-5796
▁ours	-5797
▁sore	-5798
▁stro	-5799
▁zeal	-5800
esides	-5801
urious	-5802
usions	-5803
▁Combe	-5804
▁awake	-5805
▁clock	-5806
▁elope	-5807
▁mount	-5808
▁plays	-5809
▁sadly	-5810
▁shape	-5811
▁sober	-5812
▁treas	-5813
▁unpre	-5814
▁yards	-5815
emember	-5816
enerous	-5817
liation	-5818
picious	-5819
racious	-5820
utation	-5821
▁Amelia	-5822
▁Anhalt	-5823
▁Easter	-5824
▁Exeter	-5825
▁Harley	-5826
▁Milsom	-5827
▁Square	-5828
▁apples	-5829
▁arrive	-5830
▁aspect	-5831
▁basket	-5832
▁coolly	-5833
▁dearly	-5834
▁detail	-5835
▁discom	-5836
▁disord	-5837
▁odious	-5838
▁repose	-5839
▁speedy	-5840
▁valley	-5841
▁wisest	-5842
ometimes	-5843
▁admirer	-5844
▁advised	-5845
▁civilly	-5846
▁conceit	-5847
▁excused	-5848
▁excuses	-5849
▁founded	-5850
▁happens	-5851
▁harbour	-5852
▁imputed	-5853
▁officer	-5854
▁poverty	-5855
▁pursued	-5856
▁remonst	-5857
▁renewal	-5858
▁retreat	-5859
▁showing	-5860
▁uniform	-5861
▁Berkeley	-5862
▁Caroline	-5863
▁Richmond	-5864
▁activity	-5865
▁agreeing	-5866
▁awakened	-5867
▁coldness	-5868
▁conquest	-5869
▁deserted	-5870
▁distinct	-5871
▁emotions	-5872
▁exchange	-5873
▁fatigued	-5874
▁instinct	-5875
▁irresist	-5876
▁listener	-5877
▁maternal	-5878
▁numerous	-5879
▁ordinary	-5880
▁preserve	-5881
▁pursuing	-5882
▁relating	-5883
▁silenced	-5884
▁stepping	-5885
▁allowance	-5886
▁encounter	-5887
▁entreated	-5888
▁instances	-5889
▁integrity	-5890
▁prejudice	-5891
▁privilege	-5892
▁reconcile	-5893
▁reference	-5894
▁separated	-5895
▁trembling	-5896
▁unnatural	-5897
▁abominable	-5898
▁additional	-5899
▁apartments	-5900
▁consistent	-5901
▁disrespect	-5902
▁foundation	-5903
▁handsomely	-5904
▁lieutenant	-5905
▁maintained	-5906
▁occupation	-5907
▁protection	-5908
▁repetition	-5909
▁respecting	-5910
▁anticipated	-5911
▁attractions	-5912
▁conjectures	-5913
▁intelligent	-5914
▁introducing	-5915
▁accidentally	-5916
▁insufficient	-5917
▁unpardonable	-5918
▁determination	-5919
jo	-5920
oe	-5921
ale	-5922
bby	-5923
bye	-5924
had	-5925
oop	-5926
oso	-5927
ras	-5928
uff	-5929
uit	-5930
▁"'	-5931
▁Am	-5932
▁Se	-5933
?"--	-5934
Will	-5935
arch	-5936
cend	-5937
gian	-5938
isen	-5939
lorn	-5940
ming	-5941
rang	-5942
tete	-5943
this	-5944
uary	-5945
▁Cli	-5946
▁Cox	-5947
▁Has	-5948
▁cop	-5949
▁mil	-5950
▁mon	-5951
▁oft	-5952
▁vig	-5953
aired	-5954
alled	-5955
aming	-5956
cture	-5957
giana	-5958
itate	-5959
onies	-5960
riend	-5961
ugust	-5962
woman	-5963
would	-5964
▁Fras	-5965
▁Kent	-5966
▁ensu	-5967
▁exec	-5968
▁grou	-5969
▁magn	-5970
▁pair	-5971
▁pure	-5972
▁sple	-5973
▁spru	-5974
▁tete	-5975
acious	-5976
encies	-5977
erring	-5978
rances	-5979
▁Somer	-5980
▁amiss	-5981
▁ample	-5982
▁debts	-5983
▁dying	-5984
▁field	-5985
▁heads	-5986
▁infam	-5987
▁merry	-5988
▁north	-5989
▁owned	-5990
▁owner	-5991
▁rough	-5992
▁score	-5993
▁union	-5994
ounding	-5995
turning	-5996
ulation	-5997
urrence	-5998
▁candle	-5999
▁detain	-6000
▁divide	-6001
▁ecstas	-6002
▁famous	-6003
▁fourth	-6004
▁gloomy	-6005
▁hospit	-6006
▁humili	-6007
▁imposs	-6008
▁incumb	-6009
▁parcel	-6010
▁transp	-6011
▁January	-6012
▁alluded	-6013
▁claimed	-6014
▁dischar	-6015
▁disdain	-6016
▁dropped	-6017
▁enabled	-6018
▁footing	-6019
▁forlorn	-6020
▁hanging	-6021
▁honours	-6022
▁kingdom	-6023
▁oftener	-6024
▁philoso	-6025
▁refrain	-6026
▁relieve	-6027
▁singing	-6028
▁tidings	-6029
▁uttered	-6030
▁yielded	-6031
▁Pulteney	-6032
▁accustom	-6033
▁assuring	-6034
▁contrive	-6035
▁drinking	-6036
▁esteemed	-6037
▁farewell	-6038
▁goodwill	-6039
▁husbands	-6040
▁original	-6041
▁powerful	-6042
▁reaching	-6043
▁resigned	-6044
▁tranquil	-6045
▁Crawfords	-6046
▁Georgiana	-6047
▁advisable	-6048
▁assertion	-6049
▁disinclin	-6050
▁dismissed	-6051
▁imaginary	-6052
▁inconsist	-6053
▁overpower	-6054
▁possessed	-6055
▁procuring	-6056
▁qualified	-6057
▁quickness	-6058
▁resources	-6059
▁solemnity	-6060
▁undertake	-6061
▁unfeeling	-6062
▁Churchills	-6063
▁acceptance	-6064
▁attributed	-6065
▁containing	-6066
▁exultation	-6067
▁formidable	-6068
▁gratefully	-6069
▁handsomest	-6070
▁inconsider	-6071
▁inducement	-6072
▁prevailing	-6073
▁prosperity	-6074
▁reluctance	-6075
▁resolutely	-6076
▁steadiness	-6077
▁submission	-6078
▁ungenerous	-6079
▁whispering	-6080
▁appointment	-6081
▁ascertained	-6082
▁confinement	-6083
▁employments	-6084
▁invitations	-6085
▁penetration	-6086
▁remembering	-6087
▁confirmation	-6088
▁considerably	-6089
▁disadvantage	-6090
▁dissatisfied	-6091
▁irresistible	-6092
▁unsuspicious	-6093
▁acknowledging	-6094
▁comparatively	-6095
▁impossibility	-6096
▁indisposition	-6097
▁insensibility	-6098
▁unwillingness	-6099
▁reconciliation	-6100
▁respectability	-6101
Go	-6102
bo	-6103
ew	-6104
ob	-6105
sm	-6106
sp	-6107
ts	-6108
Had	-6109
Our	-6110
rav	-6111
ued	-6112
▁Pr	-6113
▁sn	-6114
▁vo	-6115
Lord	-6116
Only	-6117
aced	-6118
arte	-6119
bers	-6120
leep	-6121
more	-6122
quet	-6123
reci	-6124
rous	-6125
▁Ant	-6126
▁Its	-6127
▁Lod	-6128
▁Nay	-6129
▁Pat	-6130
▁Sur	-6131
▁hed	-6132
▁top	-6133
▁unb	-6134
anter	-6135
antic	-6136
eding	-6137
icule	-6138
impse	-6139
lieve	-6140
phant	-6141
▁Cobb	-6142
▁Look	-6143
▁Once	-6144
▁Scot	-6145
▁blue	-6146
▁crim	-6147
▁ling	-6148
▁meal	-6149
▁mode	-6150
▁mour	-6151
▁pack	-6152
▁page	-6153
▁roof	-6154
▁temp	-6155
▁unse	-6156
▁wide	-6157
atible	-6158
coming	-6159
laimed	-6160
veying	-6161
▁Again	-6162
▁Mamma	-6163
▁Thank	-6164
▁Young	-6165
▁adapt	-6166
▁aunts	-6167
▁bewit	-6168
▁billi	-6169
▁brain	-6170
▁enfor	-6171
▁exhib	-6172
▁faces	-6173
▁freed	-6174
▁inher	-6175
▁joint	-6176
▁ninet	-6177
▁owing	-6178
▁paint	-6179
▁plant	-6180
▁weary	-6181
ication	-6182
ignific	-6183
isition	-6184
itating	-6185
settled	-6186
version	-6187
whether	-6188
▁August	-6189
▁Indies	-6190
▁amazed	-6191
▁bonnet	-6192
▁causes	-6193
▁footst	-6194
▁forbid	-6195
▁gently	-6196
▁imagin	-6197
▁insinu	-6198
▁invent	-6199
▁likeli	-6200
▁nurser	-6201
▁pocket	-6202
▁portra	-6203
▁render	-6204
▁sickly	-6205
▁sighed	-6206
▁wicked	-6207
▁writes	-6208
appeared	-6209
▁Lucases	-6210
▁amazing	-6211
▁blinded	-6212
▁clearer	-6213
▁clearly	-6214
▁condemn	-6215
▁decline	-6216
▁degrees	-6217
▁fearing	-6218
▁gaining	-6219
▁genteel	-6220
▁glimpse	-6221
▁harmony	-6222
▁heavens	-6223
▁imposed	-6224
▁inhabit	-6225
▁luckily	-6226
▁praised	-6227
▁preposs	-6228
▁prevail	-6229
▁provide	-6230
▁proving	-6231
▁puzzled	-6232
▁raising	-6233
▁resumed	-6234
▁reverie	-6235
▁somehow	-6236
▁stepped	-6237
▁warrant	-6238
abilities	-6239
▁Suckling	-6240
▁acquired	-6241
▁ambition	-6242
▁assembly	-6243
▁deprived	-6244
▁designed	-6245
▁disposal	-6246
▁doubting	-6247
▁examined	-6248
▁exciting	-6249
▁fatigues	-6250
▁graceful	-6251
▁holidays	-6252
▁honestly	-6253
▁involunt	-6254
▁lessened	-6255
▁nineteen	-6256
▁provoked	-6257
▁punctual	-6258
▁resisted	-6259
▁soothing	-6260
▁terrible	-6261
▁tiresome	-6262
▁unfavour	-6263
▁unlikely	-6264
▁attribute	-6265
▁completed	-6266
▁conceited	-6267
▁confessed	-6268
▁declining	-6269
▁dependent	-6270
▁dignified	-6271
▁elopement	-6272
▁enquiries	-6273
▁impartial	-6274
▁producing	-6275
▁provision	-6276
▁regularly	-6277
▁rehearsal	-6278
▁stupidity	-6279
▁wandering	-6280
▁bitterness	-6281
▁flirtation	-6282
▁insignific	-6283
▁permission	-6284
▁persuading	-6285
▁scrupulous	-6286
▁successful	-6287
▁ungracious	-6288
▁unkindness	-6289
▁attachments	-6290
▁benevolence	-6291
▁experienced	-6292
▁fashionable	-6293
▁hospitality	-6294
▁inferiority	-6295
▁presumption	-6296
▁pretensions	-6297
▁speculation	-6298
▁extravagance	-6299
▁impertinence	-6300
▁preparations	-6301
▁recommending	-6302
▁correspondent	-6303
▁unaccountable	-6304
--'	-6305
cil	-6306
ims	-6307
iny	-6308
rob	-6309
saw	-6310
ulf	-6311
Lady	-6312
aled	-6313
aron	-6314
arts	-6315
chie	-6316
coat	-6317
ffee	-6318
fton	-6319
gard	-6320
inde	-6321
peak	-6322
ront	-6323
time	-6324
ular	-6325
velo	-6326
▁Any	-6327
▁Ply	-6328
▁bef	-6329
▁cab	-6330
▁glo	-6331
▁kne	-6332
▁mal	-6333
▁ost	-6334
▁pou	-6335
▁sli	-6336
▁vou	-6337
acles	-6338
actly	-6339
agger	-6340
cript	-6341
cting	-6342
ctive	-6343
ellow	-6344
imate	-6345
licit	-6346
overs	-6347
quite	-6348
rooms	-6349
▁June	-6350
▁Lark	-6351
▁Much	-6352
▁Nash	-6353
▁adjo	-6354
▁alas	-6355
▁aven	-6356
▁bord	-6357
▁cher	-6358
▁damp	-6359
▁depl	-6360
▁dish	-6361
▁lord	-6362
▁obey	-6363
▁pang	-6364
▁pork	-6365
▁prem	-6366
▁rent	-6367
▁ship	-6368
▁slee	-6369
▁stra	-6370
Nobody	-6371
erably	-6372
ically	-6373
idious	-6374
itably	-6375
lesome	-6376
rained	-6377
uation	-6378
usable	-6379
▁Lodge	-6380
▁Since	-6381
▁atone	-6382
▁chest	-6383
▁compr	-6384
▁dissu	-6385
▁embra	-6386
▁gates	-6387
▁glass	-6388
▁hated	-6389
▁indec	-6390
▁infli	-6391
▁model	-6392
▁skill	-6393
▁solid	-6394
▁stock	-6395
▁stone	-6396
▁stret	-6397
▁swall	-6398
▁sweep	-6399
▁waste	-6400
isposed	-6401
meaning	-6402
ouncing	-6403
pection	-6404
ruction	-6405
▁Depend	-6406
▁French	-6407
▁beheld	-6408
▁bewild	-6409
▁centre	-6410
▁coffee	-6411
▁denial	-6412
▁disper	-6413
▁dissip	-6414
▁eleven	-6415
▁enable	-6416
▁errors	-6417
▁fidget	-6418
▁finery	-6419
▁firmly	-6420
▁flower	-6421
▁govern	-6422
▁gravel	-6423
▁guests	-6424
▁hearty	-6425
▁hyster	-6426
▁jumped	-6427
▁lesson	-6428
▁liable	-6429
▁lovers	-6430
▁luxury	-6431
▁offers	-6432
▁perman	-6433
▁plague	-6434
▁plants	-6435
▁remind	-6436
▁spoilt	-6437
▁talker	-6438
▁vacant	-6439
▁writer	-6440
▁Clifton	-6441
▁Larkins	-6442
▁Martins	-6443
▁Thorpes	-6444
▁affront	-6445
▁artless	-6446
▁becomes	-6447
▁charity	-6448
▁compose	-6449
▁console	-6450
▁cutting	-6451
▁defence	-6452
▁depends	-6453
▁derived	-6454
▁feature	-6455
▁females	-6456
▁folding	-6457
▁freedom	-6458
▁impulse	-6459
▁invalid	-6460
▁knocked	-6461
▁nursery	-6462
▁penance	-6463
▁provoke	-6464
▁shyness	-6465
▁streets	-6466
▁subdued	-6467
▁symptom	-6468
▁Plymouth	-6469
▁allusion	-6470
▁bitterly	-6471
▁decisive	-6472
▁division	-6473
▁faithful	-6474
▁governed	-6475
▁guardian	-6476
▁hardened	-6477
▁helpless	-6478
▁humility	-6479
▁needless	-6480
▁partners	-6481
▁promises	-6482
▁ridicule	-6483
▁services	-6484
▁situated	-6485
▁trusting	-6486
▁abundance	-6487
▁assisting	-6488
▁benefited	-6489
▁betraying	-6490
▁brilliant	-6491
▁exploring	-6492
▁frightful	-6493
▁incessant	-6494
▁incumbent	-6495
▁indispens	-6496
▁promotion	-6497
▁unluckily	-6498
▁unreserve	-6499
▁amusements	-6500
▁concealing	-6501
▁concluding	-6502
▁contradict	-6503
▁conversing	-6504
▁enjoyments	-6505
▁exclaiming	-6506
▁intimately	-6507
▁liveliness	-6508
▁pleasanter	-6509
▁rationally	-6510
▁triumphant	-6511
▁Northampton	-6512
▁appearances	-6513
▁attentively	-6514
▁exclamation	-6515
▁impatiently	-6516
▁unhappiness	-6517
▁comprehended	-6518
▁strengthened	-6519
▁acquaintances	-6520
▁apprehensions	-6521
▁compassionate	-6522
▁misunderstood	-6523
▁opportunities	-6524
▁distinguishing	-6525
ks	-6526
Don	-6527
Tis	-6528
ats	-6529
box	-6530
cal	-6531
hus	-6532
ipt	-6533
lar	-6534
min	-6535
off	-6536
ope	-6537
upp	-6538
vet	-6539
yes	-6540
ades	-6541
ator	-6542
atte	-6543
born	-6544
gged	-6545
give	-6546
hael	-6547
lebr	-6548
ober	-6549
poor	-6550
said	-6551
till	-6552
wers	-6553
▁Dor	-6554
▁Mic	-6555
▁ate	-6556
▁awe	-6557
▁dar	-6558
▁dup	-6559
▁fer	-6560
▁fet	-6561
▁fra	-6562
▁fun	-6563
▁gig	-6564
▁gle	-6565
▁ted	-6566
Every	-6567
Yours	-6568
astle	-6569
breed	-6570
haust	-6571
idden	-6572
repro	-6573
timed	-6574
ulous	-6575
▁Harr	-6576
▁Soon	-6577
▁York	-6578
▁abst	-6579
▁canv	-6580
▁conj	-6581
▁cook	-6582
▁drop	-6583
▁enem	-6584
▁fulf	-6585
▁gold	-6586
▁hide	-6587
▁irre	-6588
▁issu	-6589
▁lamp	-6590
▁mare	-6591
▁merc	-6592
▁pond	-6593
▁reve	-6594
▁secl	-6595
▁shaw	-6596
▁tree	-6597
abouts	-6598
aneous	-6599
iences	-6600
indeed	-6601
isions	-6602
isting	-6603
ligent	-6604
minded	-6605
nected	-6606
ushing	-6607
▁About	-6608
▁Baron	-6609
▁Carte	-6610
▁Denny	-6611
▁Happy	-6612
▁Patty	-6613
▁Three	-6614
▁blund	-6615
▁bread	-6616
▁calls	-6617
▁cases	-6618
▁devil	-6619
▁dropt	-6620
▁enclo	-6621
▁glory	-6622
▁group	-6623
▁guine	-6624
▁holds	-6625
▁incur	-6626
▁monst	-6627
▁overc	-6628
▁pages	-6629
▁repul	-6630
▁reven	-6631
▁rival	-6632
▁serve	-6633
▁spark	-6634
▁straw	-6635
▁train	-6636
▁unite	-6637
▁using	-6638
▁vouch	-6639
▁works	-6640
because	-6641
cending	-6642
haelmas	-6643
henever	-6644
ottager	-6645
ponding	-6646
ression	-6647
▁accuse	-6648
▁advent	-6649
▁amidst	-6650
▁candid	-6651
▁celebr	-6652
▁coarse	-6653
▁create	-6654
▁crying	-6655
▁deceit	-6656
▁enthus	-6657
▁flight	-6658
▁grieve	-6659
▁handed	-6660
▁ingrat	-6661
▁intend	-6662
▁invest	-6663
▁misled	-6664
▁papers	-6665
▁parade	-6666
▁proofs	-6667
▁raptur	-6668
▁reckon	-6669
▁ruined	-6670
▁sailor	-6671
▁shaken	-6672
▁shared	-6673
▁splend	-6674
▁unfair	-6675
▁urging	-6676
▁whence	-6677
breeding	-6678
▁Besides	-6679
▁Instead	-6680
▁October	-6681
▁accused	-6682
▁arising	-6683
▁boasted	-6684
▁breathe	-6685
▁chances	-6686
▁changes	-6687
▁destiny	-6688
▁dinners	-6689
▁ecstasy	-6690
▁enquiry	-6691
▁exerted	-6692
▁follows	-6693
▁forever	-6694
▁furnish	-6695
▁gardens	-6696
▁gratify	-6697
▁meadows	-6698
▁reduced	-6699
▁release	-6700
▁sources	-6701
▁studied	-6702
▁tempers	-6703
▁whither	-6704
▁Carteret	-6705
▁arriving	-6706
▁billiard	-6707
▁declares	-6708
▁disliked	-6709
▁estimate	-6710
▁extended	-6711
▁firmness	-6712
▁fondness	-6713
▁grievous	-6714
▁headache	-6715
▁idleness	-6716
▁intently	-6717
▁pointing	-6718
▁politely	-6719
▁presumed	-6720
▁prompted	-6721
▁reckoned	-6722
▁rejected	-6723
▁restrain	-6724
▁sanction	-6725
▁severely	-6726
▁silently	-6727
▁treating	-6728
▁trembled	-6729
▁withdrew	-6730
ifications	-6731
▁absurdity	-6732
▁adjoining	-6733
▁agreement	-6734
▁arguments	-6735
▁blameless	-6736
▁blessings	-6737
▁blindness	-6738
▁colouring	-6739
▁commanded	-6740
▁conducted	-6741
▁cordially	-6742
▁discerned	-6743
▁grandmama	-6744
▁happening	-6745
▁indulgent	-6746
▁indulging	-6747
▁ingenuity	-6748
▁monstrous	-6749
▁negligent	-6750
▁obstinate	-6751
▁perpetual	-6752
▁pretended	-6753
▁rejoicing	-6754
▁scattered	-6755
▁simpleton	-6756
▁thousands	-6757
▁Michaelmas	-6758
▁abhorrence	-6759
▁contracted	-6760
▁creditable	-6761
▁diffidence	-6762
▁indisposed	-6763
▁inevitably	-6764
▁management	-6765
▁moderation	-6766
▁originally	-6767
▁overlooked	-6768
▁persevered	-6769
▁preventing	-6770
▁prosperous	-6771
▁conjectured	-6772
▁considerate	-6773
▁extravagant	-6774
▁fortunately	-6775
▁inconstancy	-6776
▁quarrelling	-6777
▁surrounding	-6778
▁thoughtless	-6779
▁uncertainty	-6780
▁apprehensive	-6781
▁consequences	-6782
▁entertaining	-6783
▁inclinations	-6784
▁unfavourable	-6785
▁Somersetshire	-6786
▁comprehending	-6787
▁contemplation	-6788
▁considerations	-6789
Ay	-6790
Of	-6791
gs	-6792
aby	-6793
did	-6794
ker	-6795
lew	-6796
ues	-6797
why	-6798
▁oh	-6799
True	-6800
agna	-6801
aker	-6802
book	-6803
chan	-6804
cili	-6805
cont	-6806
have	-6807
idge	-6808
impo	-6809
ivid	-6810
much	-6811
pled	-6812
pril	-6813
rate	-6814
rent	-6815
runs	-6816
sion	-6817
umer	-6818
unes	-6819
zing	-6820
▁Ecc	-6821
▁Sam	-6822
▁agg	-6823
▁aid	-6824
▁cru	-6825
▁dou	-6826
▁dra	-6827
▁dur	-6828
▁mid	-6829
▁phr	-6830
▁ram	-6831
▁rum	-6832
▁unm	-6833
▁van	-6834
Lizzy	-6835
These	-6836
asted	-6837
attle	-6838
board	-6839
hetic	-6840
idant	-6841
ifted	-6842
inity	-6843
irley	-6844
nings	-6845
onial	-6846
orous	-6847
riday	-6848
stery	-6849
▁Four	-6850
▁baby	-6851
▁beat	-6852
▁comb	-6853
▁date	-6854
▁empt	-6855
▁feet	-6856
▁gets	-6857
▁intr	-6858
▁meat	-6859
▁mill	-6860
▁pull	-6861
▁ribb	-6862
▁sele	-6863
▁skin	-6864
▁unce	-6865
▁ungu	-6866
▁unst	-6867
▁wilf	-6868
ailing	-6869
atched	-6870
atious	-6871
church	-6872
entive	-6873
except	-6874
import	-6875
judged	-6876
utions	-6877
▁April	-6878
▁Bruns	-6879
▁Magna	-6880
▁Pratt	-6881
▁Shall	-6882
▁South	-6883
▁Still	-6884
▁Winth	-6885
▁alloy	-6886
▁chain	-6887
▁disgu	-6888
▁floor	-6889
▁grant	-6890
▁guide	-6891
▁knoll	-6892
▁liter	-6893
▁mixed	-6894
▁prior	-6895
▁range	-6896
▁seats	-6897
▁shawl	-6898
▁shill	-6899
▁south	-6900
▁tease	-6901
▁terri	-6902
▁wiser	-6903
Colonel	-6904
ariably	-6905
atingly	-6906
borough	-6907
lesford	-6908
sequent	-6909
unction	-6910
without	-6911
▁Friday	-6912
▁Grants	-6913
▁Little	-6914
▁Mother	-6915
▁alarms	-6916
▁arisen	-6917
▁avenue	-6918
▁barely	-6919
▁behalf	-6920
▁breach	-6921
▁brings	-6922
▁courte	-6923
▁curate	-6924
▁custom	-6925
▁daring	-6926
▁deemed	-6927
▁disreg	-6928
▁helped	-6929
▁intrud	-6930
▁killed	-6931
▁needle	-6932
▁nights	-6933
▁pertur	-6934
▁propri	-6935
▁rained	-6936
▁rushed	-6937
▁served	-6938
▁shrink	-6939
▁social	-6940
▁sports	-6941
▁travel	-6942
▁vastly	-6943
disposed	-6944
iousness	-6945
▁Between	-6946
▁Shirley	-6947
▁Westons	-6948
▁Whether	-6949
▁adapted	-6950
▁answers	-6951
▁bearing	-6952
▁blunder	-6953
▁candour	-6954
▁contriv	-6955
▁covered	-6956
▁curtain	-6957
▁dispose	-6958
▁efforts	-6959
▁existed	-6960
▁glowing	-6961
▁individ	-6962
▁insipid	-6963
▁involve	-6964
▁languid	-6965
▁limited	-6966
▁numbers	-6967
▁pervers	-6968
▁playful	-6969
▁reality	-6970
▁scolded	-6971
▁sharing	-6972
▁smaller	-6973
▁sorrows	-6974
▁steward	-6975
▁summons	-6976
▁surmise	-6977
▁teasing	-6978
▁utility	-6979
▁wonders	-6980
▁wounded	-6981
something	-6982
▁Cottager	-6983
▁Scotland	-6984
▁Winthrop	-6985
▁abruptly	-6986
▁ballroom	-6987
▁breeding	-6988
▁dissuade	-6989
▁fourteen	-6990
▁grieving	-6991
▁hardship	-6992
▁hesitate	-6993
▁humanity	-6994
▁insolent	-6995
▁inspired	-6996
▁noticing	-6997
▁pitiable	-6998
▁recalled	-6999
▁recently	-7000
▁released	-7001
▁romantic	-7002
▁securing	-7003
▁spacious	-7004
▁straight	-7005
▁yielding	-7006
▁Brunswick	-7007
▁Sometimes	-7008
▁appointed	-7009
▁confidant	-7010
▁consented	-7011
▁declaring	-7012
▁dejection	-7013
▁exception	-7014
▁expensive	-7015
▁furnished	-7016
▁handsomer	-7017
▁intellect	-7018
▁permitted	-7019
▁prettiest	-7020
▁promoting	-7021
▁reflected	-7022
▁requiring	-7023
▁sentences	-7024
▁sorrowful	-7025
▁variation	-7026
▁violently	-7027
▁Ecclesford	-7028
▁accidental	-7029
▁attractive	-7030
▁bewildered	-7031
▁bewitching	-7032
▁carelessly	-7033
▁compliance	-7034
▁composedly	-7035
▁convincing	-7036
▁counteract	-7037
▁expressive	-7038
▁improbable	-7039
▁invariably	-7040
▁lengthened	-7041
▁likelihood	-7042
▁questioned	-7043
▁solicitous	-7044
▁subsequent	-7045
▁threatened	-7046
▁usefulness	-7047
▁yourselves	-7048
▁acquisition	-7049
▁discernment	-7050
▁grandmother	-7051
▁inattention	-7052
▁refreshment	-7053
▁unconnected	-7054
▁universally	-7055
▁advantageous	-7056
▁contradicted	-7057
▁disagreement	-7058
▁exclamations	-7059
▁overpowering	-7060
▁perverseness	-7061
▁remonstrance	-7062
▁congratulated	-7063
▁misunderstand	-7064
▁unconsciously	-7065
▁accomplishment	-7066
▁communications	-7067
▁disinclination	-7068
▁disappointments	-7069
▁recommendations	-7070
Ab	-7071
TH	-7072
ah	-7073
bl	-7074
gl	-7075
Has	-7076
alf	-7077
ams	-7078
ank	-7079
cks	-7080
elt	-7081
lds	-7082
rec	-7083
sex	-7084
yno	-7085
▁Gl	-7086
▁au	-7087
,--"	-7088
;--"	-7089
Char	-7090
aked	-7091
ambt	-7092
bute	-7093
cuse	-7094
ogue	-7095
pent	-7096
ping	-7097
told	-7098
▁Ali	-7099
▁Bra	-7100
▁Mon	-7101
▁New	-7102
▁fly	-7103
▁god	-7104
▁lin	-7105
▁pac	-7106
▁pin	-7107
▁tro	-7108
▁viv	-7109
antel	-7110
bling	-7111
elina	-7112
ental	-7113
ferer	-7114
lived	-7115
orned	-7116
pular	-7117
rated	-7118
▁DEAR	-7119
▁Grey	-7120
▁Half	-7121
▁Most	-7122
▁Sure	-7123
▁Time	-7124
▁Whit	-7125
▁Wing	-7126
▁alle	-7127
▁bend	-7128
▁bran	-7129
▁dock	-7130
▁flew	-7131
▁food	-7132
▁iron	-7133
▁mend	-7134
▁murm	-7135
▁plea	-7136
▁pupp	-7137
▁rout	-7138
▁scra	-7139
▁sell	-7140
▁snug	-7141
▁triv	-7142
▁vind	-7143
▁wall	-7144
almost	-7145
ambton	-7146
athing	-7147
attern	-7148
cation	-7149
encing	-7150
erness	-7151
establ	-7152
gments	-7153
icable	-7154
ifully	-7155
kinson	-7156
lanted	-7157
making	-7158
oncert	-7159
orable	-7160
ristol	-7161
things	-7162
ynolds	-7163
▁Adieu	-7164
▁March	-7165
▁Rooms	-7166
▁adieu	-7167
▁afflu	-7168
▁alert	-7169
▁assid	-7170
▁avail	-7171
▁beaux	-7172
▁bench	-7173
▁forms	-7174
▁frost	-7175
▁hedge	-7176
▁imped	-7177
▁indef	-7178
▁infat	-7179
▁mercy	-7180
▁mirth	-7181
▁novel	-7182
▁poult	-7183
▁river	-7184
▁roads	-7185
▁safer	-7186
▁shows	-7187
▁spect	-7188
▁store	-7189
▁stuff	-7190
▁trace	-7191
▁trade	-7192
▁unans	-7193
▁wives	-7194
judging	-7195
oration	-7196
tending	-7197
▁Doctor	-7198
▁Fraser	-7199
▁Harris	-7200
▁Nature	-7201
▁Sussex	-7202
▁Within	-7203
▁ardour	-7204
▁artful	-7205
▁asleep	-7206
▁begins	-7207
▁butler	-7208
▁calmer	-7209
▁caring	-7210
▁darted	-7211
▁delays	-7212
▁disclo	-7213
▁dispar	-7214
▁dispos	-7215
▁dissim	-7216
▁easier	-7217
▁extrem	-7218
▁farmer	-7219
▁hazard	-7220
▁kinder	-7221
▁kissed	-7222
▁mantel	-7223
▁mental	-7224
▁myster	-7225
▁novels	-7226
▁obtain	-7227
▁overth	-7228
▁phrase	-7229
▁poetry	-7230
▁pursue	-7231
▁puzzle	-7232
▁remiss	-7233
▁resign	-7234
▁search	-7235
▁sermon	-7236
▁shadow	-7237
▁silver	-7238
▁sketch	-7239
▁solely	-7240
▁soothe	-7241
▁sprung	-7242
▁stream	-7243
▁subdue	-7244
▁survey	-7245
▁truths	-7246
▁varied	-7247
▁voices	-7248
▁Bennets	-7249
▁Bristol	-7250
▁Lambton	-7251
▁Palmers	-7252
▁artific	-7253
▁begging	-7254
▁butcher	-7255
▁cabinet	-7256
▁caprice	-7257
▁chooses	-7258
▁closely	-7259
▁condesc	-7260
▁courtes	-7261
▁darling	-7262
▁despise	-7263
▁endless	-7264
▁exhaust	-7265
▁explore	-7266
▁fancies	-7267
▁fingers	-7268
▁forcing	-7269
▁granted	-7270
▁heroism	-7271
▁holding	-7272
▁hunting	-7273
▁languor	-7274
▁lecture	-7275
▁mansion	-7276
▁masters	-7277
▁mystery	-7278
▁perusal	-7279
▁pitiful	-7280
▁popular	-7281
▁propens	-7282
▁receipt	-7283
▁revenge	-7284
▁rightly	-7285
▁shaking	-7286
▁sighing	-7287
▁supplic	-7288
▁tribute	-7289
▁trivial	-7290
▁varying	-7291
▁visible	-7292
▁Remember	-7293
▁Reynolds	-7294
▁applying	-7295
▁appropri	-7296
▁astonish	-7297
▁banished	-7298
▁blushing	-7299
▁converse	-7300
▁critical	-7301
▁despatch	-7302
▁detected	-7303
▁discreet	-7304
▁dockyard	-7305
▁effusion	-7306
▁elevated	-7307
▁fearless	-7308
▁foretold	-7309
▁glancing	-7310
▁humoured	-7311
▁indolent	-7312
▁insisted	-7313
▁joyfully	-7314
▁lamented	-7315
▁mildness	-7316
▁negative	-7317
▁opposing	-7318
▁passages	-7319
▁propriet	-7320
▁secondly	-7321
▁severity	-7322
▁sleeping	-7323
▁sufferer	-7324
▁summoned	-7325
▁theatric	-7326
▁thirteen	-7327
▁treasure	-7328
▁unfolded	-7329
▁withdraw	-7330
▁Christian	-7331
▁Wingfield	-7332
▁admitting	-7333
▁advancing	-7334
▁affording	-7335
▁agreeably	-7336
▁allowable	-7337
▁comforted	-7338
▁comprised	-7339
▁consoling	-7340
▁conveying	-7341
▁depressed	-7342
▁directing	-7343
▁disgusted	-7344
▁displayed	-7345
▁eloquence	-7346
▁footsteps	-7347
▁innocence	-7348
▁interests	-7349
▁interfere	-7350
▁intrusion	-7351
▁invention	-7352
▁judicious	-7353
▁lamenting	-7354
▁offending	-7355
▁ornaments	-7356
▁overheard	-7357
▁pronounce	-7358
▁sleepless	-7359
▁unguarded	-7360
▁universal	-7361
▁unsettled	-7362
▁withdrawn	-7363
▁authorised	-7364
▁brilliancy	-7365
▁celebrated	-7366
▁collecting	-7367
▁concerning	-7368
▁consequent	-7369
▁contriving	-7370
▁disgusting	-7371
▁interposed	-7372
▁restrained	-7373
▁suggestion	-7374
▁suspicious	-7375
▁thankfully	-7376
▁wilderness	-7377
▁attributing	-7378
▁concurrence	-7379
▁familiarity	-7380
▁forgiveness	-7381
▁ingratitude	-7382
▁matrimonial	-7383
▁meditations	-7384
▁picturesque	-7385
▁significant	-7386
▁supposition	-7387
▁unconcerned	-7388
▁unwillingly	-7389
▁willingness	-7390
▁explanations	-7391
▁perturbation	-7392
▁presentation	-7393
▁unexpectedly	-7394
▁unpretending	-7395
▁probabilities	-7396
▁accommodations	-7397
▁thoughtfulness	-7398
LI	-7399
ds	-7400
ua	-7401
'--	-7402
afe	-7403
awd	-7404
bar	-7405
boy	-7406
can	-7407
cer	-7408
cia	-7409
cim	-7410
haw	-7411
key	-7412
leg	-7413
ogn	-7414
pla	-7415
ros	-7416
rov	-7417
tar	-7418
ura	-7419
wis	-7420
yer	-7421
▁Ar	-7422
▁Bl	-7423
▁Ir	-7424
▁Pe	-7425
▁ug	-7426
.'--	-7427
:--"	-7428
From	-7429
THER	-7430
acon	-7431
aize	-7432
anim	-7433
atic	-7434
bury	-7435
ceiv	-7436
cham	-7437
gest	-7438
haet	-7439
heas	-7440
iasm	-7441
ieus	-7442
igua	-7443
irst	-7444
ivil	-7445
ixed	-7446
long	-7447
mour	-7448
ones	-7449
oose	-7450
orse	-7451
port	-7452
pret	-7453
side	-7454
stem	-7455
tern	-7456
udes	-7457
ulty	-7458
vere	-7459
xcom	-7460
▁Cha	-7461
▁Con	-7462
▁End	-7463
▁Hon	-7464
▁Jen	-7465
▁Lee	-7466
▁Sha	-7467
▁Sto	-7468
▁Ten	-7469
▁amp	-7470
▁bos	-7471
▁das	-7472
▁del	-7473
▁egg	-7474
▁hun	-7475
▁nic	-7476
▁oak	-7477
▁orc	-7478
▁ren	-7479
▁sam	-7480
▁sky	-7481
▁tax	-7482
▁tur	-7483
▁vic	-7484
▁wra	-7485
About	-7486
alian	-7487
astic	-7488
erson	-7489
estib	-7490
etite	-7491
gered	-7492
iders	-7493
iency	-7494
inent	-7495
irons	-7496
ishes	-7497
kespe	-7498
liest	-7499
osing	-7500
oward	-7501
sized	-7502
umber	-7503
uries	-7504
xious	-7505
▁Dick	-7506
▁Monk	-7507
▁More	-7508
▁Spit	-7509
▁airs	-7510
▁dawd	-7511
▁defy	-7512
▁ears	-7513
▁glee	-7514
▁hind	-7515
▁kiss	-7516
▁lace	-7517
▁lies	-7518
▁phys	-7519
▁quad	-7520
▁quiz	-7521
▁rode	-7522
▁roll	-7523
▁sang	-7524
▁succ	-7525
▁surv	-7526
▁torn	-7527
▁vice	-7528
▁warn	-7529
▁west	-7530
Though	-7531
always	-7532
ancies	-7533
anting	-7534
assing	-7535
denial	-7536
hanged	-7537
houses	-7538
idding	-7539
igning	-7540
iments	-7541
impole	-7542
onious	-7543
▁Count	-7544
▁Harry	-7545
▁Irish	-7546
▁Laura	-7547
▁Other	-7548
▁Small	-7549
▁Surry	-7550
▁White	-7551
▁accus	-7552
▁cheap	-7553
▁clean	-7554
▁enlar	-7555
▁faire	-7556
▁falls	-7557
▁finds	-7558
▁forfe	-7559
▁frame	-7560
▁grove	-7561
▁gruel	-7562
▁indub	-7563
▁inexp	-7564
▁knife	-7565
▁knock	-7566
▁nomin	-7567
▁phaet	-7568
▁pheas	-7569
▁prime	-7570
▁prope	-7571
▁recur	-7572
▁rules	-7573
▁satin	-7574
▁scand	-7575
▁scold	-7576
▁seize	-7577
▁sheet	-7578
▁shoes	-7579
▁slept	-7580
▁stake	-7581
▁stamp	-7582
▁trunk	-7583
▁whims	-7584
consequ	-7585
ifiable	-7586
sighted	-7587
verting	-7588
▁Alicia	-7589
▁Lovers	-7590
▁adieus	-7591
▁affron	-7592
▁banish	-7593
▁beings	-7594
▁carpet	-7595
▁clouds	-7596
▁compet	-7597
▁coxcom	-7598
▁curacy	-7599
▁encumb	-7600
▁ensure	-7601
▁enumer	-7602
▁excurs	-7603
▁fondly	-7604
▁forest	-7605
▁freely	-7606
▁gather	-7607
▁halloo	-7608
▁infect	-7609
▁injure	-7610
▁interm	-7611
▁latest	-7612
▁lawyer	-7613
▁laying	-7614
▁loving	-7615
▁misapp	-7616
▁profit	-7617
▁reader	-7618
▁recogn	-7619
▁relent	-7620
▁reprob	-7621
▁review	-7622
▁series	-7623
▁specim	-7624
▁tempor	-7625
▁testim	-7626
▁thread	-7627
▁unseen	-7628
▁vestib	-7629
▁warmer	-7630
▁wisely	-7631
kespeare	-7632
plaister	-7633
▁Antigua	-7634
▁Italian	-7635
▁Wimpole	-7636
▁acquire	-7637
▁acutely	-7638
▁augment	-7639
▁briefly	-7640
▁captain	-7641
▁complet	-7642
▁connect	-7643
▁contain	-7644
▁crowded	-7645
▁defects	-7646
▁dictate	-7647
▁draught	-7648
▁fervent	-7649
▁filling	-7650
▁foresaw	-7651
▁guineas	-7652
▁honesty	-7653
▁horrors	-7654
▁humbled	-7655
▁journal	-7656
▁missing	-7657
▁planned	-7658
▁poultry	-7659
▁shelter	-7660
▁stretch	-7661
▁suffice	-7662
▁tenants	-7663
▁tremble	-7664
▁winding	-7665
Something	-7666
certainly	-7667
▁Spithead	-7668
▁Whenever	-7669
▁alternat	-7670
▁ascended	-7671
▁asserted	-7672
▁attitude	-7673
▁behaving	-7674
▁changing	-7675
▁checking	-7676
▁creating	-7677
▁defiance	-7678
▁departed	-7679
▁despised	-7680
▁disguise	-7681
▁disorder	-7682
▁diverted	-7683
▁drawings	-7684
▁educated	-7685
▁environs	-7686
▁exposing	-7687
▁feverish	-7688
▁impudent	-7689
▁investig	-7690
▁magnific	-7691
▁mourning	-7692
▁overcame	-7693
▁polished	-7694
▁practise	-7695
▁presents	-7696
▁prettily	-7697
▁rehearse	-7698
▁replying	-7699
▁retained	-7700
▁rewarded	-7701
▁scolding	-7702
▁sensibly	-7703
▁sisterly	-7704
▁strawber	-7705
▁thanking	-7706
▁underval	-7707
▁vivacity	-7708
racechurch	-7709
▁Jenkinson	-7710
▁afflicted	-7711
▁affluence	-7712
▁arranging	-7713
▁attaching	-7714
▁ceaseless	-7715
▁comparing	-7716
▁considers	-7717
▁courteous	-7718
▁detection	-7719
▁discredit	-7720
▁discussed	-7721
▁disparity	-7722
▁effusions	-7723
▁faultless	-7724
▁feelingly	-7725
▁formality	-7726
▁gentility	-7727
▁household	-7728
▁including	-7729
▁inconceiv	-7730
▁injurious	-7731
▁insolence	-7732
▁irritated	-7733
▁lingering	-7734
▁officious	-7735
▁patroness	-7736
▁rapturous	-7737
▁requested	-7738
▁resentful	-7739
▁sparkling	-7740
▁struggled	-7741
▁supplying	-7742
▁varieties	-7743
▁vestibule	-7744
▁allowances	-7745
▁artificial	-7746
▁beforehand	-7747
▁benevolent	-7748
▁brightened	-7749
▁charmingly	-7750
▁discerning	-7751
▁dissimilar	-7752
▁distinctly	-7753
▁enthusiasm	-7754
▁expediency	-7755
▁incredible	-7756
▁personally	-7757
▁preferring	-7758
▁prejudiced	-7759
▁privileged	-7760
▁prodigious	-7761
▁reproaches	-7762
▁sacrificed	-7763
▁scandalous	-7764
▁spectacles	-7765
▁unreserved	-7766
▁Shakespeare	-7767
▁accommodate	-7768
▁affectation	-7769
▁comparative	-7770
▁contrivance	-7771
▁disgraceful	-7772
▁disregarded	-7773
▁handwriting	-7774
▁humiliation	-7775
▁impressions	-7776
▁infatuation	-7777
▁instruction	-7778
▁mantelpiece	-7779
▁playfulness	-7780
▁proceedings	-7781
▁shrubberies	-7782
▁accompanying	-7783
▁anticipation	-7784
▁consultation	-7785
▁dispositions	-7786
▁hesitatingly	-7787
▁representing	-7788
▁condescension	-7789
▁indispensable	-7790
▁objectionable	-7791
▁particularity	-7792
▁inconveniences	-7793
AM	-7794
Al	-7795
Ed	-7796
Ha	-7797
MY	-7798
fl	-7799
Bec	-7800
INE	-7801
May	-7802
avo	-7803
bin	-7804
bod	-7805
ded	-7806
don	-7807
dox	-7808
edy	-7809
hec	-7810
ium	-7811
nes	-7812
oke	-7813
spe	-7814
▁Ay	-7815
▁CA	-7816
▁Cl	-7817
▁Es	-7818
▁Go	-7819
▁Or	-7820
▁bi	-7821
▁cr	-7822
▁va	-7823
....	-7824
acle	-7825
anes	-7826
arah	-7827
aval	-7828
eady	-7829
even	-7830
five	-7831
geon	-7832
ians	-7833
itia	-7834
ivoc	-7835
llig	-7836
lves	-7837
mbre	-7838
mons	-7839
must	-7840
pman	-7841
rill	-7842
serv	-7843
supp	-7844
ugal	-7845
▁Abs	-7846
▁Sey	-7847
▁Sum	-7848
▁ast	-7849
▁aye	-7850
▁bod	-7851
▁cot	-7852
▁dru	-7853
▁ecl	-7854
▁fag	-7855
▁jun	-7856
▁lic	-7857
▁lit	-7858
▁rud	-7859
▁sag	-7860
▁slo	-7861
▁sne	-7862
▁tit	-7863
Could	-7864
Frank	-7865
Those	-7866
cibly	-7867
ckles	-7868
could	-7869
eping	-7870
gency	-7871
grown	-7872
ipped	-7873
isons	-7874
izing	-7875
lings	-7876
linqu	-7877
ocate	-7878
othec	-7879
pport	-7880
quate	-7881
quiet	-7882
shine	-7883
ships	-7884
uated	-7885
velop	-7886
▁Alas	-7887
▁Bond	-7888
▁Each	-7889
▁Give	-7890
▁Lane	-7891
▁Marl	-7892
▁Room	-7893
▁Take	-7894
▁acts	-7895
▁army	-7896
▁bias	-7897
▁coat	-7898
▁cott	-7899
▁deed	-7900
▁dial	-7901
▁fame	-7902
▁fish	-7903
▁gaze	-7904
▁gips	-7905
▁goss	-7906
▁grey	-7907
▁guid	-7908
▁hack	-7909
▁leve	-7910
▁main	-7911
▁merr	-7912
▁nons	-7913
▁pave	-7914
▁push	-7915
▁ramp	-7916
▁rese	-7917
▁shan	-7918
▁soup	-7919
▁star	-7920
▁tear	-7921
▁tour	-7922
▁unde	-7923
aconia	-7924
ainter	-7925
arries	-7926
atives	-7927
father	-7928
garden	-7929
ignant	-7930
looked	-7931
mbrell	-7932
office	-7933
pected	-7934
pelled	-7935
staple	-7936
tofore	-7937
uously	-7938
utable	-7939
▁Edgar	-7940
▁North	-7941
▁Robin	-7942
▁Sarah	-7943
▁Short	-7944
▁abuse	-7945
▁admin	-7946
▁aimed	-7947
▁amply	-7948
▁apple	-7949
▁baked	-7950
▁bosom	-7951
▁brisk	-7952
▁cloak	-7953
▁cough	-7954
▁crime	-7955
▁dimin	-7956
▁droll	-7957
▁empty	-7958
▁endan	-7959
▁enemy	-7960
▁final	-7961
▁gaily	-7962
▁gouty	-7963
▁hears	-7964
▁inexc	-7965
▁intol	-7966
▁invar	-7967
▁leads	-7968
▁linen	-7969
▁lobby	-7970
▁lying	-7971
▁naval	-7972
▁preci	-7973
▁price	-7974
▁privy	-7975
▁prize	-7976
▁roses	-7977
▁rouse	-7978
▁route	-7979
▁shift	-7980
▁shops	-7981
▁slave	-7982
▁steep	-7983
▁stoop	-7984
▁tooth	-7985
▁unavo	-7986
▁unper	-7987
Because	-7988
Charles	-7989
athered	-7990
aughter	-7991
chamber	-7992
ensical	-7993
hibited	-7994
iveness	-7995
liament	-7996
parties	-7997
quality	-7998
thought	-7999
viation	-8000
▁Allens	-8001
▁Castle	-8002
▁Maddox	-8003
▁Ravens	-8004
▁Selina	-8005
▁Should	-8006
▁affirm	-8007
▁aggrav	-8008
▁ardent	-8009
▁astray	-8010
▁avowed	-8011
▁barbar	-8012
▁chuses	-8013
▁comedy	-8014
▁disgra	-8015
▁earned	-8016
▁entail	-8017
▁faster	-8018
▁faulty	-8019
▁forego	-8020
▁gloves	-8021
▁graces	-8022
▁impose	-8023
▁indisc	-8024
▁infirm	-8025
▁keenly	-8026
▁musing	-8027
▁mutton	-8028
▁nation	-8029
▁nicely	-8030
▁noises	-8031
▁obeyed	-8032
▁partly	-8033
▁pencil	-8034
▁physic	-8035
▁placid	-8036
▁preach	-8037
▁pushed	-8038
▁refres	-8039
▁repaid	-8040
▁repuls	-8041
▁robbed	-8042
▁rubber	-8043
▁rumour	-8044
▁screen	-8045
▁sprang	-8046
▁stands	-8047
▁stared	-8048
▁stated	-8049
▁system	-8050
▁thence	-8051
▁tricks	-8052
▁undist	-8053
▁uninte	-8054
▁weaken	-8055
▁wilful	-8056
ceptible	-8057
kerchief	-8058
othecary	-8059
question	-8060
▁Because	-8061
▁Believe	-8062
▁Happily	-8063
▁Laconia	-8064
▁Seymour	-8065
▁Summers	-8066
▁asunder	-8067
▁chanced	-8068
▁chusing	-8069
▁courted	-8070
▁coxcomb	-8071
▁curtsey	-8072
▁dismiss	-8073
▁forebod	-8074
▁fullest	-8075
▁grossly	-8076
▁indelic	-8077
▁infancy	-8078
▁inspire	-8079
▁longest	-8080
▁madness	-8081
▁pattern	-8082
▁pausing	-8083
▁privacy	-8084
▁quicker	-8085
▁recital	-8086
▁relinqu	-8087
▁sailors	-8088
▁sermons	-8089
▁spoiled	-8090
▁stables	-8091
▁terrors	-8092
▁umbrell	-8093
▁uncivil	-8094
▁ushered	-8095
▁wearing	-8096
ibilities	-8097
qualified	-8098
▁Kingston	-8099
▁Monkford	-8100
▁advances	-8101
▁advocate	-8102
▁although	-8103
▁appeased	-8104
▁appetite	-8105
▁articles	-8106
▁assented	-8107
▁blunders	-8108
▁conjugal	-8109
▁countera	-8110
▁crossing	-8111
▁demanded	-8112
▁distract	-8113
▁enforced	-8114
▁escaping	-8115
▁excluded	-8116
▁forcibly	-8117
▁forwards	-8118
▁frighten	-8119
▁gaieties	-8120
▁guidance	-8121
▁incommod	-8122
▁innocent	-8123
▁maintain	-8124
▁mornings	-8125
▁observer	-8126
▁outlived	-8127
▁planning	-8128
▁promoted	-8129
▁quarters	-8130
▁ramparts	-8131
▁resident	-8132
▁secretly	-8133
▁shameful	-8134
▁shooting	-8135
▁sickness	-8136
▁spirited	-8137
▁striving	-8138
▁sunshine	-8139
▁tenderly	-8140
▁treacher	-8141
▁unsteady	-8142
▁untoward	-8143
▁withheld	-8144
▁youthful	-8145
▁Ravenshaw	-8146
▁Yorkshire	-8147
▁admirable	-8148
▁animating	-8149
▁approving	-8150
▁atonement	-8151
▁attendant	-8152
▁attracted	-8153
▁calculate	-8154
▁commonest	-8155
▁complying	-8156
▁conceived	-8157
▁divisions	-8158
▁execution	-8159
▁exhausted	-8160
▁forbidden	-8161
▁frankness	-8162
▁freshness	-8163
▁indignant	-8164
▁insupport	-8165
▁lessening	-8166
▁meditated	-8167
▁merriment	-8168
▁obtaining	-8169
▁offensive	-8170
▁operation	-8171
▁persevere	-8172
▁pheasants	-8173
▁providing	-8174
▁purchased	-8175
▁remainder	-8176
▁requisite	-8177
▁seclusion	-8178
▁shoulders	-8179
▁smallness	-8180
▁solicited	-8181
▁spreading	-8182
▁superinte	-8183
▁swallowed	-8184
▁testimony	-8185
▁unceasing	-8186
▁venturing	-8187
▁vexatious	-8188
▁wholesome	-8189
▁Longstaple	-8190
▁Smallridge	-8191
▁accustomed	-8192
▁affability	-8193
▁announcing	-8194
▁apothecary	-8195
▁completion	-8196
▁desponding	-8197
▁dispatched	-8198
▁distresses	-8199
▁explaining	-8200
▁faithfully	-8201
▁fastidious	-8202
▁favourably	-8203
▁graciously	-8204
▁heretofore	-8205
▁honourably	-8206
▁improperly	-8207
▁invariable	-8208
▁loveliness	-8209
▁meditating	-8210
▁motionless	-8211
▁originated	-8212
▁perception	-8213
▁preferment	-8214
▁prepossess	-8215
▁pretending	-8216
▁protesting	-8217
▁punctually	-8218
▁reproached	-8219
▁resistance	-8220
▁respectful	-8221
▁sacrifices	-8222
▁succession	-8223
▁suggesting	-8224
▁supplanted	-8225
▁suppressed	-8226
▁travellers	-8227
▁unintellig	-8228
▁unquestion	-8229
▁witnessing	-8230
▁Marlborough	-8231
▁alternative	-8232
▁apprehended	-8233
▁captivating	-8234
▁ceremonious	-8235
▁commonplace	-8236
▁composition	-8237
▁contentment	-8238
▁discomposed	-8239
▁discovering	-8240
▁gentlewoman	-8241
▁inattentive	-8242
▁indubitable	-8243
▁inhabitants	-8244
▁magnificent	-8245
▁maintaining	-8246
▁maintenance	-8247
▁perfections	-8248
▁perpetually	-8249
▁practicable	-8250
▁resolutions	-8251
▁suggestions	-8252
▁confidential	-8253
▁friendliness	-8254
▁handkerchief	-8255
▁housekeeping	-8256
▁instructions	-8257
▁insufferable	-8258
▁intermission	-8259
▁lamentations	-8260
▁remembrances	-8261
▁agreeableness	-8262
▁communicating	-8263
▁communicative	-8264
▁conversations	-8265
▁disappointing	-8266
▁inconceivable	-8267
▁inconsistency	-8268
▁justification	-8269
▁inconsiderable	-8270
;'	-8271
Am	-8272
IS	-8273
Ne	-8274
Or	-8275
ev	-8276
uv	-8277
yr	-8278
All	-8279
Hum	-8280
III	-8281
Yet	-8282
ait	-8283
asc	-8284
ask	-8285
awn	-8286
ecd	-8287
ese	-8288
gge	-8289
gue	-8290
ike	-8291
isc	-8292
may	-8293
nay	-8294
nel	-8295
ped	-8296
poc	-8297
rog	-8298
rum	-8299
rus	-8300
ucy	-8301
zes	-8302
▁Im	-8303
▁Ma	-8304
▁Ow	-8305
.--'	-8306
Four	-8307
Mari	-8308
Mill	-8309
Much	-8310
agon	-8311
agra	-8312
augh	-8313
dear	-8314
isse	-8315
llen	-8316
mble	-8317
oeuv	-8318
ooke	-8319
ored	-8320
pter	-8321
pton	-8322
quar	-8323
rong	-8324
were	-8325
▁Cow	-8326
▁Esq	-8327
▁Gil	-8328
▁Ham	-8329
▁Hod	-8330
▁Imp	-8331
▁Mat	-8332
▁Mid	-8333
▁Put	-8334
▁Say	-8335
▁Ser	-8336
▁Too	-8337
▁Tow	-8338
▁aim	-8339
▁ank	-8340
▁asp	-8341
▁cun	-8342
▁ded	-8343
▁fav	-8344
▁lap	-8345
▁mir	-8346
▁net	-8347
▁nob	-8348
▁sin	-8349
▁squ	-8350
▁tap	-8351
▁tum	-8352
▁tyr	-8353
▁win	-8354
arers	-8355
ashes	-8356
enger	-8357
erred	-8358
glass	-8359
guish	-8360
icted	-8361
ifice	-8362
ilton	-8363
mbers	-8364
otted	-8365
poses	-8366
raged	-8367
rinci	-8368
since	-8369
urned	-8370
vable	-8371
▁Both	-8372
▁Cond	-8373
▁Farm	-8374
▁Five	-8375
▁Gray	-8376
▁High	-8377
▁Jack	-8378
▁Luck	-8379
▁Soph	-8380
▁Supp	-8381
▁ages	-8382
▁bank	-8383
▁boat	-8384
▁bury	-8385
▁cler	-8386
▁coll	-8387
▁cult	-8388
▁deaf	-8389
▁dili	-8390
▁doct	-8391
▁dogs	-8392
▁doom	-8393
▁echo	-8394
▁exem	-8395
▁fili	-8396
▁flir	-8397
▁glor	-8398
▁heed	-8399
▁hosp	-8400
▁jest	-8401
▁lift	-8402
▁moon	-8403
▁mult	-8404
▁noon	-8405
▁patr	-8406
▁sand	-8407
▁stub	-8408
▁tast	-8409
▁trim	-8410
▁ugly	-8411
▁unhe	-8412
▁vary	-8413
▁wont	-8414
▁yard	-8415
Depend	-8416
Elinor	-8417
adable	-8418
agraph	-8419
antity	-8420
atisfa	-8421
bridge	-8422
ceived	-8423
cribed	-8424
fering	-8425
illery	-8426
irited	-8427
itious	-8428
kingly	-8429
landau	-8430
mances	-8431
owager	-8432
quette	-8433
renity	-8434
tering	-8435
ternal	-8436
uities	-8437
▁Allow	-8438
▁Among	-8439
▁Court	-8440
▁Lakes	-8441
▁Lower	-8442
▁Madam	-8443
▁Nancy	-8444
▁Rooke	-8445
▁accur	-8446
▁achie	-8447
▁alien	-8448
▁anecd	-8449
▁bears	-8450
▁blank	-8451
▁brown	-8452
▁china	-8453
▁coinc	-8454
▁conqu	-8455
▁corps	-8456
▁crown	-8457
▁drank	-8458
▁duped	-8459
▁endur	-8460
▁felic	-8461
▁finer	-8462
▁harsh	-8463
▁hypoc	-8464
▁image	-8465
▁inciv	-8466
▁jokes	-8467
▁keeps	-8468
▁landl	-8469
▁maids	-8470
▁manus	-8471
▁negli	-8472
▁outst	-8473
▁penit	-8474
▁pitch	-8475
▁posts	-8476
▁print	-8477
▁prose	-8478
▁puppy	-8479
▁purse	-8480
▁reads	-8481
▁remed	-8482
▁rivet	-8483
▁sakes	-8484
▁saucy	-8485
▁spont	-8486
▁tende	-8487
▁unass	-8488
▁unequ	-8489
▁unnot	-8490
However	-8491
THERINE	-8492
adation	-8493
cellent	-8494
fashion	-8495
forward	-8496
ictions	-8497
ivering	-8498
lighted	-8499
neither	-8500
servant	-8501
▁Bragge	-8502
▁Cowper	-8503
▁Hodges	-8504
▁People	-8505
▁airing	-8506
▁altern	-8507
▁animal	-8508
▁archly	-8509
▁boiled	-8510
▁branch	-8511
▁critic	-8512
▁demure	-8513
▁derive	-8514
▁doings	-8515
▁doubly	-8516
▁ensued	-8517
▁extend	-8518
▁finger	-8519
▁gossip	-8520
▁growth	-8521
▁hinted	-8522
▁joyous	-8523
▁lesser	-8524
▁louder	-8525
▁miscon	-8526
▁naming	-8527
▁native	-8528
▁poured	-8529
▁prison	-8530
▁purity	-8531
▁rested	-8532
▁restri	-8533
▁revive	-8534
▁ribbon	-8535
▁riches	-8536
▁scrape	-8537
▁simply	-8538
▁soften	-8539
▁sweets	-8540
▁timber	-8541
▁topics	-8542
▁toward	-8543
▁traged	-8544
▁transa	-8545
▁unatte	-8546
▁vouchs	-8547
▁waiter	-8548
▁wander	-8549
▁wasted	-8550
▁wisdom	-8551
▁yearly	-8552
▁yellow	-8553
Marianne	-8554
aneously	-8555
reproach	-8556
speaking	-8557
▁Chapman	-8558
▁Conduit	-8559
▁Gilbert	-8560
▁Jackson	-8561
▁Towards	-8562
▁admires	-8563
▁agonies	-8564
▁anguish	-8565
▁appreci	-8566
▁belongs	-8567
▁carpent	-8568
▁ceasing	-8569
▁charged	-8570
▁charmed	-8571
▁comprom	-8572
▁concili	-8573
▁conform	-8574
▁contend	-8575
▁cruelly	-8576
▁cunning	-8577
▁dashing	-8578
▁decease	-8579
▁deepest	-8580
▁denying	-8581
▁descend	-8582
▁deserts	-8583
▁despond	-8584
▁develop	-8585
▁dispute	-8586
▁dresses	-8587
▁enquire	-8588
▁exagger	-8589
▁failing	-8590
▁fellows	-8591
▁fishing	-8592
▁healthy	-8593
▁hunters	-8594
▁lessons	-8595
▁lighted	-8596
▁manoeuv	-8597
▁matches	-8598
▁mothers	-8599
▁nursing	-8600
▁oppress	-8601
▁parcels	-8602
▁phaeton	-8603
▁pleases	-8604
▁prayers	-8605
▁purport	-8606
▁quality	-8607
▁rapture	-8608
▁replies	-8609
▁repress	-8610
▁retract	-8611
▁romance	-8612
▁rousing	-8613
▁slipped	-8614
▁species	-8615
▁strikes	-8616
▁surgeon	-8617
▁tedious	-8618
▁torture	-8619
▁uniting	-8620
▁urgency	-8621
▁zealous	-8622
fashioned	-8623
▁Anderson	-8624
▁Robinson	-8625
▁Scarcely	-8626
▁Williams	-8627
▁assuming	-8628
▁attacked	-8629
▁audience	-8630
▁blooming	-8631
▁choosing	-8632
▁coolness	-8633
▁courtesy	-8634
▁deciding	-8635
▁dejected	-8636
▁delights	-8637
▁destined	-8638
▁devotion	-8639
▁dialogue	-8640
▁dispense	-8641
▁dreading	-8642
▁eloquent	-8643
▁enclosed	-8644
▁entailed	-8645
▁everyday	-8646
▁everyone	-8647
▁fetching	-8648
▁guessing	-8649
▁hazarded	-8650
▁imparted	-8651
▁inferred	-8652
▁messages	-8653
▁objected	-8654
▁pavement	-8655
▁perverse	-8656
▁politics	-8657
▁portrait	-8658
▁preacher	-8659
▁premises	-8660
▁quantity	-8661
▁raillery	-8662
▁reasoned	-8663
▁rejoined	-8664
▁renewing	-8665
▁resented	-8666
▁revealed	-8667
▁sagacity	-8668
▁screened	-8669
▁serenity	-8670
▁singular	-8671
▁solemnly	-8672
▁strictly	-8673
▁stubborn	-8674
▁studying	-8675
▁teaching	-8676
▁timidity	-8677
▁unanswer	-8678
▁unfairly	-8679
▁unlooked	-8680
▁vicinity	-8681
appearance	-8682
especially	-8683
ndoubtedly	-8684
▁CATHERINE	-8685
▁acquitted	-8686
▁affecting	-8687
▁affronted	-8688
▁apologise	-8689
▁associate	-8690
▁bestowing	-8691
▁breathing	-8692
▁buildings	-8693
▁canvassed	-8694
▁cherished	-8695
▁conscient	-8696
▁deception	-8697
▁degrading	-8698
▁depending	-8699
▁dispersed	-8700
▁elevation	-8701
▁exceeding	-8702
▁excursion	-8703
▁extremity	-8704
▁foresight	-8705
▁greatcoat	-8706
▁hysterics	-8707
▁imagining	-8708
▁impressed	-8709
▁impudence	-8710
▁inexpress	-8711
▁informing	-8712
▁involving	-8713
▁irritable	-8714
▁marriages	-8715
▁messenger	-8716
▁observant	-8717
▁occurring	-8718
▁paragraph	-8719
▁patronage	-8720
▁persisted	-8721
▁pointedly	-8722
▁portraits	-8723
▁practised	-8724
▁preaching	-8725
▁properest	-8726
▁proposing	-8727
▁regarding	-8728
▁relenting	-8729
▁reluctant	-8730
▁repressed	-8731
▁repulsive	-8732
▁retreated	-8733
▁seemingly	-8734
▁shillings	-8735
▁splendour	-8736
▁statement	-8737
▁stationed	-8738
▁strictest	-8739
▁temporary	-8740
▁unnoticed	-8741
▁vulgarity	-8742
▁weariness	-8743
▁worthless	-8744
established	-8745
▁Knightleys	-8746
▁abominably	-8747
▁affectedly	-8748
▁agitations	-8749
▁charitable	-8750
▁compatible	-8751
▁confirming	-8752
▁consulting	-8753
▁contribute	-8754
▁dimensions	-8755
▁disapprove	-8756
▁disconcert	-8757
▁exhibition	-8758
▁grievances	-8759
▁hereabouts	-8760
▁hospitable	-8761
▁housemaids	-8762
▁incivility	-8763
▁indecision	-8764
▁individual	-8765
▁injunction	-8766
▁inspection	-8767
▁manuscript	-8768
▁meditation	-8769
▁negligence	-8770
▁occurrence	-8771
▁persisting	-8772
▁philosophy	-8773
▁privations	-8774
▁proclaimed	-8775
▁productive	-8776
▁professing	-8777
▁prohibited	-8778
▁proprietor	-8779
▁quarrelled	-8780
▁refinement	-8781
▁reflecting	-8782
▁reputation	-8783
▁requesting	-8784
▁respective	-8785
▁satisfying	-8786
▁similarity	-8787
▁strikingly	-8788
▁struggling	-8789
▁surprising	-8790
▁unsuitable	-8791
▁wretchedly	-8792
▁Dorsetshire	-8793
▁Gracechurch	-8794
▁aggravation	-8795
▁apologising	-8796
▁contributed	-8797
▁degradation	-8798
▁destination	-8799
▁determining	-8800
▁disappeared	-8801
▁disturbance	-8802
▁effectually	-8803
▁generations	-8804
▁inexcusable	-8805
▁involuntary	-8806
▁nonsensical	-8807
▁persevering	-8808
▁plantations	-8809
▁possessions	-8810
▁serviceable	-8811
▁undertaking	-8812
▁vindication	-8813
▁associations	-8814
▁carelessness	-8815
▁complimented	-8816
▁contemptible	-8817
▁contributing	-8818
▁deficiencies	-8819
▁deliberately	-8820
▁deliberation	-8821
▁discontented	-8822
▁graciousness	-8823
▁imaginations	-8824
▁incompatible	-8825
▁performances	-8826
▁pleasantness	-8827
▁strawberries	-8828
▁successively	-8829
▁supplication	-8830
▁disadvantages	-8831
▁insignificant	-8832
▁instantaneous	-8833
▁instinctively	-8834
▁involuntarily	-8835
▁unjustifiable	-8836
▁insignificance	-8837
▁unintelligible	-8838
▁unquestionably	-8839
▁misapprehension	-8840
▁thoughtlessness	-8841
.;	-8842
IA	-8843
Re	-8844
Sh	-8845
bu	-8846
cl	-8847
sy	-8848
--,	-8849
Hen	-8850
abs	-8851
aus	-8852
bet	-8853
cot	-8854
des	-8855
ean	-8856
eer	-8857
elf	-8858
fic	-8859
fty	-8860
gam	-8861
lls	-8862
nut	-8863
ogy	-8864
see	-8865
sho	-8866
sum	-8867
tis	-8868
udd	-8869
uly	-8870
uni	-8871
vin	-8872
vis	-8873
vol	-8874
▁Ot	-8875
▁Sw	-8876
▁Te	-8877
▁nu	-8878
Does	-8879
Eliz	-8880
John	-8881
Just	-8882
More	-8883
None	-8884
Some	-8885
Take	-8886
ague	-8887
down	-8888
ells	-8889
etty	-8890
felt	-8891
gain	-8892
heum	-8893
ials	-8894
iber	-8895
icip	-8896
iser	-8897
ival	-8898
lett	-8899
ogra	-8900
olar	-8901
otes	-8902
owal	-8903
phab	-8904
phic	-8905
rews	-8906
rite	-8907
▁Asp	-8908
▁Bad	-8909
▁Cas	-8910
▁Che	-8911
▁Daw	-8912
▁Ell	-8913
▁Man	-8914
▁Pri	-8915
▁Tau	-8916
▁ant	-8917
▁bal	-8918
▁fac	-8919
▁fee	-8920
▁hom	-8921
▁irk	-8922
▁job	-8923
▁pos	-8924
▁tie	-8925
▁woe	-8926
After	-8927
Bless	-8928
Henry	-8929
Three	-8930
Which	-8931
Would	-8932
adays	-8933
aling	-8934
aries	-8935
aware	-8936
ciful	-8937
cried	-8938
dding	-8939
enary	-8940
ensed	-8941
escri	-8942
eterm	-8943
ettic	-8944
forty	-8945
green	-8946
hable	-8947
happy	-8948
hasis	-8949
imney	-8950
ipage	-8951
istic	-8952
lands	-8953
maker	-8954
mploy	-8955
orney	-8956
orter	-8957
otege	-8958
ouces	-8959
plain	-8960
pture	-8961
rings	-8962
uable	-8963
ulate	-8964
ulity	-8965
usage	-8966
ustri	-8967
▁July	-8968
▁Just	-8969
▁Know	-8970
▁Papa	-8971
▁Part	-8972
▁Sney	-8973
▁Thus	-8974
▁acut	-8975
▁anew	-8976
▁arts	-8977
▁boot	-8978
▁bows	-8979
▁brow	-8980
▁cake	-8981
▁club	-8982
▁conn	-8983
▁cree	-8984
▁duly	-8985
▁dust	-8986
▁east	-8987
▁enli	-8988
▁fasc	-8989
▁fick	-8990
▁flat	-8991
▁fuss	-8992
▁immo	-8993
▁inch	-8994
▁inim	-8995
▁leaf	-8996
▁litt	-8997
▁male	-8998
▁ming	-8999
▁mini	-9000
▁oath	-9001
▁obvi	-9002
▁palp	-9003
▁pill	-9004
▁pomp	-9005
▁pour	-9006
▁rare	-9007
▁resp	-9008
▁riot	-9009
▁sadd	-9010
▁sank	-9011
▁saun	-9012
▁scar	-9013
▁shot	-9014
▁stif	-9015
▁stip	-9016
▁tres	-9017
▁tumb	-9018
▁unbe	-9019
▁unfe	-9020
▁unob	-9021
▁unso	-9022
▁vehe	-9023
▁wink	-9024
▁yawn	-9025
Excuse	-9026
antial	-9027
arched	-9028
change	-9029
gammon	-9030
iberal	-9031
loying	-9032
manage	-9033
minine	-9034
orting	-9035
rather	-9036
rences	-9037
rupted	-9038
soever	-9039
spread	-9040
strong	-9041
summer	-9042
tables	-9043
thirty	-9044
uction	-9045
uniary	-9046
vation	-9047
versed	-9048
▁First	-9049
▁Jones	-9050
▁Leave	-9051
▁Sophy	-9052
▁Think	-9053
▁Twice	-9054
▁abate	-9055
▁arrog	-9056
▁attic	-9057
▁awoke	-9058
▁basin	-9059
▁block	-9060
▁blunt	-9061
▁coars	-9062
▁cured	-9063
▁downs	-9064
▁eclat	-9065
▁enhan	-9066
▁enorm	-9067
▁faded	-9068
▁fewer	-9069
▁gowns	-9070
▁groom	-9071
▁grows	-9072
▁haunt	-9073
▁imply	-9074
▁issue	-9075
▁knees	-9076
▁lanes	-9077
▁level	-9078
▁lofty	-9079
▁manly	-9080
▁medic	-9081
▁memor	-9082
▁notes	-9083
▁outwe	-9084
▁plate	-9085
▁plaus	-9086
▁pulse	-9087
▁queen	-9088
▁queer	-9089
▁rated	-9090
▁relig	-9091
▁rheum	-9092
▁scorn	-9093
▁sends	-9094
▁shore	-9095
▁spoil	-9096
▁spots	-9097
▁stays	-9098
▁suits	-9099
▁swept	-9100
▁timid	-9101
▁toile	-9102
▁unche	-9103
▁vault	-9104
▁volum	-9105
▁worry	-9106
Exactly	-9107
athetic	-9108
iciency	-9109
repared	-9110
rescent	-9111
robably	-9112
▁During	-9113
▁Either	-9114
▁Except	-9115
▁Friend	-9116
▁Sophia	-9117
▁abused	-9118
▁alphab	-9119
▁avowal	-9120
▁blamed	-9121
▁boldly	-9122
▁bottle	-9123
▁breast	-9124
▁buried	-9125
▁busily	-9126
▁butter	-9127
▁chairs	-9128
▁chaper	-9129
▁cheese	-9130
▁closet	-9131
▁contro	-9132
▁dishon	-9133
▁dissol	-9134
▁embell	-9135
▁envied	-9136
▁equals	-9137
▁fagged	-9138
▁fasten	-9139
▁folded	-9140
▁hasten	-9141
▁indist	-9142
▁infamy	-9143
▁infant	-9144
▁juster	-9145
▁landed	-9146
▁landsc	-9147
▁limits	-9148
▁livery	-9149
▁market	-9150
▁meadow	-9151
▁mostly	-9152
▁nicest	-9153
▁nicety	-9154
▁nursed	-9155
▁ostent	-9156
▁overfl	-9157
▁pacing	-9158
▁pettic	-9159
▁pieces	-9160
▁poorly	-9161
▁punish	-9162
▁ramble	-9163
▁regain	-9164
▁repair	-9165
▁repine	-9166
▁retain	-9167
▁retros	-9168
▁richer	-9169
▁stroke	-9170
▁stroll	-9171
▁tastes	-9172
▁teased	-9173
▁traced	-9174
▁trades	-9175
▁unanim	-9176
▁vigour	-9177
▁walker	-9178
▁widely	-9179
Isabella	-9180
Nonsense	-9181
Remember	-9182
oucester	-9183
possible	-9184
standing	-9185
▁Andrews	-9186
▁Elliots	-9187
▁Taunton	-9188
▁adopted	-9189
▁adorned	-9190
▁animate	-9191
▁attacks	-9192
▁audible	-9193
▁bargain	-9194
▁bathing	-9195
▁bidding	-9196
▁channel	-9197
▁chimney	-9198
▁circums	-9199
▁climate	-9200
▁clouded	-9201
▁colonel	-9202
▁confide	-9203
▁confine	-9204
▁dangers	-9205
▁descent	-9206
▁desires	-9207
▁dissent	-9208
▁easiest	-9209
▁elderly	-9210
▁enlarge	-9211
▁enlight	-9212
▁extingu	-9213
▁favours	-9214
▁fetched	-9215
▁flowers	-9216
▁footman	-9217
▁forbade	-9218
▁foreign	-9219
▁gipsies	-9220
▁gradual	-9221
▁hackney	-9222
▁helping	-9223
▁immense	-9224
▁incline	-9225
▁inexper	-9226
▁irksome	-9227
▁largest	-9228
▁lightly	-9229
▁managed	-9230
▁midship	-9231
▁militia	-9232
▁mischie	-9233
▁mortify	-9234
▁needful	-9235
▁nephews	-9236
▁netting	-9237
▁nowhere	-9238
▁omitted	-9239
▁orchard	-9240
▁pensive	-9241
▁plagued	-9242
▁plainer	-9243
▁praises	-9244
▁precaut	-9245
▁process	-9246
▁prolong	-9247
▁protege	-9248
▁quieted	-9249
▁relates	-9250
▁reports	-9251
▁rupture	-9252
▁sadness	-9253
▁scholar	-9254
▁seating	-9255
▁slumber	-9256
▁speaker	-9257
▁stoutly	-9258
▁submiss	-9259
▁substit	-9260
▁swelled	-9261
▁tending	-9262
▁tonight	-9263
▁undeser	-9264
▁viewing	-9265
▁virtues	-9266
▁wearied	-9267
Elizabeth	-9268
rincipled	-9269
supposing	-9270
▁Whitwell	-9271
▁advising	-9272
▁attorney	-9273
▁aversion	-9274
▁bordered	-9275
▁breathed	-9276
▁brighter	-9277
▁clearing	-9278
▁consoled	-9279
▁cottages	-9280
▁dawdling	-9281
▁deferred	-9282
▁descript	-9283
▁desiring	-9284
▁dictated	-9285
▁diffused	-9286
▁duration	-9287
▁emphasis	-9288
▁enduring	-9289
▁enquired	-9290
▁equality	-9291
▁equalled	-9292
▁equipage	-9293
▁evidence	-9294
▁explicit	-9295
▁fanciful	-9296
▁feminine	-9297
▁gardener	-9298
▁harmless	-9299
▁infamous	-9300
▁injuries	-9301
▁insulted	-9302
▁laughter	-9303
▁literary	-9304
▁memories	-9305
▁minutely	-9306
▁mistakes	-9307
▁morality	-9308
▁narrowly	-9309
▁nowadays	-9310
▁ordained	-9311
▁parental	-9312
▁particip	-9313
▁poignant	-9314
▁position	-9315
▁preceded	-9316
▁precipit	-9317
▁prettier	-9318
▁reliance	-9319
▁repaired	-9320
▁residing	-9321
▁retrench	-9322
▁rudeness	-9323
▁sameness	-9324
▁selected	-9325
▁specimen	-9326
▁starting	-9327
▁stirring	-9328
▁supersed	-9329
▁suppress	-9330
▁swelling	-9331
▁tolerate	-9332
▁unmanage	-9333
▁wandered	-9334
▁weakened	-9335
▁wounding	-9336
importance	-9337
▁Certainly	-9338
▁Gardiners	-9339
▁Sucklings	-9340
▁accession	-9341
▁accounted	-9342
▁admirably	-9343
▁adventure	-9344
▁alertness	-9345
▁apologize	-9346
▁apprehend	-9347
▁ascending	-9348
▁authorise	-9349
▁blockhead	-9350
▁clergymen	-9351
▁commended	-9352
▁committed	-9353
▁condemned	-9354
▁conversed	-9355
▁deceitful	-9356
▁demanding	-9357
▁despaired	-9358
▁detaining	-9359
▁diffident	-9360
▁diligence	-9361
▁disgraced	-9362
▁doubtless	-9363
▁employing	-9364
▁establish	-9365
▁estimable	-9366
▁excusable	-9367
▁expressly	-9368
▁fashioned	-9369
▁fearfully	-9370
▁finishing	-9371
▁gathering	-9372
▁greatness	-9373
▁grievance	-9374
▁hallooing	-9375
▁hardships	-9376
▁hastening	-9377
▁illiberal	-9378
▁immovable	-9379
▁infection	-9380
▁ingenious	-9381
▁inhabited	-9382
▁liberally	-9383
▁liberties	-9384
▁liveliest	-9385
▁mercenary	-9386
▁miserably	-9387
▁moonlight	-9388
▁movements	-9389
▁narration	-9390
▁obstinacy	-9391
▁overtaken	-9392
▁partially	-9393
▁pecuniary	-9394
▁petticoat	-9395
▁physician	-9396
▁premature	-9397
▁privately	-9398
▁profusion	-9399
▁projected	-9400
▁reasoning	-9401
▁regulated	-9402
▁resembled	-9403
▁restoring	-9404
▁retaining	-9405
▁secondary	-9406
▁sheltered	-9407
▁shortness	-9408
▁slighting	-9409
▁steadfast	-9410
▁stockings	-9411
▁stretched	-9412
▁tenderest	-9413
▁transient	-9414
▁unhappily	-9415
▁uniformly	-9416
▁uppermost	-9417
consequence	-9418
▁Gloucester	-9419
▁Richardson	-9420
▁Rushworths	-9421
▁administer	-9422
▁answerable	-9423
▁assemblies	-9424
▁breathless	-9425
▁complained	-9426
▁condescend	-9427
▁contrasted	-9428
▁deplorable	-9429
▁detestable	-9430
▁discharged	-9431
▁disclosure	-9432
▁doubtingly	-9433
▁entreating	-9434
▁eventually	-9435
▁forwarding	-9436
▁headstrong	-9437
▁hysterical	-9438
▁imaginable	-9439
▁impediment	-9440
▁incommoded	-9441
▁indelicacy	-9442
▁inequality	-9443
▁insipidity	-9444
▁invaluable	-9445
▁laughingly	-9446
▁littleness	-9447
▁mysterious	-9448
▁needlework	-9449
▁neglecting	-9450
▁newspapers	-9451
▁observance	-9452
▁overcoming	-9453
▁overspread	-9454
▁performers	-9455
▁popularity	-9456
▁preserving	-9457
▁reappeared	-9458
▁reasonings	-9459
▁refreshing	-9460
▁regularity	-9461
▁restraints	-9462
▁salutation	-9463
▁theatrical	-9464
▁unattended	-9465
▁accustomary	-9466
▁alterations	-9467
▁calculation	-9468
▁constrained	-9469
▁development	-9470
▁eligibility	-9471
▁encumbrance	-9472
▁instinctive	-9473
▁interfering	-9474
▁intolerable	-9475
▁misfortunes	-9476
▁obligations	-9477
▁perceptible	-9478
▁philosophic	-9479
▁pleasantest	-9480
▁proposition	-9481
▁provocation	-9482
▁substantial	-9483
▁sympathetic	-9484
▁threatening	-9485
▁unavoidable	-9486
▁understands	-9487
▁unqualified	-9488
▁wonderfully	-9489
▁acquirements	-9490
▁anticipating	-9491
▁applications	-9492
▁condescended	-9493
▁contemptuous	-9494
▁expressively	-9495
▁guardianship	-9496
▁imperfection	-9497
▁intellectual	-9498
▁neighbouring	-9499
▁successfully	-9500
▁unanswerable	-9501
▁unmanageable	-9502
▁unprincipled	-9503
▁unreasonably	-9504
▁watchfulness	-9505
▁circumstanced	-9506
▁insupportable	-9507
▁prepossession	-9508
▁significantly	-9509
▁congratulation	-9510
▁acknowledgments	-9511
▁representations	-9512
',	-9513
';	-9514
HE	-9515
IR	-9516
Im	-9517
LL	-9518
Ro	-9519
co	-9520
ms	-9521
--!	-9522
CIA	-9523
Eng	-9524
Old	-9525
adc	-9526
ags	-9527
bal	-9528
bit	-9529
bow	-9530
col	-9531
fer	-9532
hoo	-9533
iae	-9534
irs	-9535
jac	-9536
lim	-9537
nod	-9538
oon	-9539
pro	-9540
ral	-9541
run	-9542
try	-9543
two	-9544
▁Je	-9545
;"--	-9546
acit	-9547
ales	-9548
alis	-9549
atig	-9550
avan	-9551
ayed	-9552
bare	-9553
beds	-9554
beha	-9555
cake	-9556
ccup	-9557
cers	-9558
cial	-9559
does	-9560
dure	-9561
east	-9562
eder	-9563
enth	-9564
fact	-9565
ffin	-9566
full	-9567
gone	-9568
inal	-9569
mate	-9570
nion	-9571
obli	-9572
olen	-9573
omen	-9574
oolf	-9575
oung	-9576
oyed	-9577
past	-9578
pick	-9579
quor	-9580
rave	-9581
requ	-9582
rily	-9583
ssed	-9584
tell	-9585
town	-9586
uced	-9587
uing	-9588
wear	-9589
whom	-9590
▁ALI	-9591
▁Acc	-9592
▁Aye	-9593
▁Far	-9594
▁Few	-9595
▁Gib	-9596
▁HIS	-9597
▁Med	-9598
▁Men	-9599
▁Res	-9600
▁SIR	-9601
▁Sec	-9602
▁Six	-9603
▁ade	-9604
▁aug	-9605
▁ble	-9606
▁bru	-9607
▁bur	-9608
▁cav	-9609
▁cri	-9610
▁dil	-9611
▁gun	-9612
▁hit	-9613
▁lid	-9614
▁mar	-9615
▁max	-9616
▁non	-9617
▁nut	-9618
▁oli	-9619
▁pul	-9620
▁scr	-9621
▁sob	-9622
▁uno	-9623
▁wal	-9624
Going	-9625
Since	-9626
adcli	-9627
allow	-9628
appro	-9629
apsed	-9630
arice	-9631
ashed	-9632
avily	-9633
berry	-9634
built	-9635
ceive	-9636
deley	-9637
enham	-9638
estry	-9639
faced	-9640
ffect	-9641
icacy	-9642
ifies	-9643
inner	-9644
izure	-9645
laugh	-9646
maids	-9647
money	-9648
osted	-9649
ourer	-9650
ricot	-9651
rille	-9652
roken	-9653
their	-9654
these	-9655
think	-9656
ument	-9657
urbed	-9658
uster	-9659
voice	-9660
▁Bell	-9661
▁Care	-9662
▁Comp	-9663
▁Dece	-9664
▁Fort	-9665
▁Lans	-9666
▁Make	-9667
▁Mill	-9668
▁Pope	-9669
▁Skin	-9670
▁True	-9671
▁amid	-9672
▁beds	-9673
▁borr	-9674
▁bred	-9675
▁bree	-9676
▁burn	-9677
▁camp	-9678
▁cart	-9679
▁clos	-9680
▁cows	-9681
▁cram	-9682
▁cred	-9683
▁curl	-9684
▁dies	-9685
▁dint	-9686
▁dupe	-9687
▁edge	-9688
▁eggs	-9689
▁ejac	-9690
▁fash	-9691
▁feeb	-9692
▁feed	-9693
▁grud	-9694
▁hyac	-9695
▁impr	-9696
▁kill	-9697
▁lave	-9698
▁mass	-9699
▁nour	-9700
▁obed	-9701
▁obsc	-9702
▁owes	-9703
▁pars	-9704
▁pear	-9705
▁pink	-9706
▁quot	-9707
▁rage	-9708
▁rays	-9709
▁rect	-9710
▁runs	-9711
▁sale	-9712
▁seas	-9713
▁shed	-9714
▁sobs	-9715
▁sque	-9716
▁stim	-9717
▁tied	-9718
▁unab	-9719
▁unin	-9720
▁unlo	-9721
▁witt	-9722
Robert	-9723
ainted	-9724
alling	-9725
alousy	-9726
anners	-9727
anness	-9728
arting	-9729
boured	-9730
cently	-9731
chance	-9732
contre	-9733
ecided	-9734
ecting	-9735
ending	-9736
erland	-9737
giving	-9738
ground	-9739
headed	-9740
health	-9741
ifting	-9742
ildren	-9743
incere	-9744
inding	-9745
inence	-9746
issors	-9747
master	-9748
ointed	-9749
ouched	-9750
people	-9751
ranean	-9752
ranged	-9753
street	-9754
taking	-9755
ulated	-9756
verses	-9757
vinced	-9758
volous	-9759
wisher	-9760
▁Coxes	-9761
▁Otway	-9762
▁Owens	-9763
▁Pleas	-9764
▁Sally	-9765
▁Sneyd	-9766
▁Which	-9767
▁acced	-9768
▁altar	-9769
▁basis	-9770
▁chick	-9771
▁colds	-9772
▁comic	-9773
▁dares	-9774
▁dated	-9775
▁dears	-9776
▁defin	-9777
▁depos	-9778
▁doctr	-9779
▁doted	-9780
▁draws	-9781
▁elbow	-9782
▁encro	-9783
▁exten	-9784
▁facts	-9785
▁fifth	-9786
▁fight	-9787
▁flour	-9788
▁goose	-9789
▁hates	-9790
▁homes	-9791
▁hotel	-9792
▁impet	-9793
▁inade	-9794
▁injud	-9795
▁irreg	-9796
▁kings	-9797
▁legal	-9798
▁limbs	-9799
▁local	-9800
▁loung	-9801
▁manor	-9802
▁misle	-9803
▁modes	-9804
▁newly	-9805
▁plead	-9806
▁precl	-9807
▁reign	-9808
▁rides	-9809
▁scant	-9810
▁scram	-9811
▁shoot	-9812
▁signs	-9813
▁sloop	-9814
▁stare	-9815
▁stiff	-9816
▁swift	-9817
▁tresp	-9818
▁unall	-9819
▁unmer	-9820
▁unsha	-9821
▁unwho	-9822
▁vigor	-9823
▁waist	-9824
▁weigh	-9825
▁woody	-9826
▁wrapt	-9827
Another	-9828
Captain	-9829
achable	-9830
ational	-9831
behaved	-9832
ccupied	-9833
denying	-9834
engaged	-9835
ensured	-9836
iculate	-9837
idation	-9838
inating	-9839
iterate	-9840
ittance	-9841
mention	-9842
mployed	-9843
nodding	-9844
ortions	-9845
ourable	-9846
riendly	-9847
smiling	-9848
usively	-9849
varying	-9850
▁ALICIA	-9851
▁Accord	-9852
▁Better	-9853
▁Blaize	-9854
▁Butler	-9855
▁Cassel	-9856
▁Common	-9857
▁Fortun	-9858
▁France	-9859
▁Radcli	-9860
▁Repton	-9861
▁Surely	-9862
▁access	-9863
▁advert	-9864
▁assume	-9865
▁backed	-9866
▁befall	-9867
▁borrow	-9868
▁career	-9869
▁chatty	-9870
▁closer	-9871
▁coldly	-9872
▁commit	-9873
▁consum	-9874
▁cooler	-9875
▁copied	-9876
▁corrob	-9877
▁cotton	-9878
▁cultiv	-9879
▁dancer	-9880
▁darker	-9881
▁denote	-9882
▁dismay	-9883
▁doctor	-9884
▁doomed	-9885
▁dozens	-9886
▁ending	-9887
▁entang	-9888
▁eyeing	-9889
▁fairer	-9890
▁firmer	-9891
▁flying	-9892
▁fonder	-9893
▁graver	-9894
▁harden	-9895
▁hating	-9896
▁haught	-9897
▁heroic	-9898
▁hourly	-9899
▁instig	-9900
▁keener	-9901
▁knight	-9902
▁levity	-9903
▁lifted	-9904
▁liquor	-9905
▁lowest	-9906
▁malice	-9907
▁meanly	-9908
▁member	-9909
▁mixing	-9910
▁ostler	-9911
▁permit	-9912
▁player	-9913
▁prayer	-9914
▁prized	-9915
▁prover	-9916
▁raises	-9917
▁ranked	-9918
▁rattle	-9919
▁reform	-9920
▁relied	-9921
▁remedy	-9922
▁riddle	-9923
▁safest	-9924
▁selves	-9925
▁shabby	-9926
▁sheets	-9927
▁sphere	-9928
▁spruce	-9929
▁square	-9930
▁stolen	-9931
▁string	-9932
▁summon	-9933
▁tables	-9934
▁toilet	-9935
▁truest	-9936
▁tumult	-9937
▁turkey	-9938
▁viewed	-9939
Whatever	-9940
consider	-9941
countess	-9942
ernation	-9943
iciously	-9944
itiously	-9945
lightful	-9946
quarters	-9947
querable	-9948
▁Anxious	-9949
▁Augusta	-9950
▁Bateses	-9951
▁Dawlish	-9952
▁Donavan	-9953
▁Forgive	-9954
▁Frasers	-9955
▁Hayters	-9956
▁Luckily	-9957
▁Mansion	-9958
▁Mediter	-9959
▁abusing	-9960
▁admiral	-9961
▁angrily	-9962
▁apricot	-9963
▁availed	-9964
▁avarice	-9965
▁bespeak	-9966
▁blushes	-9967
▁burning	-9968
▁candles	-9969
▁circles	-9970
▁circuit	-9971
▁closing	-9972
▁concise	-9973
▁decency	-9974
▁denoted	-9975
▁diffuse	-9976
▁discrim	-9977
▁drawers	-9978
▁dutiful	-9979
▁elevate	-9980
▁endowed	-9981
▁enhance	-9982
▁ensured	-9983
▁estates	-9984
▁eternal	-9985
▁failure	-9986
▁fathers	-9987
▁follies	-9988
▁forgets	-9989
▁glanced	-9990
▁gloried	-9991
▁hearers	-9992
▁inherit	-9993
▁jumping	-9994
▁landing	-9995
▁manager	-9996
▁mankind	-9997
▁marking	-9998
▁marries	-9999
▁merited	-10000
▁mounted	-10001
▁musings	-10002
▁oneself	-10003
▁painted	-10004
▁partake	-10005
▁payment	-10006
▁persist	-10007
▁pitying	-10008
▁pointer	-10009
▁posture	-10010
▁proudly	-10011
▁pushing	-10012
▁refined	-10013
▁regards	-10014
▁remorse	-10015
▁returns	-10016
▁revival	-10017
▁scarlet	-10018
▁schoolf	-10019
▁screens	-10020
▁secrets	-10021
▁seizure	-10022
▁shining	-10023
▁soldier	-10024
▁someone	-10025
▁soothed	-10026
▁stating	-10027
▁swallow	-10028
▁tempest	-10029
▁terrace	-10030
▁tragedy	-10031
▁trifled	-10032
▁twisted	-10033
▁unalter	-10034
▁undesir	-10035
▁undoubt	-10036
▁unheard	-10037
▁unspeak	-10038
▁verdure	-10039
▁villain	-10040
▁visibly	-10041
▁volumes	-10042
▁washing	-10043
▁widower	-10044
Catherine	-10045
etermined	-10046
important	-10047
rehensive	-10048
represent	-10049
roportion	-10050
▁Baddeley	-10051
▁Bartlett	-10052
▁Bingleys	-10053
▁Crescent	-10054
▁December	-10055
▁Hamilton	-10056
▁Lansdown	-10057
▁Morlands	-10058
▁Somebody	-10059
▁Westgate	-10060
▁Wherever	-10061
▁accosted	-10062
▁addicted	-10063
▁admirals	-10064
▁alluding	-10065
▁altering	-10066
▁appealed	-10067
▁attained	-10068
▁borrowed	-10069
▁capacity	-10070
▁cheering	-10071
▁commiser	-10072
▁commonly	-10073
▁complied	-10074
▁confeder	-10075
▁courting	-10076
▁curtains	-10077
▁darkness	-10078
▁debating	-10079
▁defended	-10080
▁detached	-10081
▁dividing	-10082
▁efficacy	-10083
▁embraced	-10084
▁exceeded	-10085
▁exerting	-10086
▁exposure	-10087
▁farthest	-10088
▁fashions	-10089
▁favoured	-10090
▁fireside	-10091
▁fortunes	-10092
▁freckles	-10093
▁gathered	-10094
▁guarding	-10095
▁habitual	-10096
▁heavenly	-10097
▁heedless	-10098
▁heighten	-10099
▁hyacinth	-10100
▁implicit	-10101
▁indescri	-10102
▁instruct	-10103
▁irritate	-10104
▁landlord	-10105
▁lavender	-10106
▁meanness	-10107
▁minutiae	-10108
▁mutually	-10109
▁neatness	-10110
▁obstacle	-10111
▁outweigh	-10112
▁overtook	-10113
▁painting	-10114
▁pardoned	-10115
▁passions	-10116
▁purposes	-10117
▁reverted	-10118
▁reviving	-10119
▁scissors	-10120
▁shoulder	-10121
▁softness	-10122
▁splendid	-10123
▁stooping	-10124
▁subsided	-10125
▁tempting	-10126
▁vicarage	-10127
▁watchful	-10128
▁watering	-10129
▁wavering	-10130
▁Collinses	-10131
▁Parklands	-10132
▁Radcliffe	-10133
▁acuteness	-10134
▁anxieties	-10135
▁arrogance	-10136
▁assiduous	-10137
▁assistant	-10138
▁barbarous	-10139
▁beholding	-10140
▁bordering	-10141
▁captivate	-10142
▁carpenter	-10143
▁clearness	-10144
▁confiding	-10145
▁consisted	-10146
▁courtship	-10147
▁deceiving	-10148
▁delicious	-10149
▁discharge	-10150
▁disdained	-10151
▁disliking	-10152
▁downright	-10153
▁enquiring	-10154
▁exchanged	-10155
▁fireplace	-10156
▁forwarded	-10157
▁frivolous	-10158
▁fulfilled	-10159
▁heartfelt	-10160
▁hindrance	-10161
▁histories	-10162
▁indignity	-10163
▁indolence	-10164
▁insincere	-10165
▁lightened	-10166
▁luxurious	-10167
▁nominally	-10168
▁objecting	-10169
▁permanent	-10170
▁possesses	-10171
▁protected	-10172
▁purchases	-10173
▁quadrille	-10174
▁quickened	-10175
▁quietness	-10176
▁rejection	-10177
▁reminding	-10178
▁rencontre	-10179
▁rendering	-10180
▁shrinking	-10181
▁sportsmen	-10182
▁springing	-10183
▁struggles	-10184
▁subsisted	-10185
▁talkative	-10186
▁toothpick	-10187
▁tormented	-10188
▁traveller	-10189
▁treachery	-10190
▁undecided	-10191
▁undertook	-10192
▁unfounded	-10193
▁unsuccess	-10194
▁waistcoat	-10195
▁withstand	-10196
▁abruptness	-10197
▁abundantly	-10198
▁accusation	-10199
▁admittance	-10200
▁assertions	-10201
▁backgammon	-10202
▁behindhand	-10203
▁cautiously	-10204
▁commanding	-10205
▁competence	-10206
▁compromise	-10207
▁condolence	-10208
▁confidante	-10209
▁confounded	-10210
▁contrition	-10211
▁diminution	-10212
▁disclaimed	-10213
▁disordered	-10214
▁displaying	-10215
▁dissipated	-10216
▁elegancies	-10217
▁endangered	-10218
▁favourites	-10219
▁feebleness	-10220
▁felicities	-10221
▁foreseeing	-10222
▁generality	-10223
▁generation	-10224
▁government	-10225
▁grievously	-10226
▁habitation	-10227
▁hesitating	-10228
▁inadequate	-10229
▁inconstant	-10230
▁indistinct	-10231
▁inflicting	-10232
▁inheriting	-10233
▁inimitable	-10234
▁innocently	-10235
▁intimation	-10236
▁irrational	-10237
▁irresolute	-10238
▁oppression	-10239
▁ordination	-10240
▁pardonable	-10241
▁parliament	-10242
▁plantation	-10243
▁practising	-10244
▁preferable	-10245
▁prejudices	-10246
▁pretension	-10247
▁propensity	-10248
▁recurrence	-10249
▁regardless	-10250
▁repentance	-10251
▁retreating	-10252
▁retrospect	-10253
▁spiritless	-10254
▁subjection	-10255
▁submissive	-10256
▁submitting	-10257
▁suddenness	-10258
▁suspension	-10259
▁threadbare	-10260
▁transition	-10261
▁unbecoming	-10262
▁undertaken	-10263
▁unemployed	-10264
▁unprepared	-10265
▁wickedness	-10266
▁Fortunately	-10267
▁advancement	-10268
▁affirmative	-10269
▁appropriate	-10270
▁beautifully	-10271
▁comfortless	-10272
▁comparisons	-10273
▁convictions	-10274
▁despondence	-10275
▁destruction	-10276
▁discoveries	-10277
▁dissipation	-10278
▁enlightened	-10279
▁enumerating	-10280
▁fascination	-10281
▁humiliating	-10282
▁imperfectly	-10283
▁incessantly	-10284
▁incredulity	-10285
▁indignantly	-10286
▁insinuating	-10287
▁interchange	-10288
▁mischievous	-10289
▁occurrences	-10290
▁overflowing	-10291
▁permanently	-10292
▁persuasions	-10293
▁preparatory	-10294
▁pronouncing	-10295
▁punctuality	-10296
▁resignation	-10297
▁restoration	-10298
▁sacrificing	-10299
▁slightingly	-10300
▁solicitudes	-10301
▁spontaneous	-10302
▁superintend	-10303
▁undisturbed	-10304
▁unsuspected	-10305
▁unwholesome	-10306
▁calculations	-10307
▁conjecturing	-10308
▁construction	-10309
▁contemplated	-10310
▁conveniently	-10311
▁counteracted	-10312
▁descriptions	-10313
▁disconcerted	-10314
▁extinguished	-10315
▁impartiality	-10316
▁indisputable	-10317
▁insinuations	-10318
▁interrupting	-10319
▁prodigiously	-10320
▁propensities	-10321
▁restrictions	-10322
▁solicitation	-10323
▁triumphantly	-10324
▁Mediterranean	-10325
▁accommodating	-10326
▁complimentary	-10327
▁comprehensive	-10328
▁conscientious	-10329
▁consternation	-10330
▁contradiction	-10331
▁disrespectful	-10332
▁expeditiously	-10333
▁inexpressibly	-10334
▁intentionally	-10335
▁investigation	-10336
▁participation	-10337
▁prepossessing	-10338
▁protestations	-10339
▁reprehensible	-10340
▁unconquerable	-10341
▁unnecessarily	-10342
▁characteristic	-10343
▁circumspection	-10344
▁congratulating	-10345
▁mortifications	-10346
▁Gloucestershire	-10347
▁disrespectfully	-10348
:"	-10349
Ch	-10350
EN	-10351
La	-10352
RO	-10353
Sm	-10354
St	-10355
Tw	-10356
ih	-10357
pr	-10358
tr	-10359
AME	-10360
Bet	-10361
Ext	-10362
Nor	-10363
Two	-10364
aks	-10365
aly	-10366
aps	-10367
arc	-10368
bib	-10369
bre	-10370
cle	-10371
cur	-10372
eep	-10373
enz	-10374
flu	-10375
gic	-10376
hog	-10377
ict	-10378
ima	-10379
mos	-10380
nge	-10381
rel	-10382
sha	-10383
sor	-10384
spo	-10385
ulk	-10386
win	-10387
yet	-10388
zen	-10389
▁Em	-10390
▁ay	-10391
▁ba	-10392
▁dr	-10393
▁eb	-10394
▁ep	-10395
▁na	-10396
?--"	-10397
Anne	-10398
Even	-10399
oul	-10400
Happ	-10401
Look	-10402
Mary	-10403
Most	-10404
Phoo	-10405
Supp	-10406
Sure	-10407
Tell	-10408
Were	-10409
Whom	-10410
airy	-10411
aped	-10412
aria	-10413
ater	-10414
away	-10415
beer	-10416
dded	-10417
enhe	-10418
esty	-10419
fold	-10420
form	-10421
fted	-10422
hast	-10423
hern	-10424
hore	-10425
iate	-10426
iers	-10427
ieth	-10428
ihil	-10429
isms	-10430
iver	-10431
kele	-10432
laid	-10433
leng	-10434
lets	-10435
lilo	-10436
loss	-10437
lvet	-10438
mosp	-10439
nant	-10440
nces	-10441
nuts	-10442
oder	-10443
once	-10444
othy	-10445
ours	-10446
oved	-10447
path	-10448
quel	-10449
rapp	-10450
reak	-10451
riot	-10452
root	-10453
than	-10454
uber	-10455
upon	-10456
urdy	-10457
werp	-10458
yday	-10459
▁Alt	-10460
▁Ann	-10461
▁Ast	-10462
▁Bel	-10463
▁Day	-10464
▁Dis	-10465
▁Han	-10466
▁Hum	-10467
▁Jem	-10468
▁Lar	-10469
▁Mit	-10470
▁Nur	-10471
▁Pug	-10472
▁Ref	-10473
▁THE	-10474
▁Tun	-10475
▁ail	-10476
▁aus	-10477
▁dig	-10478
▁eti	-10479
▁flu	-10480
▁fox	-10481
▁hea	-10482
▁hue	-10483
▁lam	-10484
▁len	-10485
▁lip	-10486
▁pad	-10487
▁pan	-10488
▁pel	-10489
▁pet	-10490
▁pew	-10491
▁pot	-10492
▁sen	-10493
▁sev	-10494
▁stu	-10495
▁twi	-10496
▁ult	-10497
▁wip	-10498
Humph	-10499
Still	-10500
While	-10501
acies	-10502
added	-10503
alogy	-10504
apham	-10505
arked	-10506
athed	-10507
aying	-10508
bbing	-10509
belie	-10510
bibed	-10511
btrus	-10512
close	-10513
creat	-10514
dable	-10515
dance	-10516
doing	-10517
doors	-10518
dress	-10519
edged	-10520
elity	-10521
enery	-10522
enetr	-10523
enial	-10524
eries	-10525
forth	-10526
guard	-10527
hings	-10528
inate	-10529
irely	-10530
ivete	-10531
llied	-10532
mbarr	-10533
mence	-10534
mento	-10535
nable	-10536
nally	-10537
othic	-10538
ourse	-10539
phing	-10540
ptive	-10541
racts	-10542
ranch	-10543
reens	-10544
retty	-10545
rewed	-10546
rives	-10547
seven	-10548
trade	-10549
uting	-10550
▁Bald	-10551
▁Crom	-10552
▁Ever	-10553
▁Hard	-10554
▁Like	-10555
▁Mine	-10556
▁Moor	-10557
▁Must	-10558
▁Newc	-10559
▁Pass	-10560
▁Prov	-10561
▁Rams	-10562
▁SAME	-10563
▁Self	-10564
▁Staf	-10565
▁Stan	-10566
▁Talk	-10567
▁Walk	-10568
▁Ward	-10569
▁Wind	-10570
▁airy	-10571
▁band	-10572
▁bath	-10573
▁bili	-10574
▁blam	-10575
▁buzz	-10576
▁caro	-10577
▁city	-10578
▁clam	-10579
▁copy	-10580
▁cray	-10581
▁dess	-10582
▁epit	-10583
▁eyed	-10584
▁fest	-10585
▁foul	-10586
▁frat	-10587
▁fres	-10588
▁fury	-10589
▁gust	-10590
▁heal	-10591
▁hire	-10592
▁host	-10593
▁inad	-10594
▁inns	-10595
▁kick	-10596
▁laws	-10597
▁lazy	-10598
▁lend	-10599
▁lent	-10600
▁lieu	-10601
▁mock	-10602
▁mood	-10603
▁nods	-10604
▁nort	-10605
▁omit	-10606
▁pall	-10607
▁pane	-10608
▁pays	-10609
▁pier	-10610
▁pony	-10611
▁pool	-10612
▁prey	-10613
▁rant	-10614
▁rash	-10615
▁resc	-10616
▁sarc	-10617
▁sauc	-10618
▁sins	-10619
▁sixp	-10620
▁smir	-10621
▁soil	-10622
▁stag	-10623
▁stom	-10624
▁sust	-10625
▁tame	-10626
▁task	-10627
▁tick	-10628
▁tide	-10629
▁tidy	-10630
▁toil	-10631
▁trou	-10632
▁tune	-10633
▁upst	-10634
▁veil	-10635
▁vile	-10636
▁void	-10637
▁ward	-10638
▁ware	-10639
▁wept	-10640
Edmund	-10641
Edward	-10642
Heaven	-10643
Really	-10644
Should	-10645
achers	-10646
arings	-10647
atient	-10648
atures	-10649
cannot	-10650
chaise	-10651
cution	-10652
enheim	-10653
ernons	-10654
estern	-10655
fectly	-10656
hogany	-10657
horses	-10658
igence	-10659
ingham	-10660
ivocal	-10661
ledged	-10662
legant	-10663
length	-10664
liloqu	-10665
mitted	-10666
odious	-10667
perate	-10668
quetry	-10669
raltar	-10670
rangle	-10671
rimand	-10672
seeing	-10673
sellor	-10674
semble	-10675
should	-10676
spoken	-10677
spring	-10678
terest	-10679
terior	-10680
throat	-10681
uating	-10682
ulness	-10683
undrum	-10684
unging	-10685
unless	-10686
velope	-10687
willed	-10688
▁Aston	-10689
▁Being	-10690
▁Betty	-10691
▁Bless	-10692
▁Broad	-10693
▁Brown	-10694
▁Emily	-10695
▁Grand	-10696
▁Green	-10697
▁Kings	-10698
▁Lewis	-10699
▁Nanny	-10700
▁Salis	-10701
▁Scott	-10702
▁Seven	-10703
▁Storn	-10704
▁Surpr	-10705
▁Swiss	-10706
▁Twick	-10707
▁abide	-10708
▁acres	-10709
▁argue	-10710
▁arrow	-10711
▁augur	-10712
▁bache	-10713
▁beque	-10714
▁boxes	-10715
▁capri	-10716
▁cells	-10717
▁cheat	-10718
▁clerk	-10719
▁cleve	-10720
▁cling	-10721
▁copse	-10722
▁cream	-10723
▁creep	-10724
▁dairy	-10725
▁dines	-10726
▁drops	-10727
▁drown	-10728
▁drunk	-10729
▁duets	-10730
▁endow	-10731
▁ensue	-10732
▁equiv	-10733
▁erred	-10734
▁essay	-10735
▁fatal	-10736
▁fluct	-10737
▁frown	-10738
▁games	-10739
▁glare	-10740
▁guile	-10741
▁heirs	-10742
▁impol	-10743
▁indic	-10744
▁innum	-10745
▁jewel	-10746
▁laure	-10747
▁leant	-10748
▁lists	-10749
▁lowly	-10750
▁marks	-10751
▁meets	-10752
▁moves	-10753
▁needs	-10754
▁nobly	-10755
▁olive	-10756
▁paces	-10757
▁pangs	-10758
▁plump	-10759
▁prone	-10760
▁quart	-10761
▁races	-10762
▁risen	-10763
▁risks	-10764
▁roast	-10765
▁rocks	-10766
▁scale	-10767
▁shews	-10768
▁ships	-10769
▁shrew	-10770
▁skele	-10771
▁solit	-10772
▁songs	-10773
▁spell	-10774
▁sposo	-10775
▁squee	-10776
▁stept	-10777
▁stren	-10778
▁tacit	-10779
▁teeth	-10780
▁title	-10781
▁token	-10782
▁tones	-10783
▁tread	-10784
▁truer	-10785
▁unfor	-10786
▁unint	-10787
▁unpro	-10788
▁vague	-10789
▁vener	-10790
▁volub	-10791
▁wains	-10792
▁witty	-10793
Engaged	-10794
Neither	-10795
Wickham	-10796
William	-10797
ainable	-10798
assable	-10799
atching	-10800
cilious	-10801
ctorily	-10802
ensible	-10803
evident	-10804
failing	-10805
grounds	-10806
ignedly	-10807
inished	-10808
judiced	-10809
laiming	-10810
leasant	-10811
mediate	-10812
minster	-10813
olutely	-10814
ortment	-10815
painter	-10816
pressed	-10817
recated	-10818
rovided	-10819
service	-10820
ulating	-10821
ulously	-10822
wearied	-10823
▁Always	-10824
▁Astley	-10825
▁Beyond	-10826
▁Cannot	-10827
▁Careys	-10828
▁Carter	-10829
▁Dinner	-10830
▁Dixons	-10831
▁Excuse	-10832
▁Gothic	-10833
▁Jemima	-10834
▁Mitche	-10835
▁Myster	-10836
▁Prices	-10837
▁Rivers	-10838
▁Stokes	-10839
▁Things	-10840
▁Wright	-10841
▁Younge	-10842
▁aching	-10843
▁aghast	-10844
▁allevi	-10845
▁ankles	-10846
▁ashore	-10847
▁atmosp	-10848
▁awaken	-10849
▁behold	-10850
▁biogra	-10851
▁bodily	-10852
▁bolder	-10853
▁bowing	-10854
▁breeze	-10855
▁bursts	-10856
▁buying	-10857
▁castle	-10858
▁cooled	-10859
▁cruise	-10860
▁deline	-10861
▁detach	-10862
▁device	-10863
▁devise	-10864
▁differ	-10865
▁dishes	-10866
▁dismal	-10867
▁divers	-10868
▁drawer	-10869
▁elated	-10870
▁enchan	-10871
▁falter	-10872
▁feeble	-10873
▁filial	-10874
▁fulfil	-10875
▁gazing	-10876
▁gifted	-10877
▁harder	-10878
▁heated	-10879
▁hiding	-10880
▁hoarse	-10881
▁hungry	-10882
▁hushed	-10883
▁impute	-10884
▁inured	-10885
▁issued	-10886
▁junior	-10887
▁legacy	-10888
▁linger	-10889
▁locked	-10890
▁lodged	-10891
▁lodges	-10892
▁losses	-10893
▁loudly	-10894
▁mechan	-10895
▁medium	-10896
▁merest	-10897
▁mighty	-10898
▁mouths	-10899
▁multip	-10900
▁murmur	-10901
▁nodded	-10902
▁obtrud	-10903
▁oddest	-10904
▁oldest	-10905
▁owning	-10906
▁paltry	-10907
▁passes	-10908
▁pearls	-10909
▁plaint	-10910
▁poison	-10911
▁pulled	-10912
▁purple	-10913
▁rarely	-10914
▁rector	-10915
▁refine	-10916
▁reigns	-10917
▁relish	-10918
▁remote	-10919
▁restor	-10920
▁resume	-10921
▁retort	-10922
▁richly	-10923
▁scanty	-10924
▁scarce	-10925
▁sealed	-10926
▁senior	-10927
▁sequel	-10928
▁shrubs	-10929
▁simper	-10930
▁storms	-10931
▁stormy	-10932
▁strain	-10933
▁sturdy	-10934
▁sullen	-10935
▁taller	-10936
▁tasted	-10937
▁tragic	-10938
▁uncles	-10939
▁undisc	-10940
▁undone	-10941
▁unfast	-10942
▁unfeel	-10943
▁unfelt	-10944
▁unknow	-10945
▁unprom	-10946
▁unsafe	-10947
▁unused	-10948
▁velvet	-10949
▁verses	-10950
▁wanton	-10951
▁weekly	-10952
atigable	-10953
ceptions	-10954
handsome	-10955
ishments	-10956
isonment	-10957
laughing	-10958
mediable	-10959
probably	-10960
spirited	-10961
suadable	-10962
unctions	-10963
uousness	-10964
urnished	-10965
▁Absence	-10966
▁Antwerp	-10967
▁Baldwin	-10968
▁Clapham	-10969
▁Dearest	-10970
▁Dorothy	-10971
▁Elliott	-10972
▁Exactly	-10973
▁Fortune	-10974
▁Heavens	-10975
▁Octagon	-10976
▁Suppose	-10977
▁Windsor	-10978
▁ability	-10979
▁accents	-10980
▁adviser	-10981
▁affable	-10982
▁analogy	-10983
▁annihil	-10984
▁annuity	-10985
▁aspired	-10986
▁averted	-10987
▁bedroom	-10988
▁benches	-10989
▁benefic	-10990
▁bilious	-10991
▁bounded	-10992
▁bowling	-10993
▁carving	-10994
▁chicken	-10995
▁closest	-10996
▁clothed	-10997
▁cluster	-10998
▁compact	-10999
▁complic	-11000
▁constru	-11001
▁counten	-11002
▁courses	-11003
▁dancers	-11004
▁dealing	-11005
▁defined	-11006
▁deplore	-11007
▁depreci	-11008
▁deprive	-11009
▁dessert	-11010
▁details	-11011
▁disobli	-11012
▁dowager	-11013
▁durable	-11014
▁elapsed	-11015
▁embrace	-11016
▁enemies	-11017
▁enforce	-11018
▁enraged	-11019
▁ensuing	-11020
▁envying	-11021
▁fainter	-11022
▁fairest	-11023
▁feather	-11024
▁figures	-11025
▁fitting	-11026
▁flowing	-11027
▁flushed	-11028
▁fondest	-11029
▁forbear	-11030
▁forfeit	-11031
▁forgave	-11032
▁glances	-11033
▁grudged	-11034
▁guiding	-11035
▁harshly	-11036
▁haughty	-11037
▁heavily	-11038
▁holiday	-11039
▁hopeful	-11040
▁imbibed	-11041
▁include	-11042
▁inflict	-11043
▁informs	-11044
▁inquiet	-11045
▁insight	-11046
▁irrepro	-11047
▁keenest	-11048
▁licence	-11049
▁lodging	-11050
▁lowness	-11051
▁measles	-11052
▁memento	-11053
▁mingled	-11054
▁mislead	-11055
▁monarch	-11056
▁murmurs	-11057
▁muslins	-11058
▁naivete	-11059
▁nominal	-11060
▁obviate	-11061
▁outstri	-11062
▁periods	-11063
▁pledged	-11064
▁pompous	-11065
▁precede	-11066
▁predict	-11067
▁proverb	-11068
▁pulling	-11069
▁readers	-11070
▁respons	-11071
▁ribbons	-11072
▁scenery	-11073
▁serving	-11074
▁seventy	-11075
▁shorten	-11076
▁spotted	-11077
▁springs	-11078
▁stamped	-11079
▁starved	-11080
▁stately	-11081
▁stories	-11082
▁studies	-11083
▁suffers	-11084
▁surpass	-11085
▁tallest	-11086
▁temples	-11087
▁thereby	-11088
▁tickets	-11089
▁touches	-11090
▁transpl	-11091
▁tricked	-11092
▁tyranny	-11093
▁unaware	-11094
▁unfixed	-11095
▁unfrequ	-11096
▁uninter	-11097
▁unquiet	-11098
▁victory	-11099
▁visions	-11100
▁wealthy	-11101
Knightley	-11102
appointed	-11103
meditated	-11104
mentioned	-11105
ollecting	-11106
rangement	-11107
▁Anything	-11108
▁Nonsense	-11109
▁Ramsgate	-11110
▁actuated	-11111
▁alphabet	-11112
▁anecdote	-11113
▁artifice	-11114
▁averting	-11115
▁bachelor	-11116
▁backward	-11117
▁befriend	-11118
▁believes	-11119
▁blamable	-11120
▁censured	-11121
▁chambers	-11122
▁chaplain	-11123
▁charades	-11124
▁claiming	-11125
▁clearest	-11126
▁commence	-11127
▁consumed	-11128
▁coquetry	-11129
▁corrobor	-11130
▁covering	-11131
▁dealings	-11132
▁delusion	-11133
▁deriving	-11134
▁descried	-11135
▁devoting	-11136
▁differed	-11137
▁disperse	-11138
▁disquiet	-11139
▁distaste	-11140
▁draughts	-11141
▁embraces	-11142
▁envelope	-11143
▁escorted	-11144
▁examples	-11145
▁explains	-11146
▁exterior	-11147
▁extorted	-11148
▁exulting	-11149
▁fainting	-11150
▁farmyard	-11151
▁fettered	-11152
▁flirting	-11153
▁footpath	-11154
▁hundreds	-11155
▁impelled	-11156
▁impenetr	-11157
▁imposing	-11158
▁improver	-11159
▁incensed	-11160
▁incurred	-11161
▁industri	-11162
▁injuring	-11163
▁intruder	-11164
▁lowering	-11165
▁luckiest	-11166
▁mahogany	-11167
▁measured	-11168
▁merciful	-11169
▁military	-11170
▁modestly	-11171
▁monument	-11172
▁motherly	-11173
▁nameless	-11174
▁nobility	-11175
▁northern	-11176
▁paleness	-11177
▁palpably	-11178
▁parading	-11179
▁paternal	-11180
▁pathetic	-11181
▁penitent	-11182
▁pictured	-11183
▁pondered	-11184
▁presided	-11185
▁projects	-11186
▁prompter	-11187
▁publicly	-11188
▁quickest	-11189
▁rambling	-11190
▁realised	-11191
▁recourse	-11192
▁removals	-11193
▁reserves	-11194
▁resuming	-11195
▁retiring	-11196
▁saddened	-11197
▁scheming	-11198
▁scrupled	-11199
▁shedding	-11200
▁shilling	-11201
▁simplest	-11202
▁skeleton	-11203
▁smoothly	-11204
▁soliloqu	-11205
▁sporting	-11206
▁standard	-11207
▁subduing	-11208
▁surmises	-11209
▁suspects	-11210
▁tapestry	-11211
▁terrific	-11212
▁touching	-11213
▁transfer	-11214
▁treading	-11215
▁troubles	-11216
▁twilight	-11217
▁umbrella	-11218
▁unabated	-11219
▁unbroken	-11220
▁unembarr	-11221
▁unobtrus	-11222
▁uttering	-11223
▁vanished	-11224
▁veracity	-11225
▁vigorous	-11226
▁vouchsaf	-11227
▁wainscot	-11228
▁withhold	-11229
Impossible	-11230
humouredly	-11231
iscountess	-11232
▁Excepting	-11233
▁Gibraltar	-11234
▁Newcastle	-11235
▁Salisbury	-11236
▁Stornaway	-11237
▁Tunbridge	-11238
▁abatement	-11239
▁absenting	-11240
▁admission	-11241
▁agitating	-11242
▁alienated	-11243
▁allusions	-11244
▁annuities	-11245
▁attacking	-11246
▁augmented	-11247
▁backwards	-11248
▁blundered	-11249
▁brightest	-11250
▁cheerfull	-11251
▁cheerless	-11252
▁childhood	-11253
▁competent	-11254
▁consigned	-11255
▁conundrum	-11256
▁countries	-11257
▁curtailed	-11258
▁defective	-11259
▁descended	-11260
▁detailing	-11261
▁differing	-11262
▁disengage	-11263
▁dismissal	-11264
▁displease	-11265
▁diversion	-11266
▁diverting	-11267
▁duplicity	-11268
▁effectual	-11269
▁embracing	-11270
▁endurance	-11271
▁entangled	-11272
▁etiquette	-11273
▁extension	-11274
▁fatiguing	-11275
▁fluttered	-11276
▁foolishly	-11277
▁forfeited	-11278
▁fraternal	-11279
▁fruitless	-11280
▁gradation	-11281
▁harboured	-11282
▁imitation	-11283
▁impetuous	-11284
▁insidious	-11285
▁interpret	-11286
▁intimates	-11287
▁inventing	-11288
▁irregular	-11289
▁labouring	-11290
▁landscape	-11291
▁mischance	-11292
▁mountains	-11293
▁narrative	-11294
▁obscurity	-11295
▁obstacles	-11296
▁occupying	-11297
▁offspring	-11298
▁outwardly	-11299
▁overthrow	-11300
▁painfully	-11301
▁performer	-11302
▁perplexed	-11303
▁plausible	-11304
▁possessor	-11305
▁precision	-11306
▁presiding	-11307
▁presuming	-11308
▁prominent	-11309
▁publicity	-11310
▁quivering	-11311
▁reckoning	-11312
▁refrained	-11313
▁reprimand	-11314
▁resenting	-11315
▁resisting	-11316
▁resulting	-11317
▁revolving	-11318
▁staggered	-11319
▁strangely	-11320
▁surprises	-11321
▁surveying	-11322
▁tradesman	-11323
▁tremulous	-11324
▁umbrellas	-11325
▁unalloyed	-11326
▁unanimous	-11327
▁unchanged	-11328
▁unfeigned	-11329
▁unmerited	-11330
▁unthought	-11331
▁untouched	-11332
▁unvarying	-11333
▁vehemence	-11334
▁vexations	-11335
▁violation	-11336
▁welcoming	-11337
▁withstood	-11338
atisfaction	-11339
fortunately	-11340
heartedness	-11341
▁Dalrymples	-11342
▁Honourable	-11343
▁Providence	-11344
▁Twickenham	-11345
▁Woodhouses	-11346
▁accounting	-11347
▁accurately	-11348
▁adventures	-11349
▁apologised	-11350
▁appreciate	-11351
▁associates	-11352
▁atmosphere	-11353
▁attendants	-11354
▁brightness	-11355
▁coarseness	-11356
▁commodious	-11357
▁conception	-11358
▁concession	-11359
▁conditions	-11360
▁confessing	-11361
▁consenting	-11362
▁counsellor	-11363
▁definition	-11364
▁deportment	-11365
▁deprecated	-11366
▁depression	-11367
▁descending	-11368
▁deservedly	-11369
▁disservice	-11370
▁distracted	-11371
▁distrusted	-11372
▁endowments	-11373
▁equivalent	-11374
▁estimating	-11375
▁exhibiting	-11376
▁familiarly	-11377
▁foreboding	-11378
▁generously	-11379
▁henceforth	-11380
▁illiterate	-11381
▁impassable	-11382
▁indefinite	-11383
▁internally	-11384
▁jealousies	-11385
▁midshipman	-11386
▁minuteness	-11387
▁moderately	-11388
▁overthrown	-11389
▁performing	-11390
▁pleasantry	-11391
▁possessing	-11392
▁postscript	-11393
▁precaution	-11394
▁precedence	-11395
▁prescribed	-11396
▁presenting	-11397
▁principals	-11398
▁projecting	-11399
▁quadrangle	-11400
▁reprobated	-11401
▁revolution	-11402
▁separately	-11403
▁separating	-11404
▁smoothness	-11405
▁soliciting	-11406
▁speechless	-11407
▁strengthen	-11408
▁stretching	-11409
▁studiously	-11410
▁subsisting	-11411
▁successive	-11412
▁superadded	-11413
▁superseded	-11414
▁supporting	-11415
▁surpassing	-11416
▁sympathise	-11417
▁tormenting	-11418
▁undertakes	-11419
▁undervoice	-11420
▁unfriendly	-11421
▁unpleasing	-11422
▁vigorously	-11423
▁volubility	-11424
▁whomsoever	-11425
▁Accordingly	-11426
▁Considering	-11427
▁Swisserland	-11428
▁Westminster	-11429
▁abstraction	-11430
▁accusations	-11431
▁alleviation	-11432
▁alternately	-11433
▁breakfasted	-11434
▁candlelight	-11435
▁collectedly	-11436
▁competition	-11437
▁complaining	-11438
▁consistency	-11439
▁desperately	-11440
▁desperation	-11441
▁discharging	-11442
▁discouraged	-11443
▁disinclined	-11444
▁enlargement	-11445
▁exclusively	-11446
▁fretfulness	-11447
▁grandfather	-11448
▁heightening	-11449
▁hesitations	-11450
▁incredulous	-11451
▁injudicious	-11452
▁innumerable	-11453
▁judiciously	-11454
▁necessaries	-11455
▁observances	-11456
▁occupations	-11457
▁penetrating	-11458
▁precipitate	-11459
▁professedly	-11460
▁proportions	-11461
▁quarrelsome	-11462
▁reproaching	-11463
▁respectably	-11464
▁seriousness	-11465
▁tediousness	-11466
▁temptations	-11467
▁termination	-11468
▁theatricals	-11469
▁unconvinced	-11470
▁undervalued	-11471
▁undeserving	-11472
▁undesirable	-11473
▁unfeelingly	-11474
▁unforgiving	-11475
▁unimportant	-11476
▁unknowingly	-11477
▁withdrawing	-11478
▁annihilation	-11479
▁ascertaining	-11480
▁capabilities	-11481
▁cautiousness	-11482
▁complacently	-11483
▁condemnation	-11484
▁discomposure	-11485
▁embarrassing	-11486
▁experiencing	-11487
▁imprisonment	-11488
▁inconsistent	-11489
▁individually	-11490
▁insufferably	-11491
▁intermediate	-11492
▁irremediable	-11493
▁mechanically	-11494
▁misrepresent	-11495
▁refreshments	-11496
▁relinquished	-11497
▁restlessness	-11498
▁schoolfellow	-11499
▁suitableness	-11500
▁supercilious	-11501
▁thoughtfully	-11502
▁tranquillise	-11503
▁transactions	-11504
▁unfrequently	-11505
▁Staffordshire	-11506
▁contemplating	-11507
▁corresponding	-11508
▁desirableness	-11509
▁disagreements	-11510
▁disappearance	-11511
▁forgetfulness	-11512
▁indefatigable	-11513
▁independently	-11514
▁indescribable	-11515
▁indispensably	-11516
▁interruptions	-11517
▁possibilities	-11518
▁tranquillised	-11519
▁unembarrassed	-11520
▁unpersuadable	-11521
▁discouragement	-11522
▁discrimination	-11523
▁embellishments	-11524
▁qualifications	-11525
▁reasonableness	-11526
▁satisfactorily	-11527
▁unpleasantness	-11528
▁unsuccessfully	-11529
▁instantaneously	-11530
".	-11531
AL	-11532
EG	-11533
ES	-11534
dy	-11535
gn	-11536
ny	-11537
rd	-11538
rs	-11539
sl	-11540
xy	-11541
--.	-11542
...	-11543
ALD	-11544
ARD	-11545
Hot	-11546
Men	-11547
Off	-11548
Say	-11549
aye	-11550
cel	-11551
dra	-11552
els	-11553
ino	-11554
ioc	-11555
ipe	-11556
ipp	-11557
iqu	-11558
lif	-11559
lst	-11560
lte	-11561
met	-11562
nex	-11563
oes	-11564
olt	-11565
pen	-11566
ror	-11567
too	-11568
uce	-11569
usk	-11570
▁Gu	-11571
!'--	-11572
EGIN	-11573
INER	-11574
Till	-11575
West	-11576
acts	-11577
agus	-11578
alty	-11579
apas	-11580
asil	-11581
asol	-11582
asty	-11583
aunt	-11584
bags	-11585
bill	-11586
boys	-11587
bser	-11588
ceit	-11589
clot	-11590
curt	-11591
desk	-11592
dock	-11593
enza	-11594
fare	-11595
fuls	-11596
glan	-11597
good	-11598
greg	-11599
amm	-11600
emn	-11601
psh	-11602
▁En	-11603
Hand	-11604
cipl	-11605
cred	-11606
ersu	-11607
hili	-11608
iddy	-11609
illa	-11610
ique	-11611
ires	-11612
iscu	-11613
isit	-11614
ists	-11615
itic	-11616
lete	-11617
licy	-11618
lier	-11619
line	-11620
llow	-11621
made	-11622
mama	-11623
mont	-11624
ndom	-11625
nees	-11626
nets	-11627
nine	-11628
oked	-11629
orce	-11630
papa	-11631
poke	-11632
quir	-11633
repe	-11634
rich	-11635
rows	-11636
scru	-11637
sses	-11638
stru	-11639
suff	-11640
take	-11641
uled	-11642
unge	-11643
ungs	-11644
vest	-11645
wind	-11646
xter	-11647
▁Ama	-11648
▁Ang	-11649
▁Des	-11650
▁Mac	-11651
▁Mil	-11652
▁Mod	-11653
▁Par	-11654
▁Pen	-11655
▁Sim	-11656
▁Tem	-11657
▁Tet	-11658
▁Wig	-11659
▁Wil	-11660
▁ami	-11661
▁bee	-11662
▁bir	-11663
▁bra	-11664
▁cat	-11665
▁cel	-11666
▁cli	-11667
▁cow	-11668
▁cra	-11669
▁cro	-11670
▁dog	-11671
▁fed	-11672
▁ham	-11673
▁hay	-11674
▁hid	-11675
▁ice	-11676
▁inm	-11677
▁jar	-11678
▁lur	-11679
▁mag	-11680
▁nin	-11681
▁nod	-11682
▁pop	-11683
▁pug	-11684
▁ras	-11685
▁sem	-11686
▁sup	-11687
▁syn	-11688
▁tam	-11689
▁thw	-11690
▁upb	-11691
▁vow	-11692
Extra	-11693
Happy	-11694
James	-11695
Kitty	-11696
Mamma	-11697
Might	-11698
agine	-11699
fo	-11700
LLI	-11701
oft	-11702
six	-11703
blem	-11704
isis	-11705
loat	-11706
tery	-11707
whis	-11708
▁Eps	-11709
▁Gow	-11710
▁ecc	-11711
▁liv	-11712
▁mob	-11713
▁ves	-11714
acked	-11715
amily	-11716
andum	-11717
anged	-11718
arsed	-11719
asked	-11720
ators	-11721
blood	-11722
books	-11723
bread	-11724
ckets	-11725
ended	-11726
erful	-11727
erman	-11728
erved	-11729
ester	-11730
first	-11731
gnost	-11732
going	-11733
gyric	-11734
heart	-11735
hilar	-11736
horse	-11737
iated	-11738
icest	-11739
indul	-11740
ippet	-11741
irect	-11742
ishop	-11743
isome	-11744
istol	-11745
itage	-11746
itous	-11747
lized	-11748
nexed	-11749
ntina	-11750
olate	-11751
onely	-11752
onted	-11753
orbit	-11754
orest	-11755
othed	-11756
party	-11757
quire	-11758
ribly	-11759
rophe	-11760
separ	-11761
shall	-11762
smith	-11763
state	-11764
still	-11765
those	-11766
three	-11767
trees	-11768
udder	-11769
udied	-11770
union	-11771
unity	-11772
usive	-11773
ustic	-11774
vened	-11775
▁Arch	-11776
▁Barn	-11777
▁Bick	-11778
▁Birm	-11779
▁Cape	-11780
▁Comm	-11781
▁Down	-11782
▁Drum	-11783
▁GARD	-11784
▁Glad	-11785
▁Heir	-11786
▁Isle	-11787
▁Keep	-11788
▁Last	-11789
▁Mama	-11790
▁Mist	-11791
▁Next	-11792
▁Read	-11793
▁Shro	-11794
▁Soci	-11795
▁Stay	-11796
▁Wild	-11797
▁Wilt	-11798
▁Yarm	-11799
acc	-11800
pol	-11801
Both	-11802
apes	-11803
both	-11804
done	-11805
mean	-11806
▁Dav	-11807
▁Inv	-11808
▁cip	-11809
▁jap	-11810
▁pup	-11811
▁unw	-11812
▁yew	-11813
fined	-11814
iliff	-11815
meant	-11816
rease	-11817
uteur	-11818
▁Hunt	-11819
▁Thir	-11820
▁acre	-11821
▁adds	-11822
▁akin	-11823
▁alli	-11824
▁asks	-11825
▁aver	-11826
▁bade	-11827
▁bars	-11828
▁bits	-11829
▁blot	-11830
▁bulk	-11831
▁cant	-11832
▁cash	-11833
▁cert	-11834
▁chap	-11835
▁corp	-11836
▁crav	-11837
▁dent	-11838
▁doat	-11839
▁doer	-11840
▁duke	-11841
▁dusk	-11842
▁emer	-11843
▁emig	-11844
▁ends	-11845
▁exas	-11846
▁eyel	-11847
▁feas	-11848
▁fors	-11849
▁frug	-11850
▁fund	-11851
▁gest	-11852
▁gild	-11853
▁guns	-11854
▁haun	-11855
▁hole	-11856
▁hush	-11857
▁husw	-11858
▁idly	-11859
▁keys	-11860
▁lame	-11861
▁lays	-11862
▁lean	-11863
▁legs	-11864
▁loin	-11865
▁milk	-11866
▁murd	-11867
▁nest	-11868
▁nose	-11869
▁oaks	-11870
▁peep	-11871
▁pens	-11872
▁phoo	-11873
▁plat	-11874
▁poem	-11875
▁poll	-11876
▁pudd	-11877
▁puts	-11878
▁reci	-11879
▁rein	-11880
▁rely	-11881
▁rock	-11882
▁sash	-11883
▁sets	-11884
▁shoe	-11885
▁silk	-11886
▁sits	-11887
▁smil	-11888
▁sorr	-11889
▁spri	-11890
▁stab	-11891
▁stam	-11892
▁sung	-11893
▁sway	-11894
▁tray	-11895
▁trep	-11896
▁unbi	-11897
▁undo	-11898
▁vari	-11899
DE	-11900
Sto	-11901
▁II	-11902
Stop	-11903
apse	-11904
izon	-11905
onym	-11906
wood	-11907
▁awa	-11908
▁gar	-11909
?"--"	-11910
chool	-11911
ckled	-11912
eties	-11913
joyed	-11914
lower	-11915
▁Away	-11916
▁Cons	-11917
▁Jove	-11918
▁awed	-11919
▁broo	-11920
▁devo	-11921
▁flag	-11922
▁fram	-11923
▁nupt	-11924
▁pint	-11925
▁unav	-11926
▁vows	-11927
▁wave	-11928
▁whip	-11929
▁wits	-11930
▁wret	-11931
Before	-11932
Heyday	-11933
Lovers	-11934
Pardon	-11935
Pretty	-11936
acknow	-11937
amaria	-11938
ampled	-11939
andest	-11940
branch	-11941
chever	-11942
depend	-11943
draper	-11944
enough	-11945
ensing	-11946
entary	-11947
entric	-11948
expect	-11949
gentle	-11950
having	-11951
herent	-11952
hering	-11953
hestra	-11954
iating	-11955
ienced	-11956
inting	-11957
ioners	-11958
irical	-11959
isance	-11960
itered	-11961
lement	-11962
lterer	-11963
merits	-11964
mother	-11965
nesley	-11966
nhappy	-11967
nnight	-11968
orians	-11969
orious	-11970
orning	-11971
ourers	-11972
ponded	-11973
procal	-11974
pshire	-11975
rangue	-11976
ration	-11977
reeted	-11978
resses	-11979
ricate	-11980
seemed	-11981
served	-11982
ularly	-11983
utting	-11984
worthy	-11985
▁----,	-11986
▁Angry	-11987
▁Basil	-11988
▁Bella	-11989
▁Belle	-11990
▁Byron	-11991
▁Compl	-11992
▁Early	-11993
▁Eight	-11994
▁Epsom	-11995
▁Facts	-11996
▁Gould	-11997
▁Grapp	-11998
▁Human	-11999
aren	-12000
eral	-12001
gree	-12002
pray	-12003
resy	-12004
ueen	-12005
▁Bus	-12006
▁Rec	-12007
▁cup	-12008
▁lav	-12009
Julia	-12010
annel	-12011
imacy	-12012
iress	-12013
mency	-12014
whose	-12015
▁Pres	-12016
▁bash	-12017
▁diso	-12018
▁lain	-12019
▁nett	-12020
Walter	-12021
assemb	-12022
grance	-12023
olable	-12024
▁Italy	-12025
▁Laure	-12026
▁Nurse	-12027
▁Obser	-12028
▁Parry	-12029
▁Phili	-12030
▁REGIN	-12031
▁Refle	-12032
▁Serle	-12033
▁Sleep	-12034
▁Stoke	-12035
▁Wight	-12036
▁accum	-12037
▁ached	-12038
▁aches	-12039
▁actor	-12040
▁amity	-12041
▁ankle	-12042
▁apace	-12043
▁aspar	-12044
▁asper	-12045
▁await	-12046
▁baize	-12047
▁birds	-12048
▁biscu	-12049
▁bloss	-12050
▁blown	-12051
▁blows	-12052
▁boats	-12053
▁bount	-12054
▁brace	-12055
▁brood	-12056
▁brute	-12057
▁burnt	-12058
▁caper	-12059
▁cavil	-12060
▁chasm	-12061
▁chill	-12062
▁cliff	-12063
▁cloth	-12064
▁cover	-12065
▁crept	-12066
▁curts	-12067
▁decay	-12068
▁domin	-12069
▁drift	-12070
▁eaten	-12071
▁ebony	-12072
▁edged	-12073
▁elect	-12074
▁excel	-12075
▁expat	-12076
▁extin	-12077
▁fairy	-12078
▁fated	-12079
▁fires	-12080
▁flown	-12081
▁gayer	-12082
▁gloss	-12083
▁gramm	-12084
▁greed	-12085
▁heath	-12086
▁heavi	-12087
▁hired	-12088
▁honor	-12089
▁hurts	-12090
▁illum	-12091
▁inart	-12092
▁inner	-12093
▁intri	-12094
▁japan	-12095
▁knack	-12096
▁knave	-12097
▁kneel	-12098
▁knelt	-12099
?'"	-12100
Imp	-12101
▁Ho	-12102
▁Inn	-12103
▁Int	-12104
cases	-12105
▁cust	-12106
▁eluc	-12107
▁whim	-12108
rimony	-12109
▁annum	-12110
▁barri	-12111
▁grass	-12112
▁laund	-12113
▁lease	-12114
▁lodge	-12115
▁loose	-12116
▁lungs	-12117
▁malev	-12118
▁massy	-12119
▁meals	-12120
▁minor	-12121
▁motto	-12122
▁mourn	-12123
▁nasty	-12124
▁negot	-12125
▁ninth	-12126
▁opens	-12127
▁outer	-12128
▁overr	-12129
▁pales	-12130
▁penny	-12131
▁plent	-12132
▁preem	-12133
▁proxy	-12134
▁pupil	-12135
▁rains	-12136
▁reced	-12137
▁refer	-12138
▁relax	-12139
▁repet	-12140
▁repug	-12141
▁rings	-12142
▁ruins	-12143
▁salts	-12144
▁salut	-12145
▁sands	-12146
▁shady	-12147
▁shark	-12148
▁shudd	-12149
▁sighs	-12150
▁sixty	-12151
▁slack	-12152
▁slice	-12153
▁slope	-12154
▁squab	-12155
▁stern	-12156
▁stile	-12157
▁sting	-12158
▁stole	-12159
▁stupe	-12160
▁tales	-12161
▁theme	-12162
▁toils	-12163
▁tract	-12164
▁trink	-12165
▁troop	-12166
▁turnp	-12167
▁undue	-12168
▁until	-12169
▁usage	-12170
▁vowed	-12171
▁waits	-12172
▁wider	-12173
Believe	-12174
Dearest	-12175
Suppose	-12176
Whoever	-12177
animate	-12178
ariness	-12179
ateness	-12180
atterer	-12181
balance	-12182
bathing	-12183
bearing	-12184
believe	-12185
besides	-12186
between	-12187
boarder	-12188
cations	-12189
cipline	-12190
clothes	-12191
colours	-12192
condemn	-12193
entieth	-12194
essions	-12195
exactly	-12196
finding	-12197
fitable	-12198
glasses	-12199
gressed	-12200
hanging	-12201
icament	-12202
iddling	-12203
ionable	-12204
itative	-12205
itherto	-12206
legance	-12207
ndepend	-12208
omeness	-12209
oundrel	-12210
pending	-12211
perable	-12212
powered	-12213
ritical	-12214
stances	-12215
strange	-12216
success	-12217
thening	-12218
ushions	-12219
whisper	-12220
whoever	-12221
written	-12222
▁Behold	-12223
▁Cromer	-12224
▁Forest	-12225
▁German	-12226
▁Ladies	-12227
▁Master	-12228
▁Others	-12229
▁Pardon	-12230
▁Perrys	-12231
▁Putney	-12232
▁Scotch	-12233
▁Smiths	-12234
▁actors	-12235
▁adjust	-12236
▁afloat	-12237
▁allude	-12238
▁amuses	-12239
▁anyhow	-12240
▁argued	-12241
▁artist	-12242
▁assign	-12243
▁atoned	-12244
▁attire	-12245
▁auspic	-12246
▁bearer	-12247
▁befell	-12248
▁beside	-12249
▁biased	-12250
▁blinds	-12251
▁bodies	-12252
▁bridge	-12253
▁cattle	-12254
▁cipher	-12255
▁clothe	-12256
▁colder	-12257
▁combat	-12258
▁comply	-12259
▁covert	-12260
▁crisis	-12261
▁crowds	-12262
▁cursed	-12263
▁decree	-12264
▁defied	-12265
▁demean	-12266
▁despic	-12267
▁devote	-12268
▁dexter	-12269
▁dispel	-12270
▁divine	-12271
▁donkey	-12272
▁dreamt	-12273
▁echoed	-12274
▁emphat	-12275
▁enrich	-12276
▁epithe	-12277
▁essent	-12278
▁execut	-12279
▁expend	-12280
▁expert	-12281
▁exuber	-12282
▁fickle	-12283
▁fields	-12284
▁finale	-12285
▁flowed	-12286
▁frozen	-12287
▁fruits	-12288
▁fuller	-12289
▁gainer	-12290
▁goings	-12291
▁groups	-12292
▁guinea	-12293
▁halves	-12294
▁handle	-12295
▁hatred	-12296
▁hedges	-12297
▁hollow	-12298
▁impede	-12299
▁inches	-12300
▁innate	-12301
▁inspir	-12302
▁instit	-12303
▁island	-12304
▁jewels	-12305
▁joking	-12306
▁judges	-12307
▁knives	-12308
▁lastly	-12309
▁laughs	-12310
▁litter	-12311
▁lonely	-12312
▁magist	-12313
▁malady	-12314
▁mature	-12315
▁maxims	-12316
▁medioc	-12317
▁millin	-12318
▁misman	-12319
▁morals	-12320
▁mortal	-12321
▁muffin	-12322
▁neatly	-12323
▁newest	-12324
▁obtrus	-12325
▁occurs	-12326
▁owners	-12327
▁pacify	-12328
▁packet	-12329
▁parley	-12330
▁parson	-12331
▁pillow	-12332
▁piquet	-12333
▁plunge	-12334
▁policy	-12335
▁ponies	-12336
▁potent	-12337
▁proves	-12338
▁pulpit	-12339
▁purely	-12340
▁putrid	-12341
▁random	-12342
▁rascal	-12343
▁record	-12344
▁redden	-12345
▁rescue	-12346
▁reside	-12347
▁rivals	-12348
▁rustic	-12349
▁sacred	-12350
▁sailed	-12351
▁salary	-12352
▁sallow	-12353
▁saloon	-12354
▁scores	-12355
▁sedate	-12356
▁shades	-12357
▁shower	-12358
▁shrewd	-12359
▁shrunk	-12360
▁sights	-12361
▁signal	-12362
▁signed	-12363
▁softer	-12364
▁softly	-12365
▁solace	-12366
▁spleen	-12367
▁squire	-12368
▁starts	-12369
▁stimul	-12370
▁summit	-12371
▁temple	-12372
▁termed	-12373
▁theore	-12374
▁thrill	-12375
▁tippet	-12376
▁tithes	-12377
▁traces	-12378
▁trunks	-12379
▁tyrann	-12380
▁unison	-12381
▁unlock	-12382
▁unrest	-12383
▁unsaid	-12384
▁vanish	-12385
▁vessel	-12386
▁waking	-12387
▁warmed	-12388
▁waters	-12389
▁whilst	-12390
▁wildly	-12391
▁worlds	-12392
Handsome	-12393
Highbury	-12394
aciously	-12395
actually	-12396
antation	-12397
asticity	-12398
blushing	-12399
entirely	-12400
ffectual	-12401
icularly	-12402
istolary	-12403
lowering	-12404
occupied	-12405
orbitant	-12406
pointing	-12407
ractised	-12408
resently	-12409
servants	-12410
shooting	-12411
ulations	-12412
▁Amongst	-12413
▁Baronet	-12414
▁Belmont	-12415
▁Camilla	-12416
▁Concert	-12417
▁Dowager	-12418
▁Ellison	-12419
▁Frances	-12420
▁Gardens	-12421
▁Gowland	-12422
▁Hanover	-12423
▁Imagine	-12424
▁Knowing	-12425
▁Respect	-12426
▁Selfish	-12427
▁Shortly	-12428
▁Sitting	-12429
▁Society	-12430
▁Tetbury	-12431
▁Thought	-12432
▁Wigmore	-12433
▁abstain	-12434
▁achieve	-12435
▁adverse	-12436
▁affords	-12437
▁agitate	-12438
▁annexed	-12439
▁arguing	-12440
▁assumed	-12441
▁average	-12442
▁badness	-12443
▁bailiff	-12444
▁banners	-12445
▁bespoke	-12446
▁blaming	-12447
▁blended	-12448
▁briskly	-12449
▁broader	-12450
▁bystand	-12451
▁carries	-12452
▁castles	-12453
▁ceiling	-12454
▁chapter	-12455
▁chariot	-12456
▁cheated	-12457
▁cherish	-12458
▁classed	-12459
▁colours	-12460
▁combine	-12461
▁comment	-12462
▁compass	-12463
▁conduce	-12464
▁conquer	-12465
▁control	-12466
▁convent	-12467
▁convert	-12468
▁council	-12469
▁counted	-12470
▁couples	-12471
▁cravats	-12472
▁crayons	-12473
▁crimson	-12474
▁darting	-12475
▁defying	-12476
▁deigned	-12477
▁deliver	-12478
▁dentist	-12479
▁deposit	-12480
▁divorce	-12481
▁doubled	-12482
▁dreamer	-12483
▁dullest	-12484
▁dulness	-12485
▁earthly	-12486
▁edifice	-12487
▁elation	-12488
▁enliven	-12489
▁enthusi	-12490
▁errands	-12491
▁esteems	-12492
▁exclude	-12493
▁expects	-12494
▁feeding	-12495
▁flannel	-12496
▁flavour	-12497
▁flirted	-12498
▁fretted	-12499
▁frigate	-12500
▁fronted	-12501
▁fulfill	-12502
▁funeral	-12503
▁gilding	-12504
▁gladden	-12505
▁glasses	-12506
▁glories	-12507
▁grander	-12508
▁greeted	-12509
▁grieves	-12510
▁harvest	-12511
▁hateful	-12512
▁haunted	-12513
▁hauteur	-12514
▁hazards	-12515
▁hearted	-12516
▁heiress	-12517
▁hideous	-12518
▁horizon	-12519
▁humours	-12520
▁immoder	-12521
▁impover	-12522
▁inmates	-12523
▁insepar	-12524
▁intends	-12525
▁intimid	-12526
▁intrude	-12527
▁kindred	-12528
▁labours	-12529
▁lenient	-12530
▁lifting	-12531
▁lighter	-12532
▁livings	-12533
▁lottery	-12534
▁lowered	-12535
▁lurking	-12536
▁medical	-12537
▁members	-12538
▁million	-12539
▁mindful	-12540
▁miracle	-12541
▁mortals	-12542
▁natured	-12543
▁offense	-12544
▁operate	-12545
▁orderly	-12546
▁outside	-12547
▁packing	-12548
▁paddock	-12549
▁painter	-12550
▁panting	-12551
▁parasol	-12552
▁passive	-12553
▁pelisse	-12554
▁planted	-12555
▁players	-12556
▁pleaded	-12557
▁pockets	-12558
▁precise	-12559
▁profile	-12560
▁proflig	-12561
▁puppies	-12562
▁quieter	-12563
▁rallied	-12564
▁rambles	-12565
▁ranting	-12566
▁rectory	-12567
▁relapse	-12568
▁relying	-12569
▁remnant	-12570
▁repeats	-12571
▁replete	-12572
▁reputed	-12573
▁resided	-12574
▁results	-12575
▁robbing	-12576
▁rushing	-12577
▁scorned	-12578
▁screams	-12579
▁secresy	-12580
▁seizing	-12581
▁shorter	-12582
▁showery	-12583
▁shudder	-12584
▁sloping	-12585
▁slyness	-12586
▁snowing	-12587
▁sounded	-12588
▁sparing	-12589
▁special	-12590
▁spurned	-12591
▁squeeze	-12592
▁staring	-12593
▁stirred	-12594
▁stomach	-12595
▁subsist	-12596
▁summers	-12597
▁survive	-12598
▁sweetly	-12599
▁swiftly	-12600
▁synonym	-12601
▁thinner	-12602
▁thirdly	-12603
▁threats	-12604
▁torrent	-12605
▁trifles	-12606
▁trodden	-12607
▁twofold	-12608
▁uncouth	-12609
▁unmoved	-12610
▁unstead	-12611
▁upstart	-12612
▁utterly	-12613
▁vaulted	-12614
▁wasting	-12615
▁watches	-12616
▁western	-12617
▁whereas	-12618
▁womanly	-12619
▁workmen	-12620
▁worried	-12621
▁wronged	-12622
Excellent	-12623
andestine	-12624
assembled	-12625
believing	-12626
creatures	-12627
excepting	-12628
furnished	-12629
heartened	-12630
interpret	-12631
sometimes	-12632
▁Absolute	-12633
▁Annesley	-12634
▁Children	-12635
▁Drummond	-12636
▁GARDINER	-12637
▁Grappler	-12638
▁Hitherto	-12639
▁Jealousy	-12640
▁Longtown	-12641
▁REGINALD	-12642
▁Skinners	-12643
▁Somerset	-12644
▁Stanhill	-12645
▁Surprise	-12646
▁Thirteen	-12647
▁Wallises	-12648
▁Whitaker	-12649
▁Yarmouth	-12650
▁abhorred	-12651
▁achieved	-12652
▁adequate	-12653
▁adhering	-12654
▁approval	-12655
▁archness	-12656
▁arrivals	-12657
▁avowedly	-12658
▁baronets	-12659
▁bedrooms	-12660
▁biscuits	-12661
▁boasting	-12662
▁bookcase	-12663
▁bursting	-12664
▁candidly	-12665
▁chatting	-12666
▁classing	-12667
▁clemency	-12668
▁cleverer	-12669
▁commands	-12670
▁comments	-12671
▁comprise	-12672
▁contract	-12673
▁coquette	-12674
▁counsels	-12675
▁creation	-12676
▁criminal	-12677
▁daylight	-12678
▁delivery	-12679
▁demerits	-12680
▁deplored	-12681
▁deranged	-12682
▁desolate	-12683
▁detailed	-12684
▁dilatory	-12685
▁dismount	-12686
▁doctrine	-12687
▁dominion	-12688
▁dullness	-12689
▁easiness	-12690
▁effected	-12691
▁emigrant	-12692
▁eminence	-12693
▁enabling	-12694
▁endanger	-12695
▁endeared	-12696
▁enormous	-12697
▁equipped	-12698
▁excepted	-12699
▁excesses	-12700
▁existing	-12701
▁failures	-12702
▁feasible	-12703
▁fidelity	-12704
▁fidgeted	-12705
▁filigree	-12706
▁finances	-12707
▁foretell	-12708
▁fullness	-12709
▁grandson	-12710
▁harangue	-12711
▁horribly	-12712
▁horsemen	-12713
▁improves	-12714
▁inquisit	-12715
▁internal	-12716
▁interven	-12717
▁invented	-12718
▁jointure	-12719
▁junction	-12720
▁justness	-12721
▁knocking	-12722
▁latterly	-12723
▁laudable	-12724
▁lengthen	-12725
▁loitered	-12726
▁meantime	-12727
▁medicine	-12728
▁meditate	-12729
▁midnight	-12730
▁movement	-12731
▁musician	-12732
▁narrower	-12733
▁nothings	-12734
▁nuptials	-12735
▁offences	-12736
▁offenses	-12737
▁oftenest	-12738
▁omission	-12739
▁overhear	-12740
▁passable	-12741
▁perforce	-12742
▁petition	-12743
▁plaguing	-12744
▁populous	-12745
▁praising	-12746
▁predomin	-12747
▁proclaim	-12748
▁produces	-12749
▁prognost	-12750
▁protegee	-12751
▁puzzling	-12752
▁receives	-12753
▁referred	-12754
▁regained	-12755
▁regulate	-12756
▁religion	-12757
▁repining	-12758
▁reproofs	-12759
▁reproved	-12760
▁repulsed	-12761
▁requited	-12762
▁reseated	-12763
▁resorted	-12764
▁resource	-12765
▁resulted	-12766
▁revolted	-12767
▁screamed	-12768
▁searched	-12769
▁seconded	-12770
▁securely	-12771
▁sixpence	-12772
▁smoothed	-12773
▁sneering	-12774
▁solidity	-12775
▁sprigged	-12776
▁steadier	-12777
▁sufficed	-12778
▁supports	-12779
▁surmount	-12780
▁teachers	-12781
▁tempered	-12782
▁terribly	-12783
▁thwarted	-12784
▁toilette	-12785
▁trespass	-12786
▁tricking	-12787
▁trimming	-12788
▁troubled	-12789
▁tumbling	-12790
▁ultimate	-12791
▁unacknow	-12792
▁unawares	-12793
▁unlocked	-12794
▁unmarked	-12795
▁unseason	-12796
▁unshaken	-12797
▁unsuited	-12798
▁virtuous	-12799
▁viscount	-12800
▁westward	-12801
▁wilfully	-12802
absolutely	-12803
possession	-12804
scrupulous	-12805
▁Annamaria	-12806
▁Bickerton	-12807
▁Impatient	-12808
▁Midsummer	-12809
▁Mysteries	-12810
▁Partridge	-12811
▁Presently	-12812
▁Wiltshire	-12813
▁abominate	-12814
▁accordant	-12815
▁additions	-12816
▁adoration	-12817
▁alliances	-12818
▁ambitious	-12819
▁amounting	-12820
▁anecdotes	-12821
▁arrowroot	-12822
▁asparagus	-12823
▁asserting	-12824
▁attaining	-12825
▁avoidance	-12826
▁baronetcy	-12827
▁bitterest	-12828
▁brotherly	-12829
▁causeless	-12830
▁clamorous	-12831
▁collation	-12832
▁concisely	-12833
▁conquered	-12834
▁correctly	-12835
▁countless	-12836
▁creditors	-12837
▁decisions	-12838
▁deduction	-12839
▁desertion	-12840
▁designing	-12841
▁despising	-12842
▁detaching	-12843
▁detecting	-12844
▁deviation	-12845
▁disposing	-12846
▁dissolved	-12847
▁dutifully	-12848
▁eccentric	-12849
▁ecstasies	-12850
▁effecting	-12851
▁elegantly	-12852
▁enchanted	-12853
▁enclosure	-12854
▁endearing	-12855
▁enlivened	-12856
▁esteeming	-12857
▁estimated	-12858
▁estranged	-12859
▁extending	-12860
▁eyelashes	-12861
▁faltering	-12862
▁farmhouse	-12863
▁favouring	-12864
▁flatterer	-12865
▁fragrance	-12866
▁frequency	-12867
▁frugality	-12868
▁godfather	-12869
▁governing	-12870
▁habitable	-12871
▁hackneyed	-12872
▁honouring	-12873
▁humourist	-12874
▁hundredth	-12875
▁hypocrite	-12876
▁illnesses	-12877
▁impending	-12878
▁impolitic	-12879
▁incurable	-12880
▁indecorum	-12881
▁inflicted	-12882
▁influenza	-12883
▁inherited	-12884
▁insulting	-12885
▁intruding	-12886
▁judgments	-12887
▁labourers	-12888
▁languages	-12889
▁leisurely	-12890
▁lightness	-12891
▁likeliest	-12892
▁literally	-12893
▁magnitude	-12894
▁malicious	-12895
▁measuring	-12896
▁miniature	-12897
▁multitude	-12898
▁northward	-12899
▁obedience	-12900
▁orchestra	-12901
▁overjoyed	-12902
▁overtures	-12903
▁panegyric	-12904
▁patiently	-12905
▁penetrate	-12906
▁penitence	-12907
▁personage	-12908
▁plaintive	-12909
▁plentiful	-12910
▁pondering	-12911
▁poulterer	-12912
▁powerless	-12913
▁practices	-12914
▁preserves	-12915
▁quartered	-12916
▁recurring	-12917
▁rehearsed	-12918
▁rejecting	-12919
▁religious	-12920
▁resigning	-12921
▁retentive	-12922
▁rheumatic	-12923
▁rheumatis	-12924
▁sarcastic	-12925
▁satirical	-12926
▁satisfies	-12927
▁scoundrel	-12928
▁sedentary	-12929
▁seduction	-12930
▁seniority	-12931
▁shivering	-12932
▁smilingly	-12933
▁softening	-12934
▁soliloquy	-12935
▁sorrowing	-12936
▁specimens	-12937
▁sportsman	-12938
▁stability	-12939
▁stiffness	-12940
▁straining	-12941
▁strangest	-12942
▁strolling	-12943
▁stupidest	-12944
▁surviving	-12945
▁sustained	-12946
▁syllables	-12947
▁tolerated	-12948
▁transport	-12949
▁treasures	-12950
▁unbending	-12951
▁unchecked	-12952
▁undeceive	-12953
▁undergone	-12954
▁undoubted	-12955
▁undressed	-12956
▁unsatisfa	-12957
▁unstudied	-12958
▁unusually	-12959
▁unwearied	-12960
▁vouchsafe	-12961
▁wearisome	-12962
▁whichever	-12963
▁witnesses	-12964
approbation	-12965
considering	-12966
▁Birmingham	-12967
▁Laurentina	-12968
▁Parliament	-12969
▁Shropshire	-12970
▁Wildenheim	-12971
▁alarmingly	-12972
▁anticipate	-12973
▁articulate	-12974
▁assembling	-12975
▁attainable	-12976
▁authorized	-12977
▁background	-12978
▁befriended	-12979
▁beginnings	-12980
▁beneficial	-12981
▁biographer	-12982
▁captivated	-12983
▁ceremonies	-12984
▁chattering	-12985
▁completing	-12986
▁compounded	-12987
▁conceiving	-12988
▁conferring	-12989
▁conformity	-12990
▁consisting	-12991
▁contention	-12992
▁courtesies	-12993
▁cultivated	-12994
▁diminished	-12995
▁discipline	-12996
▁discompose	-12997
▁discontinu	-12998
▁discussing	-12999
▁dispirited	-13000
▁economical	-13001
▁elasticity	-13002
▁encumbered	-13003
▁epistolary	-13004
▁essentials	-13005
▁exasperate	-13006
▁exceptions	-13007
▁exercising	-13008
▁exorbitant	-13009
▁experiment	-13010
▁extinction	-13011
▁exultingly	-13012
▁fickleness	-13013
▁flatteries	-13014
▁forbearing	-13015
▁forbidding	-13016
▁friendless	-13017
▁gradations	-13018
▁groundwork	-13019
▁horsewoman	-13020
▁imposition	-13021
▁indication	-13022
▁indiscreet	-13023
▁infamously	-13024
▁inquietude	-13025
▁justifying	-13026
▁memorandum	-13027
▁methodical	-13028
▁miniatures	-13029
▁needlessly	-13030
▁nurseryman	-13031
▁obligingly	-13032
▁penetrated	-13033
▁privileges	-13034
▁production	-13035
▁profitable	-13036
▁protracted	-13037
▁provisions	-13038
▁quotations	-13039
▁regulation	-13040
▁rehearsals	-13041
▁rehearsing	-13042
▁repressing	-13043
▁sanctioned	-13044
▁shamefully	-13045
▁substitute	-13046
▁tranquilly	-13047
▁transparen	-13048
▁triumphing	-13049
▁unanswered	-13050
▁unassuming	-13051
▁unavailing	-13052
▁uncheerful	-13053
▁undervalue	-13054
▁undistingu	-13055
▁unexampled	-13056
▁uninformed	-13057
▁unworthily	-13058
▁variations	-13059
▁vouchsafed	-13060
condemnation	-13061
nfortunately	-13062
▁Compliments	-13063
▁Mainwarings	-13064
▁Willoughbys	-13065
▁absurdities	-13066
▁accountable	-13067
▁assiduities	-13068
▁authorising	-13069
▁blamelessly	-13070
▁brightening	-13071
▁circulating	-13072
▁clandestine	-13073
▁coincidence	-13074
▁complaisant	-13075
▁compunction	-13076
▁conclusions	-13077
▁confederacy	-13078
▁consolatory	-13079
▁consumption	-13080
▁contemplate	-13081
▁contraction	-13082
▁conversable	-13083
▁deliverance	-13084
▁disapproved	-13085
▁disclaiming	-13086
▁disobliging	-13087
▁diversified	-13088
▁ejaculation	-13089
▁encroaching	-13090
▁enumeration	-13091
▁essentially	-13092
▁exaggerated	-13093
▁expenditure	-13094
▁explanatory	-13095
▁extenuation	-13096
▁foolishness	-13097
▁forebodings	-13098
▁forestalled	-13099
▁gallantries	-13100
▁impartially	-13101
▁importunate	-13102
▁ineffectual	-13103
▁influencing	-13104
▁injunctions	-13105
▁insincerity	-13106
▁insuperable	-13107
▁negotiation	-13108
▁nothingness	-13109
▁ostentation	-13110
▁outstripped	-13111
▁overbearing	-13112
▁overhearing	-13113
▁peculiarity	-13114
▁persuadable	-13115
▁predicament	-13116
▁publication	-13117
▁rapturously	-13118
▁rationality	-13119
▁recognition	-13120
▁recommenced	-13121
▁regimentals	-13122
▁regulations	-13123
▁reluctantly	-13124
▁repetitions	-13125
▁resentfully	-13126
▁separations	-13127
▁sorrowfully	-13128
▁steadfastly	-13129
▁stipulation	-13130
▁strenuously	-13131
▁treacherous	-13132
▁trepidation	-13133
▁unalterable	-13134
▁unintention	-13135
▁unobtrusive	-13136
▁unpractised	-13137
▁unpromising	-13138
▁unspeakably	-13139
▁uprightness	-13140
▁Astonishment	-13141
▁apprehending	-13142
▁appropriated	-13143
▁commencement	-13144
▁commissioned	-13145
▁conciliating	-13146
▁conveniences	-13147
▁corresponded	-13148
▁countenances	-13149
▁declarations	-13150
▁deliberating	-13151
▁disheartened	-13152
▁distractedly	-13153
▁estrangement	-13154
▁exaggeration	-13155
▁henceforward	-13156
▁immoderately	-13157
▁impenetrable	-13158
▁inconsolable	-13159
▁indiscretion	-13160
▁inexperience	-13161
▁misinterpret	-13162
▁mysteriously	-13163
▁parishioners	-13164
▁passionately	-13165
▁perplexities	-13166
▁prepossessed	-13167
▁preservation	-13168
▁professional	-13169
▁solitariness	-13170
▁speculations	-13171
▁suspiciously	-13172
▁thankfulness	-13173
▁transgressed	-13174
▁unaffectedly	-13175
▁unpleasantly	-13176
▁unprejudiced	-13177
▁unprofitable	-13178
▁unrestrained	-13179
▁unsteadiness	-13180
▁administering	-13181
▁anticipations	-13182
▁authoritative	-13183
▁awkwardnesses	-13184
▁commiseration	-13185
▁conditionally	-13186
▁considerately	-13187
▁disproportion	-13188
▁dissimilarity	-13189
▁impertinently	-13190
▁inconsiderate	-13191
▁industriously	-13192
▁inexperienced	-13193
▁ingenuousness	-13194
▁introductions	-13195
▁mismanagement	-13196
▁presentiments	-13197
▁qualification	-13198
▁remonstrances	-13199
▁satisfactions	-13200
▁uninterrupted	-13201
▁advantageously	-13202
▁congratulatory	-13203
▁contemptuously	-13204
▁counterbalance	-13205
▁embarrassments	-13206
▁irreproachable	-13207
▁unacknowledged	-13208
▁understandings	-13209
▁unsatisfactory	-13210
▁dissatisfaction	-13211
▁inconsiderately	-13212
▁inconsistencies	-13213
▁straightforward	-13214
Any	-13215
Dev	-13216
EST	-13217
ILL	-13218
Ref	-13219
cox	-13220
def	-13221
:"--	-13222
ADAM	-13223
Comp	-13224
DEAR	-13225
ILLI	-13226
Psha	-13227
Stay	-13228
deem	-13229
desp	-13230
doms	-13231
ecim	-13232
erer	-13233
exam	-13234
gden	-13235
hung	-13236
ikes	-13237
keys	-13238
lora	-13239
mmet	-13240
olks	-13241
olts	-13242
oped	-13243
opin	-13244
plif	-13245
prit	-13246
risy	-13247
slow	-13248
writ	-13249
▁--,	-13250
▁FRO	-13251
▁III	-13252
▁Jew	-13253
▁Sho	-13254
▁Tea	-13255
▁ido	-13256
----,	-13257
.'--'	-13258
Break	-13259
Cruel	-13260
Laugh	-13261
Smith	-13262
WILLI	-13263
Women	-13264
Write	-13265
achab	-13266
annah	-13267
arian	-13268
blown	-13269
brows	-13270
cheer	-13271
cisse	-13272
delic	-13273
echen	-13274
ecimo	-13275
elope	-13276
evish	-13277
flown	-13278
hlets	-13279
ibald	-13280
ilful	-13281
irror	-13282
iverp	-13283
larke	-13284
ology	-13285
ombre	-13286
opher	-13287
poilt	-13288
roads	-13289
robes	-13290
shops	-13291
trave	-13292
unche	-13293
vents	-13294
visit	-13295
water	-13296
▁Alps	-13297
▁Alth	-13298
▁Alto	-13299
ui	-13300
Six	-13301
dum	-13302
nui	-13303
oof	-13304
▁LI	-13305
▁tu	-13306
--.'	-13307
Alas	-13308
ncle	-13309
vice	-13310
▁Ask	-13311
▁Bed	-13312
▁cod	-13313
▁gau	-13314
▁hug	-13315
Grand	-13316
dumpl	-13317
found	-13318
hened	-13319
ignon	-13320
ingby	-13321
leful	-13322
ongru	-13323
oving	-13324
ppice	-13325
thank	-13326
▁Argy	-13327
▁Brit	-13328
▁Conf	-13329
▁Gros	-13330
▁Holy	-13331
▁List	-13332
▁Madd	-13333
▁Mark	-13334
▁Open	-13335
▁Owen	-13336
▁Prep	-13337
▁Pump	-13338
▁Wilf	-13339
▁balm	-13340
▁cell	-13341
▁coax	-13342
▁crad	-13343
▁dawn	-13344
▁drun	-13345
▁dues	-13346
▁duod	-13347
▁eats	-13348
▁ecli	-13349
▁epic	-13350
▁gape	-13351
▁gigs	-13352
▁hens	-13353
▁lime	-13354
▁loan	-13355
▁memo	-13356
▁penk	-13357
▁rush	-13358
▁sket	-13359
▁spur	-13360
▁tale	-13361
▁tipt	-13362
▁tort	-13363
▁trod	-13364
▁turf	-13365
▁walt	-13366
Better	-13367
Beyond	-13368
Exceed	-13369
Having	-13370
Louisa	-13371
Merely	-13372
Refuse	-13373
Surely	-13374
apside	-13375
attled	-13376
concil	-13377
fellow	-13378
gardly	-13379
gences	-13380
greens	-13381
hecies	-13382
holder	-13383
icians	-13384
icisms	-13385
icture	-13386
iguous	-13387
ingdon	-13388
inquir	-13389
iquity	-13390
isades	-13391
isseur	-13392
itudes	-13393
lantic	-13394
lberry	-13395
ldiers	-13396
losing	-13397
mitage	-13398
oicest	-13399
▁Sp	-13400
Make	-13401
Many	-13402
came	-13403
city	-13404
cook	-13405
hent	-13406
last	-13407
ooks	-13408
talk	-13409
tons	-13410
▁Wel	-13411
▁Wit	-13412
▁apo	-13413
▁dab	-13414
▁jil	-13415
▁ris	-13416
▁ven	-13417
Hotel	-13418
antry	-13419
ponds	-13420
treat	-13421
wness	-13422
xiety	-13423
▁Dare	-13424
▁Hear	-13425
▁Prom	-13426
▁bone	-13427
▁ener	-13428
▁evin	-13429
▁link	-13430
▁mite	-13431
▁vine	-13432
Rather	-13433
areful	-13434
aunted	-13435
hentic	-13436
ilions	-13437
nberry	-13438
placed	-13439
pretty	-13440
rafted	-13441
recian	-13442
render	-13443
renees	-13444
ricult	-13445
rigden	-13446
rolled	-13447
rusted	-13448
saying	-13449
settle	-13450
teenth	-13451
thinks	-13452
umbers	-13453
urally	-13454
utters	-13455
vignon	-13456
vously	-13457
▁Birth	-13458
▁Blair	-13459
▁Break	-13460
▁Clark	-13461
▁Cliff	-13462
▁Const	-13463
▁Cruel	-13464
▁Guess	-13465
▁Hetty	-13466
▁Honit	-13467
▁Janet	-13468
▁Large	-13469
▁Lucky	-13470
▁MADAM	-13471
▁Petty	-13472
▁Pover	-13473
▁Spark	-13474
▁Tease	-13475
▁Welch	-13476
▁Whose	-13477
▁Woman	-13478
▁Worse	-13479
▁aloof	-13480
▁audit	-13481
▁banks	-13482
▁beams	-13483
▁bends	-13484
▁bones	-13485
▁boots	-13486
▁brick	-13487
▁brook	-13488
▁brunt	-13489
▁bulky	-13490
▁cabin	-13491
▁canal	-13492
▁clung	-13493
▁coats	-13494
▁cooks	-13495
▁cramp	-13496
▁demes	-13497
▁eclip	-13498
▁embar	-13499
anda	-13500
bone	-13501
dest	-13502
eous	-13503
farm	-13504
list	-13505
nown	-13506
seen	-13507
unte	-13508
west	-13509
zard	-13510
▁Lis	-13511
▁Rep	-13512
▁Rom	-13513
▁gad	-13514
▁spl	-13515
among	-13516
inder	-13517
nment	-13518
ousin	-13519
yards	-13520
▁Lisb	-13521
▁ante	-13522
▁bind	-13523
▁nail	-13524
▁tard	-13525
▁tens	-13526
▁unam	-13527
▁uses	-13528
alment	-13529
arding	-13530
arious	-13531
hazard	-13532
slowly	-13533
unteer	-13534
weston	-13535
within	-13536
▁China	-13537
▁Spect	-13538
▁agent	-13539
▁amore	-13540
▁denom	-13541
▁ennui	-13542
▁etern	-13543
▁fails	-13544
▁fence	-13545
▁figur	-13546
▁fills	-13547
▁flock	-13548
▁folks	-13549
▁forks	-13550
▁fraud	-13551
▁gales	-13552
▁gifts	-13553
▁gipsy	-13554
▁gleam	-13555
▁hazle	-13556
▁inact	-13557
▁inhum	-13558
▁irrep	-13559
▁irrit	-13560
▁labor	-13561
▁lamps	-13562
▁lands	-13563
▁lawns	-13564
▁lords	-13565
▁maxim	-13566
▁monot	-13567
▁neckl	-13568
▁paced	-13569
▁palat	-13570
▁panic	-13571
▁papas	-13572
▁petty	-13573
▁petul	-13574
▁pints	-13575
▁pique	-13576
▁plais	-13577
▁pools	-13578
▁ranks	-13579
▁rants	-13580
▁rents	-13581
▁rises	-13582
▁roomy	-13583
▁sandy	-13584
▁scrut	-13585
▁shrug	-13586
▁shuts	-13587
▁sland	-13588
▁sneer	-13589
▁souls	-13590
▁stars	-13591
▁swore	-13592
▁taxed	-13593
▁tenth	-13594
▁timed	-13595
▁undiv	-13596
▁unimp	-13597
▁uninv	-13598
▁unlim	-13599
war	-13600
▁Br	-13601
▁CH	-13602
Hart	-13603
Part	-13604
ball	-13605
beat	-13606
cast	-13607
half	-13608
ongs	-13609
pany	-13610
rier	-13611
tend	-13612
ulog	-13613
wich	-13614
▁Bro	-13615
▁War	-13616
▁sav	-13617
▁voy	-13618
again	-13619
groom	-13620
herne	-13621
lmers	-13622
might	-13623
olsey	-13624
stone	-13625
▁Call	-13626
▁arom	-13627
▁cope	-13628
▁jarg	-13629
▁melt	-13630
▁repl	-13631
▁seal	-13632
▁ties	-13633
beaten	-13634
kherne	-13635
▁Brock	-13636
▁Fetch	-13637
▁coast	-13638
▁eulog	-13639
▁giddy	-13640
▁nicer	-13641
▁speck	-13642
▁unmod	-13643
▁unpol	-13644
▁unsub	-13645
▁upset	-13646
▁valet	-13647
▁vanqu	-13648
▁verse	-13649
▁vicar	-13650
▁vices	-13651
▁wings	-13652
Bingley	-13653
WILLIAM	-13654
agonist	-13655
allibly	-13656
another	-13657
anxious	-13658
argaret	-13659
atterns	-13660
conceit	-13661
cutions	-13662
dearest	-13663
ealousy	-13664
entment	-13665
ersized	-13666
eserved	-13667
fection	-13668
forgive	-13669
genteel	-13670
icature	-13671
inarily	-13672
inkling	-13673
itimacy	-13674
kindled	-13675
letcher	-13676
ligible	-13677
luckily	-13678
manship	-13679
mblance	-13680
mingled	-13681
ography	-13682
oherent	-13683
oldened	-13684
opinion	-13685
oveable	-13686
phazard	-13687
putting	-13688
quarter	-13689
rupting	-13690
sellers	-13691
suppose	-13692
terable	-13693
throats	-13694
tically	-13695
umbling	-13696
umerary	-13697
uncheon	-13698
ventful	-13699
Ten	-13700
far	-13701
pal	-13702
uge	-13703
▁ge	-13704
chor	-13705
none	-13706
oral	-13707
rost	-13708
utes	-13709
▁BRO	-13710
▁Dec	-13711
▁Ext	-13712
▁Ret	-13713
▁Wal	-13714
▁ens	-13715
▁obv	-13716
dings	-13717
gover	-13718
inous	-13719
oning	-13720
▁Juli	-13721
▁Shar	-13722
▁appl	-13723
▁jumb	-13724
▁woke	-13725
alence	-13726
beyond	-13727
ersons	-13728
ivance	-13729
rauded	-13730
suited	-13731
▁devol	-13732
▁wiped	-13733
atorial	-13734
lengths	-13735
osition	-13736
rateful	-13737
wanting	-13738
wishers	-13739
wrought	-13740
yrenees	-13741
▁Affect	-13742
▁Argyle	-13743
▁Barnet	-13744
▁Bishop	-13745
▁Bridge	-13746
▁Davies	-13747
▁Encour	-13748
▁Family	-13749
▁Gladly	-13750
▁Hagger	-13751
▁Hamlet	-13752
▁Hannah	-13753
▁Hardly	-13754
▁Imprud	-13755
▁Indian	-13756
▁Invite	-13757
▁Laroll	-13758
▁Lisbon	-13759
▁Matild	-13760
▁Mirror	-13761
▁Misses	-13762
▁Parrys	-13763
▁Regard	-13764
▁School	-13765
▁Simple	-13766
▁Sparks	-13767
▁Temple	-13768
▁Wilcox	-13769
▁Wolsey	-13770
▁abbeys	-13771
▁accede	-13772
▁accrue	-13773
▁adored	-13774
▁agrees	-13775
▁alight	-13776
▁allure	-13777
▁anchor	-13778
▁ascent	-13779
▁bathed	-13780
▁belles	-13781
▁braved	-13782
▁capers	-13783
▁carved	-13784
▁caused	-13785
▁cavity	-13786
▁ceases	-13787
▁clerks	-13788
▁cliffs	-13789
▁clocks	-13790
▁confer	-13791
▁costly	-13792
▁cotill	-13793
▁cottag	-13794
▁dagger	-13795
▁dashed	-13796
▁debate	-13797
▁deduct	-13798
▁devoid	-13799
CH	-13800
En	-13801
ae	-13802
eg	-13803
na	-13804
'?"	-13805
amb	-13806
asp	-13807
eem	-13808
emb	-13809
gle	-13810
wre	-13811
▁Hy	-13812
▁aj	-13813
Ever	-13814
anth	-13815
face	-13816
mith	-13817
name	-13818
ucks	-13819
word	-13820
▁Min	-13821
great	-13822
ibles	-13823
retna	-13824
▁ajar	-13825
▁bids	-13826
▁infl	-13827
▁inve	-13828
▁pore	-13829
▁thou	-13830
▁ting	-13831
anthro	-13832
assino	-13833
cience	-13834
itened	-13835
uriant	-13836
▁Bragg	-13837
▁Hymen	-13838
▁bliss	-13839
▁drily	-13840
▁ducks	-13841
▁illeg	-13842
▁smoke	-13843
▁snuff	-13844
▁stain	-13845
asement	-13846
facture	-13847
present	-13848
▁Gretna	-13849
▁Second	-13850
▁collar	-13851
▁divert	-13852
▁eclair	-13853
▁eloped	-13854
▁eluded	-13855
▁endear	-13856
▁ensign	-13857
▁evince	-13858
▁facing	-13859
▁facult	-13860
▁feebly	-13861
▁fender	-13862
▁flakes	-13863
▁flirts	-13864
▁framed	-13865
▁freaks	-13866
▁freeze	-13867
▁frolic	-13868
▁garret	-13869
▁genial	-13870
▁glossy	-13871
▁godson	-13872
▁greedy	-13873
▁groves	-13874
▁harmon	-13875
▁haunch	-13876
▁heroes	-13877
▁hotter	-13878
▁hunted	-13879
▁hunter	-13880
▁immort	-13881
▁indoor	-13882
▁inlaid	-13883
▁insert	-13884
▁jargon	-13885
▁joints	-13886
▁kisses	-13887
▁laurel	-13888
▁leaned	-13889
▁licent	-13890
▁linked	-13891
▁looker	-13892
▁marble	-13893
▁medley	-13894
▁miller	-13895
▁murder	-13896
▁nought	-13897
▁orphan	-13898
▁outrun	-13899
Bl	-13900
God	-13901
cap	-13902
fas	-13903
usc	-13904
ctic	-13905
lose	-13906
qued	-13907
rary	-13908
vion	-13909
ware	-13910
▁Fan	-13911
▁gum	-13912
▁lad	-13913
▁loy	-13914
▁nig	-13915
▁ped	-13916
Beaut	-13917
ccept	-13918
penny	-13919
venor	-13920
▁Find	-13921
▁Made	-13922
▁base	-13923
▁coli	-13924
▁irks	-13925
▁prel	-13926
▁tart	-13927
Almost	-13928
atches	-13929
▁Eager	-13930
▁arbit	-13931
▁behav	-13932
▁conno	-13933
▁debar	-13934
▁menus	-13935
▁shelf	-13936
▁sofas	-13937
▁spire	-13938
▁suite	-13939
▁veils	-13940
▁	-13941
e	-13942
t	-13943
a	-13944
o	-13945
n	-13946
i	-13947
h	-13948
s	-13949
r	-13950
d	-13951
l	-13952
u	-13953
m	-13954
c	-13955
w	-13956
f	-13957
y	-13958
g	-13959
,	-13960
p	-13961
b	-13962
v	-13963
.	-13964
k	-13965
"	-13966
I	-13967
-	-13968
;	-13969
M	-13970
T	-13971
'	-13972
x	-13973
H	-13974
S	-13975
E	-13976
W	-13977
q	-13978
C	-13979
B	-13980
A	-13981
!	-13982
j	-13983
?	-13984
L	-13985
F	-13986
Y	-13987
N	-13988
D	-13989
z	-13990
J	-13991
O	-13992
P	-13993
R	-13994
:	-13995
G	-13996
K	-13997
