<unk>	0
▁t	-0
he	-1
▁a	-2
in	-3
▁s	-4
▁w	-5
re	-6
▁o	-7
ou	-8
ha	-9
▁the	-10
er	-11
nd	-12
▁b	-13
▁m	-14
it	-15
▁to	-16
en	-17
is	-18
on	-19
ed	-20
▁c	-21
▁f	-22
ing	-23
▁he	-24
▁of	-25
▁and	-26
or	-27
▁n	-28
▁d	-29
▁be	-30
ll	-31
as	-32
▁ha	-33
ar	-34
▁in	-35
▁p	-36
▁h	-37
an	-38
le	-39
at	-40
ot	-41
▁her	-42
om	-43
es	-44
▁I	-45
▁e	-46
ld	-47
▁was	-48
ly	-49
hat	-50
▁y	-51
ver	-52
ve	-53
▁l	-54
▁g	-55
st	-56
▁not	-57
ion	-58
ce	-59
▁you	-60
se	-61
▁M	-62
ent	-63
ch	-64
ut	-65
▁it	-66
im	-67
▁re	-68
gh	-69
ow	-70
▁"	-71
▁th	-72
ould	-73
▁she	-74
▁as	-75
▁for	-76
▁that	-77
ith	-78
id	-79
ay	-80
▁on	-81
ir	-82
et	-83
▁had	-84
her	-85
▁with	-86
ct	-87
▁an	-88
▁wh	-89
▁su	-90
al	-91
▁we	-92
▁u	-93
▁at	-94
ght	-95
ri	-96
▁his	-97
very	-98
▁so	-99
▁Mr	-100
▁have	-101
ter	-102
--	-103
ad	-104
ill	-105
ro	-106
▁T	-107
▁is	-108
."	-109
ain	-110
li	-111
▁con	-112
▁him	-113
pe	-114
oo	-115
▁H	-116
▁all	-117
▁mu	-118
▁E	-119
▁S	-120
ore	-121
▁se	-122
▁but	-123
ab	-124
ur	-125
▁me	-126
qu	-127
am	-128
if	-129
▁de	-130
ation	-131
lf	-132
▁very	-133
pp	-134
▁k	-135
▁whi	-136
▁could	-137
▁C	-138
ess	-139
▁by	-140
ss	-141
▁ne	-142
▁st	-143
our	-144
▁W	-145
▁com	-146
▁my	-147
ak	-148
▁been	-149
▁would	-150
▁B	-151
▁ex	-152
rom	-153
red	-154
art	-155
▁which	-156
▁do	-157
ort	-158
ne	-159
▁no	-160
ra	-161
▁fe	-162
▁le	-163
▁were	-164
all	-165
▁sa	-166
ge	-167
self	-168
ic	-169
ul	-170
▁A	-171
▁from	-172
▁The	-173
ant	-174
han	-175
hing	-176
▁any	-177
ome	-178
est	-179
ect	-180
ight	-181
ard	-182
ood	-183
▁sh	-184
▁them	-185
▁am	-186
te	-187
▁whe	-188
▁Mrs	-189
▁or	-190
ough	-191
▁they	-192
and	-193
▁al	-194
able	-195
now	-196
▁will	-197
▁dis	-198
▁more	-199
ann	-200
ure	-201
out	-202
ind	-203
▁see	-204
▁your	-205
us	-206
▁what	-207
ate	-208
ous	-209
▁who	-210
▁must	-211
ment	-212
▁un	-213
▁than	-214
▁af	-215
iss	-216
▁this	-217
▁there	-218
▁L	-219
▁their	-220
,"	-221
▁ag	-222
ance	-223
il	-224
▁She	-225
▁know	-226
▁said	-227
ong	-228
▁such	-229
▁pre	-230
▁v	-231
▁per	-232
ive	-233
▁much	-234
end	-235
▁ab	-236
▁pro	-237
ather	-238
itt	-239
▁im	-240
el	-241
iv	-242
reat	-243
ity	-244
ost	-245
ther	-246
wn	-247
▁en	-248
ink	-249
other	-250
▁every	-251
▁qu	-252
▁one	-253
▁Miss	-254
nt	-255
ord	-256
ry	-257
pt	-258
▁are	-259
▁ac	-260
▁j	-261
▁think	-262
po	-263
ence	-264
▁how	-265
ert	-266
ast	-267
ke	-268
▁part	-269
▁r	-270
▁when	-271
age	-272
▁only	-273
ite	-274
ook	-275
fore	-276
▁man	-277
▁ad	-278
▁should	-279
ond	-280
way	-281
ake	-282
ine	-283
ame	-284
▁other	-285
ady	-286
▁He	-287
▁if	-288
▁tim	-289
▁ev	-290
ol	-291
one	-292
▁being	-293
ally	-294
▁own	-295
▁up	-296
▁did	-297
ought	-298
alk	-299
med	-300
▁li	-301
ac	-302
ness	-303
ings	-304
are	-305
▁good	-306
▁might	-307
▁herself	-308
▁great	-309
▁po	-310
▁say	-311
▁some	-312
▁too	-313
ell	-314
▁int	-315
od	-316
▁time	-317
▁never	-318
▁now	-319
ved	-320
ittle	-321
▁ob	-322
▁little	-323
▁again	-324
arri	-325
au	-326
▁comp	-327
ag	-328
▁look	-329
▁It	-330
▁well	-331
leas	-332
▁go	-333
▁feel	-334
ru	-335
▁fri	-336
tter	-337
▁ind	-338
▁happ	-339
▁pl	-340
ire	-341
fect	-342
▁can	-343
▁before	-344
ble	-345
▁sha	-346
pect	-347
ide	-348
ound	-349
?"	-350
ress	-351
hed	-352
ving	-353
▁sp	-354
urn	-355
ng	-356
ily	-357
ward	-358
▁friend	-359
ie	-360
▁br	-361
▁soon	-362
▁has	-363
ister	-364
ouse	-365
▁wis	-366
▁ju	-367
▁sister	-368
▁But	-369
lt	-370
ful	-371
sed	-372
▁tw	-373
▁pleas	-374
▁nothing	-375
ree	-376
ice	-377
▁most	-378
▁ho	-379
▁res	-380
ist	-381
▁long	-382
▁after	-383
▁thought	-384
fe	-385
per	-386
um	-387
▁cons	-388
▁even	-389
▁without	-390
▁lo	-391
ions	-392
▁fir	-393
cy	-394
ject	-395
▁out	-396
ade	-397
▁day	-398
▁Mar	-399
▁though	-400
ious	-401
ies	-402
lin	-403
▁Th	-404
▁att	-405
ma	-406
anny	-407
▁like	-408
▁first	-409
▁may	-410
▁fa	-411
ise	-412
ose	-413
th	-414
ever	-415
▁und	-416
▁about	-417
room	-418
ach	-419
▁spe	-420
ford	-421
ig	-422
ible	-423
raw	-424
▁rem	-425
ers	-426
▁rep	-427
oll	-428
▁young	-429
▁wor	-430
mma	-431
▁two	-432
▁into	-433
lie	-434
▁imp	-435
▁quite	-436
▁ch	-437
▁made	-438
ars	-439
▁ever	-440
▁shall	-441
su	-442
▁over	-443
ways	-444
▁Emma	-445
ley	-446
ple	-447
▁make	-448
▁off	-449
▁always	-450
▁supp	-451
▁ent	-452
▁dear	-453
▁cha	-454
ody	-455
un	-456
we	-457
ount	-458
▁ar	-459
▁des	-460
ck	-461
eth	-462
▁under	-463
▁sure	-464
▁thing	-465
▁just	-466
led	-467
▁inc	-468
ertain	-469
▁op	-470
▁Eli	-471
fort	-472
▁cont	-473
own	-474
iness	-475
int	-476
ced	-477
▁house	-478
▁beg	-479
abeth	-480
▁then	-481
ning	-482
em	-483
▁ret	-484
ave	-485
omet	-486
▁ap	-487
▁belie	-488
▁talk	-489
▁want	-490
▁father	-491
▁mother	-492
▁sm	-493
ps	-494
▁Mari	-495
▁himself	-496
fere	-497
▁away	-498
▁inde	-499
ace	-500
thing	-501
icul	-502
orth	-503
.--	-504
sent	-505
▁last	-506
▁Ed	-507
ran	-508
▁mom	-509
▁moment	-510
▁exp	-511
▁fam	-512
linor	-513
▁however	-514
▁acc	-515
ged	-516
ci	-517
▁way	-518
ction	-519
▁Elinor	-520
cc	-521
▁give	-522
ener	-523
▁kind	-524
▁walk	-525
▁sub	-526
▁its	-527
ated	-528
▁somet	-529
get	-530
▁inte	-531
▁gr	-532
▁Sir	-533
aint	-534
▁dif	-535
ane	-536
▁room	-537
ife	-538
ary	-539
▁sat	-540
▁sc	-541
▁better	-542
▁appe	-543
▁hope	-544
▁mean	-545
xt	-546
ud	-547
▁rec	-548
▁us	-549
ty	-550
▁mann	-551
▁having	-552
ick	-553
▁An	-554
ared	-555
!"	-556
lo	-557
ied	-558
▁felt	-559
und	-560
▁many	-561
▁Lady	-562
▁enough	-563
▁Craw	-564
▁Crawford	-565
annot	-566
atherine	-567
ention	-568
▁Catherine	-569
ens	-570
igh	-571
▁cannot	-572
ft	-573
▁return	-574
fa	-575
light	-576
▁hand	-577
▁mind	-578
▁family	-579
▁speak	-580
enn	-581
▁dist	-582
▁heart	-583
ried	-584
ither	-585
▁letter	-586
▁end	-587
▁pas	-588
▁giv	-589
▁set	-590
▁acqu	-591
▁gener	-592
▁done	-593
▁And	-594
▁come	-595
anne	-596
▁wom	-597
▁har	-598
▁indeed	-599
▁wr	-600
▁reg	-601
aught	-602
▁wish	-603
▁seemed	-604
ild	-605
▁They	-606
▁certain	-607
les	-608
▁add	-609
▁Marianne	-610
▁home	-611
ssible	-612
ber	-613
▁affect	-614
ull	-615
▁upon	-616
ations	-617
▁brother	-618
▁app	-619
most	-620
▁ass	-621
▁love	-622
▁feelings	-623
ish	-624
▁mor	-625
ately	-626
its	-627
ened	-628
▁hear	-629
▁still	-630
▁pr	-631
▁mat	-632
hen	-633
▁here	-634
▁present	-635
bt	-636
▁saw	-637
sh	-638
▁same	-639
body	-640
wards	-641
arly	-642
▁occ	-643
but	-644
ack	-645
▁inf	-646
▁dec	-647
▁happy	-648
▁came	-649
▁eng	-650
▁pleasure	-651
▁ser	-652
▁pe	-653
▁Anne	-654
gether	-655
▁word	-656
▁really	-657
hw	-658
night	-659
arriet	-660
ves	-661
▁found	-662
▁ri	-663
▁bec	-664
▁comm	-665
▁expect	-666
ined	-667
▁vis	-668
▁hour	-669
▁comfort	-670
haps	-671
ived	-672
▁our	-673
less	-674
▁Her	-675
ser	-676
▁something	-677
lic	-678
▁half	-679
▁ye	-680
ces	-681
▁less	-682
lied	-683
▁subject	-684
▁acquaint	-685
▁Harriet	-686
▁few	-687
▁down	-688
ield	-689
ince	-690
▁call	-691
▁while	-692
▁conf	-693
ract	-694
orr	-695
of	-696
▁heard	-697
ret	-698
▁Will	-699
▁till	-700
ten	-701
ause	-702
oubt	-703
▁West	-704
ider	-705
▁morning	-706
▁adv	-707
▁ey	-708
▁gl	-709
▁going	-710
ep	-711
rest	-712
▁almost	-713
arriage	-714
▁rather	-715
ably	-716
▁woman	-717
cept	-718
▁spir	-719
▁underst	-720
▁gent	-721
▁take	-722
▁where	-723
▁exc	-724
oy	-725
ety	-726
▁place	-727
ason	-728
▁inst	-729
▁myself	-730
!--	-731
▁unc	-732
os	-733
arm	-734
▁sur	-735
▁yet	-736
▁sec	-737
▁Weston	-738
▁tell	-739
▁satis	-740
▁particul	-741
nce	-742
▁world	-743
▁find	-744
▁rest	-745
vour	-746
▁adm	-747
▁ans	-748
▁another	-749
▁believe	-750
ign	-751
▁visit	-752
▁turn	-753
son	-754
▁hard	-755
oth	-756
new	-757
▁thr	-758
ark	-759
▁cl	-760
▁nat	-761
▁daught	-762
▁atte	-763
▁bet	-764
medi	-765
▁rece	-766
me	-767
ase	-768
field	-769
▁consider	-770
▁sit	-771
ctly	-772
▁obli	-773
air	-774
arcy	-775
▁together	-776
▁conc	-777
▁general	-778
▁immedi	-779
mund	-780
▁tak	-781
▁doubt	-782
unt	-783
inu	-784
▁left	-785
▁looked	-786
▁Edmund	-787
▁delight	-788
lton	-789
ition	-790
▁Elton	-791
▁perfect	-792
▁ask	-793
▁det	-794
▁does	-795
▁get	-796
▁chan	-797
▁opin	-798
▁cried	-799
▁conv	-800
▁since	-801
▁cour	-802
▁evening	-803
ern	-804
ered	-805
▁least	-806
▁object	-807
▁differe	-808
▁interest	-809
ained	-810
▁manner	-811
nightley	-812
▁count	-813
▁ill	-814
▁best	-815
▁gentle	-816
▁seen	-817
▁those	-818
▁affection	-819
ath	-820
▁inv	-821
▁whom	-822
▁continu	-823
ix	-824
ween	-825
▁read	-826
▁replied	-827
owed	-828
ney	-829
arry	-830
▁disc	-831
▁appear	-832
apt	-833
▁anything	-834
▁spo	-835
ility	-836
erm	-837
▁act	-838
▁obser	-839
▁perhaps	-840
▁ide	-841
▁fort	-842
ile	-843
▁min	-844
▁knew	-845
▁There	-846
▁child	-847
▁reason	-848
▁In	-849
▁tru	-850
▁both	-851
▁often	-852
▁between	-853
mer	-854
▁bl	-855
ense	-856
▁person	-857
▁happiness	-858
ople	-859
▁foll	-860
▁three	-861
▁once	-862
▁short	-863
ip	-864
har	-865
ins	-866
irl	-867
▁ke	-868
▁minut	-869
▁whole	-870
▁certainly	-871
ceed	-872
vers	-873
irc	-874
ised	-875
▁nor	-876
▁back	-877
▁surp	-878
du	-879
ught	-880
man	-881
▁girl	-882
▁lady	-883
▁right	-884
▁understand	-885
▁equ	-886
▁circ	-887
▁gone	-888
▁party	-889
▁people	-890
▁therefore	-891
rove	-892
▁life	-893
ff	-894
▁far	-895
▁new	-896
pos	-897
here	-898
▁dire	-899
▁tr	-900
▁el	-901
▁em	-902
ired	-903
▁ref	-904
▁compan	-905
land	-906
oice	-907
▁Hen	-908
▁care	-909
aptain	-910
▁ext	-911
▁told	-912
▁agree	-913
▁ought	-914
▁express	-915
urch	-916
house	-917
▁given	-918
ek	-919
▁opinion	-920
▁Ch	-921
▁side	-922
▁wond	-923
▁point	-924
use	-925
▁Thom	-926
▁spirits	-927
ap	-928
ited	-929
▁Thomas	-930
▁Wood	-931
▁possible	-932
▁dan	-933
▁respect	-934
pend	-935
ennet	-936
▁Bennet	-937
oh	-938
aut	-939
cess	-940
▁each	-941
▁others	-942
▁Captain	-943
▁This	-944
▁prev	-945
▁suppose	-946
▁acquaintance	-947
sel	-948
▁immediately	-949
ude	-950
▁friends	-951
ery	-952
iment	-953
▁hardly	-954
ger	-955
▁began	-956
ial	-957
▁next	-958
ram	-959
▁else	-960
▁sett	-961
ue	-962
▁co	-963
ower	-964
▁His	-965
▁prom	-966
lli	-967
▁meet	-968
day	-969
▁poor	-970
agement	-971
▁mis	-972
ohn	-973
▁known	-974
▁charact	-975
▁hands	-976
wer	-977
▁deal	-978
▁passed	-979
hes	-980
▁sil	-981
▁resol	-982
▁through	-983
▁towards	-984
▁favour	-985
▁hop	-986
▁old	-987
▁able	-988
▁aunt	-989
▁imag	-990
ingley	-991
ven	-992
▁opp	-993
▁eyes	-994
▁idea	-995
▁leave	-996
▁Bingley	-997
by	-998
▁We	-999
▁put	-1000
ished	-1001
▁Char	-1002
▁Woodhouse	-1003
for	-1004
olon	-1005
ertram	-1006
▁inter	-1007
▁account	-1008
▁pret	-1009
▁against	-1010
▁If	-1011
olonel	-1012
▁Bertram	-1013
▁sus	-1014
asion	-1015
▁week	-1016
▁these	-1017
▁answer	-1018
▁bus	-1019
▁str	-1020
▁sort	-1021
▁marry	-1022
▁che	-1023
▁jud	-1024
▁daughter	-1025
ner	-1026
selves	-1027
But	-1028
ove	-1029
▁gu	-1030
lliot	-1031
▁went	-1032
▁attention	-1033
ult	-1034
▁Elliot	-1035
▁coming	-1036
It	-1037
▁seeing	-1038
app	-1039
ighb	-1040
▁stay	-1041
itation	-1042
▁longer	-1043
ham	-1044
ided	-1045
▁gave	-1046
▁years	-1047
▁hon	-1048
▁rel	-1049
ingly	-1050
▁wonder	-1051
▁anx	-1052
▁door	-1053
▁situ	-1054
ollect	-1055
And	-1056
ashw	-1057
ashwood	-1058
▁cous	-1059
▁glad	-1060
▁circum	-1061
▁Colonel	-1062
▁brought	-1063
▁obliged	-1064
ient	-1065
▁pur	-1066
▁character	-1067
▁seem	-1068
▁either	-1069
▁How	-1070
▁What	-1071
▁char	-1072
▁compl	-1073
▁strong	-1074
▁Is	-1075
▁My	-1076
▁Church	-1077
ton	-1078
▁gra	-1079
▁use	-1080
▁open	-1081
▁sent	-1082
▁determ	-1083
▁circumst	-1084
riv	-1085
▁cond	-1086
▁pain	-1087
▁wife	-1088
▁course	-1089
▁Lu	-1090
▁surpr	-1091
be	-1092
▁small	-1093
omm	-1094
ates	-1095
ances	-1096
▁Edward	-1097
▁necess	-1098
▁everything	-1099
yond	-1100
itude	-1101
▁Henry	-1102
▁minutes	-1103
text	-1104
▁dre	-1105
▁tem	-1106
endof	-1107
▁list	-1108
endoftext	-1109
▁perfectly	-1110
arn	-1111
iam	-1112
iving	-1113
arried	-1114
ib	-1115
aged	-1116
▁sens	-1117
▁abs	-1118
▁eas	-1119
▁pass	-1120
▁convers	-1121
to	-1122
▁To	-1123
▁ra	-1124
▁mak	-1125
▁persu	-1126
nded	-1127
▁beyond	-1128
▁satisf	-1129
ully	-1130
▁body	-1131
▁matter	-1132
▁different	-1133
ren	-1134
▁jo	-1135
iting	-1136
▁beha	-1137
▁prob	-1138
▁head	-1139
ust	-1140
▁fl	-1141
▁est	-1142
posed	-1143
▁town	-1144
▁regard	-1145
▁aw	-1146
▁wa	-1147
▁din	-1148
worth	-1149
▁took	-1150
▁because	-1151
▁occasion	-1152
▁te	-1153
▁suff	-1154
dd	-1155
▁warm	-1156
▁means	-1157
mpt	-1158
▁diff	-1159
▁quest	-1160
▁whether	-1161
▁received	-1162
▁agreeable	-1163
▁situation	-1164
ager	-1165
eness	-1166
aim	-1167
--"	-1168
ting	-1169
▁let	-1170
▁feeling	-1171
une	-1172
▁All	-1173
▁When	-1174
▁impo	-1175
▁wished	-1176
▁business	-1177
ons	-1178
oint	-1179
▁Mary	-1180
▁natur	-1181
▁whose	-1182
▁talked	-1183
▁days	-1184
▁serv	-1185
▁beaut	-1186
▁disapp	-1187
▁added	-1188
▁yourself	-1189
?--	-1190
ans	-1191
iew	-1192
sequ	-1193
▁draw	-1194
▁power	-1195
▁attach	-1196
▁within	-1197
ilney	-1198
▁play	-1199
▁conversation	-1200
fax	-1201
ory	-1202
▁fan	-1203
airfax	-1204
▁Tilney	-1205
▁pretty	-1206
ross	-1207
▁remem	-1208
▁Churchill	-1209
rank	-1210
ondon	-1211
▁uncle	-1212
▁London	-1213
▁wanted	-1214
▁Ly	-1215
onth	-1216
adies	-1217
owing	-1218
▁begin	-1219
ennings	-1220
▁walked	-1221
▁'	-1222
err	-1223
▁carriage	-1224
ior	-1225
▁hel	-1226
▁mist	-1227
ured	-1228
ently	-1229
▁ladies	-1230
▁looking	-1231
▁manners	-1232
uct	-1233
uth	-1234
▁high	-1235
▁name	-1236
pl	-1237
▁hus	-1238
▁grat	-1239
▁spoke	-1240
▁taken	-1241
▁entire	-1242
cri	-1243
nding	-1244
▁called	-1245
▁concern	-1246
▁continued	-1247
ments	-1248
ating	-1249
▁conne	-1250
ella	-1251
ached	-1252
▁state	-1253
▁William	-1254
▁mention	-1255
▁marriage	-1256
▁As	-1257
▁among	-1258
▁themselves	-1259
ass	-1260
orry	-1261
▁returned	-1262
par	-1263
that	-1264
cious	-1265
▁near	-1266
▁ready	-1267
band	-1268
ship	-1269
ushw	-1270
▁dare	-1271
abella	-1272
▁voice	-1273
ushworth	-1274
▁distress	-1275
▁engagement	-1276
pose	-1277
▁hum	-1278
▁sorry	-1279
▁comple	-1280
cour	-1281
reet	-1282
▁eager	-1283
▁things	-1284
▁husband	-1285
▁gentleman	-1286
The	-1287
ready	-1288
▁Bath	-1289
▁fine	-1290
▁help	-1291
▁consequ	-1292
know	-1293
▁tri	-1294
ively	-1295
oughby	-1296
entworth	-1297
▁serious	-1298
▁children	-1299
▁determined	-1300
My	-1301
▁Willoughby	-1302
▁es	-1303
▁cle	-1304
ering	-1305
itting	-1306
▁Isabella	-1307
▁Wentworth	-1308
▁already	-1309
▁sisters	-1310
▁impossible	-1311
joy	-1312
▁advant	-1313
▁ins	-1314
▁view	-1315
lu	-1316
ute	-1317
▁settled	-1318
ched	-1319
cing	-1320
ston	-1321
▁fre	-1322
antly	-1323
▁enjoy	-1324
ference	-1325
▁difficul	-1326
▁entirely	-1327
ia	-1328
vi	-1329
;--	-1330
▁exa	-1331
ience	-1332
orris	-1333
▁change	-1334
▁saying	-1335
▁married	-1336
▁disappoint	-1337
uli	-1338
▁civ	-1339
▁usu	-1340
▁poss	-1341
▁real	-1342
▁self	-1343
arce	-1344
raid	-1345
▁bre	-1346
▁sense	-1347
▁words	-1348
iet	-1349
▁requ	-1350
▁night	-1351
▁country	-1352
iled	-1353
ledge	-1354
aid	-1355
▁doing	-1356
▁deg	-1357
▁son	-1358
▁appro	-1359
▁equal	-1360
▁afraid	-1361
vo	-1362
▁need	-1363
▁kindness	-1364
▁hor	-1365
▁yes	-1366
▁keep	-1367
▁honour	-1368
itted	-1369
▁full	-1370
▁month	-1371
▁proper	-1372
▁Sm	-1373
▁ef	-1374
orland	-1375
▁allow	-1376
▁appeared	-1377
▁satisfied	-1378
▁ten	-1379
▁bring	-1380
▁expected	-1381
▁ro	-1382
fter	-1383
▁accept	-1384
▁prevent	-1385
▁recollect	-1386
▁hur	-1387
▁ste	-1388
▁decl	-1389
▁talking	-1390
acy	-1391
▁men	-1392
▁met	-1393
▁depend	-1394
▁directly	-1395
up	-1396
like	-1397
▁lau	-1398
▁inqu	-1399
ickham	-1400
▁worth	-1401
▁assure	-1402
▁believed	-1403
▁thinking	-1404
ging	-1405
imes	-1406
▁giving	-1407
▁making	-1408
▁Charles	-1409
idd	-1410
▁St	-1411
▁air	-1412
▁expl	-1413
▁thank	-1414
▁common	-1415
▁fortune	-1416
▁afterwards	-1417
orrow	-1418
▁work	-1419
▁exactly	-1420
ken	-1421
atch	-1422
▁lar	-1423
▁That	-1424
▁likely	-1425
▁Wickham	-1426
▁attachment	-1427
orm	-1428
▁une	-1429
▁engaged	-1430
▁forward	-1431
fully	-1432
▁Smith	-1433
▁early	-1434
Well	-1435
cted	-1436
▁four	-1437
▁usual	-1438
▁turned	-1439
gu	-1440
▁Lucy	-1441
▁year	-1442
▁hours	-1443
▁super	-1444
▁cousin	-1445
▁former	-1446
▁pleased	-1447
▁anxious	-1448
▁handsome	-1449
▁particular	-1450
rant	-1451
▁Coll	-1452
▁forg	-1453
▁import	-1454
▁Collins	-1455
▁satisfa	-1456
▁Wh	-1457
▁dinner	-1458
rely	-1459
will	-1460
▁got	-1461
viour	-1462
▁fart	-1463
▁question	-1464
▁behaviour	-1465
aw	-1466
uri	-1467
▁Mans	-1468
▁bear	-1469
▁true	-1470
▁wind	-1471
arcely	-1472
▁conduct	-1473
He	-1474
▁ele	-1475
▁fix	-1476
▁try	-1477
▁alone	-1478
▁asked	-1479
▁company	-1480
▁neither	-1481
▁particularly	-1482
ury	-1483
iety	-1484
rand	-1485
▁convin	-1486
▁inclin	-1487
▁regret	-1488
ling	-1489
▁tend	-1490
▁used	-1491
▁natural	-1492
▁advantage	-1493
▁appearance	-1494
so	-1495
osed	-1496
▁Thor	-1497
▁nature	-1498
lay	-1499
come	-1500
▁bad	-1501
atter	-1502
▁acknow	-1503
▁Mansfield	-1504
ities	-1505
▁incre	-1506
ighbour	-1507
▁farther	-1508
▁neighbour	-1509
Mr	-1510
▁form	-1511
▁creat	-1512
▁dread	-1513
uch	-1514
used	-1515
▁Mus	-1516
▁aston	-1517
▁scarcely	-1518
▁five	-1519
▁fancy	-1520
▁degree	-1521
▁address	-1522
▁entered	-1523
alth	-1524
ures	-1525
range	-1526
▁Musg	-1527
▁repe	-1528
▁quiet	-1529
▁greater	-1530
▁sometimes	-1531
dia	-1532
▁smile	-1533
▁prop	-1534
▁hoped	-1535
▁attent	-1536
av	-1537
▁At	-1538
iece	-1539
▁evil	-1540
▁Lydia	-1541
▁cheer	-1542
▁encour	-1543
▁attempt	-1544
▁convinced	-1545
wise	-1546
▁soci	-1547
enance	-1548
▁speaking	-1549
▁swe	-1550
ified	-1551
▁With	-1552
▁cold	-1553
▁fear	-1554
▁admir	-1555
▁compliment	-1556
▁sto	-1557
ounds	-1558
uring	-1559
▁fond	-1560
▁conce	-1561
▁round	-1562
▁necessary	-1563
She	-1564
ool	-1565
the	-1566
rodu	-1567
well	-1568
▁cal	-1569
▁ord	-1570
ually	-1571
▁charm	-1572
▁intim	-1573
▁temper	-1574
▁consequence	-1575
aste	-1576
iddle	-1577
ident	-1578
usion	-1579
▁Hart	-1580
▁earn	-1581
▁break	-1582
▁extre	-1583
▁stand	-1584
▁second	-1585
oud	-1586
shire	-1587
▁case	-1588
▁prof	-1589
▁drawing	-1590
▁introdu	-1591
▁ball	-1592
idence	-1593
ott	-1594
position	-1595
▁Hartfield	-1596
erc	-1597
usse	-1598
▁fin	-1599
▁taste	-1600
▁remain	-1601
dden	-1602
▁lik	-1603
oured	-1604
▁Allen	-1605
▁assist	-1606
▁pleasant	-1607
▁supposed	-1608
ene	-1609
pic	-1610
▁sir	-1611
▁ende	-1612
▁truth	-1613
▁except	-1614
▁notice	-1615
enty	-1616
▁sho	-1617
iable	-1618
ouble	-1619
▁fair	-1620
▁After	-1621
▁meant	-1622
ishment	-1623
▁danger	-1624
▁surprise	-1625
ler	-1626
ying	-1627
▁val	-1628
▁const	-1629
▁indif	-1630
▁large	-1631
How	-1632
▁Bates	-1633
▁event	-1634
▁effect	-1635
▁recomm	-1636
▁imagine	-1637
▁society	-1638
▁superior	-1639
▁ce	-1640
ortun	-1641
▁curi	-1642
▁influ	-1643
▁extreme	-1644
,--	-1645
osity	-1646
ution	-1647
▁stru	-1648
▁produ	-1649
▁sudden	-1650
▁earnest	-1651
▁meeting	-1652
▁circumstances	-1653
ames	-1654
inci	-1655
▁eye	-1656
alter	-1657
ising	-1658
▁taking	-1659
▁pi	-1660
cell	-1661
iles	-1662
▁pra	-1663
▁face	-1664
ession	-1665
▁Maria	-1666
▁occur	-1667
▁quick	-1668
▁months	-1669
▁thoughts	-1670
▁recommend	-1671
bert	-1672
over	-1673
▁emp	-1674
▁mod	-1675
ussell	-1676
▁spite	-1677
▁satisfaction	-1678
What	-1679
gment	-1680
▁nobody	-1681
▁remember	-1682
▁sim	-1683
▁table	-1684
▁write	-1685
▁walking	-1686
▁complete	-1687
▁greatest	-1688
▁knowledge	-1689
▁countenance	-1690
rie	-1691
▁def	-1692
▁refle	-1693
▁Morland	-1694
▁servant	-1695
▁sitting	-1696
▁opportun	-1697
▁probably	-1698
▁bo	-1699
ased	-1700
▁dut	-1701
▁remo	-1702
randon	-1703
▁claim	-1704
▁beginning	-1705
eng	-1706
ual	-1707
▁alarm	-1708
▁princi	-1709
▁Brandon	-1710
▁hearing	-1711
wh	-1712
oun	-1713
▁news	-1714
▁sweet	-1715
▁wrong	-1716
no	-1717
▁Thorpe	-1718
▁unp	-1719
▁deser	-1720
▁allowed	-1721
▁proceed	-1722
mb	-1723
arr	-1724
aded	-1725
▁lea	-1726
▁eleg	-1727
ousand	-1728
▁excell	-1729
▁listen	-1730
▁silence	-1731
▁thousand	-1732
gg	-1733
▁dress	-1734
▁impro	-1735
▁Street	-1736
▁Walter	-1737
▁beauty	-1738
▁decided	-1739
▁followed	-1740
loy	-1741
rice	-1742
fered	-1743
▁live	-1744
▁wishes	-1745
▁acquainted	-1746
amp	-1747
men	-1748
ulia	-1749
▁descri	-1750
▁slight	-1751
ub	-1752
▁avo	-1753
▁why	-1754
▁quar	-1755
▁trouble	-1756
▁delighted	-1757
rud	-1758
ific	-1759
▁Sus	-1760
▁plac	-1761
▁forget	-1762
▁tender	-1763
▁purpose	-1764
▁cheerful	-1765
oor	-1766
val	-1767
aken	-1768
hood	-1769
wered	-1770
▁book	-1771
▁easy	-1772
▁hast	-1773
idered	-1774
▁Susan	-1775
ibility	-1776
▁everybody	-1777
outh	-1778
olute	-1779
▁sight	-1780
▁window	-1781
▁suspect	-1782
▁curiosity	-1783
▁considered	-1784
▁difference	-1785
▁opportunity	-1786
gr	-1787
▁ago	-1788
▁worse	-1789
▁employ	-1790
▁inform	-1791
▁living	-1792
▁comfortable	-1793
ray	-1794
ages	-1795
▁dri	-1796
iling	-1797
▁Every	-1798
ination	-1799
▁inquir	-1800
▁Musgrove	-1801
▁answered	-1802
ead	-1803
res	-1804
ted	-1805
uck	-1806
fast	-1807
unic	-1808
▁cap	-1809
▁eld	-1810
redit	-1811
▁late	-1812
errars	-1813
▁perce	-1814
▁silent	-1815
▁communic	-1816
▁sensible	-1817
▁delightful	-1818
ief	-1819
▁hab	-1820
▁par	-1821
rance	-1822
rival	-1823
▁sake	-1824
▁sche	-1825
morrow	-1826
▁aware	-1827
▁trust	-1828
▁arrival	-1829
▁equally	-1830
▁whatever	-1831
▁daughters	-1832
▁fell	-1833
▁priv	-1834
▁tran	-1835
▁contr	-1836
▁looks	-1837
▁times	-1838
▁health	-1839
▁intell	-1840
▁creature	-1841
▁instantly	-1842
▁cor	-1843
aring	-1844
rived	-1845
▁fore	-1846
ctions	-1847
othing	-1848
▁dance	-1849
▁praise	-1850
▁companion	-1851
▁influence	-1852
▁mer	-1853
▁mus	-1854
tered	-1855
▁plan	-1856
▁pros	-1857
▁concl	-1858
▁indul	-1859
▁loved	-1860
▁repeated	-1861
▁admiration	-1862
▁disposition	-1863
▁So	-1864
▁ve	-1865
▁sum	-1866
▁jour	-1867
▁past	-1868
▁accom	-1869
▁girls	-1870
▁laugh	-1871
▁remark	-1872
▁amiable	-1873
▁resolved	-1874
ili	-1875
alls	-1876
▁joy	-1877
▁mot	-1878
arest	-1879
▁safe	-1880
▁fixed	-1881
▁spent	-1882
▁exceed	-1883
▁observ	-1884
▁remained	-1885
▁invitation	-1886
▁circumstance	-1887
ony	-1888
ote	-1889
▁toler	-1890
▁conscious	-1891
▁extremely	-1892
If	-1893
nde	-1894
▁pay	-1895
▁excl	-1896
▁lost	-1897
▁Their	-1898
▁light	-1899
▁Middle	-1900
▁Middleton	-1901
gy	-1902
she	-1903
oney	-1904
▁inj	-1905
never	-1906
▁became	-1907
▁credit	-1908
ses	-1909
▁sy	-1910
ides	-1911
sured	-1912
▁grie	-1913
▁anybody	-1914
▁absolute	-1915
▁understanding	-1916
Th	-1917
That	-1918
ouis	-1919
▁Long	-1920
▁hint	-1921
▁match	-1922
ighbury	-1923
▁knowing	-1924
▁judgment	-1925
▁observed	-1926
▁acknowled	-1927
▁beh	-1928
ouisa	-1929
▁happened	-1930
abl	-1931
pped	-1932
inary	-1933
▁shew	-1934
icient	-1935
▁desire	-1936
▁merely	-1937
▁spoken	-1938
▁entreat	-1939
▁letters	-1940
▁intellig	-1941
▁breakfast	-1942
▁excellent	-1943
▁persuaded	-1944
you	-1945
▁pa	-1946
▁ut	-1947
peci	-1948
▁stri	-1949
▁delic	-1950
▁pride	-1951
▁relie	-1952
▁seems	-1953
▁weeks	-1954
▁Louisa	-1955
▁spirit	-1956
▁journey	-1957
▁Highbury	-1958
▁difficult	-1959
▁gratitude	-1960
▁ir	-1961
rupt	-1962
▁ran	-1963
▁var	-1964
right	-1965
▁amuse	-1966
▁inclination	-1967
lot	-1968
▁six	-1969
arent	-1970
where	-1971
▁Such	-1972
▁exert	-1973
▁tried	-1974
▁easily	-1975
pecially	-1976
gin	-1977
▁Ad	-1978
angu	-1979
hens	-1980
iful	-1981
▁sty	-1982
avour	-1983
iction	-1984
rehens	-1985
▁fault	-1986
▁hopes	-1987
▁attentions	-1988
▁mo	-1989
▁low	-1990
▁join	-1991
▁kept	-1992
▁spee	-1993
▁money	-1994
▁repro	-1995
▁forgot	-1996
▁absence	-1997
▁leaving	-1998
▁meaning	-1999
▁surprised	-2000
ency	-2001
fair	-2002
▁wel	-2003
lotte	-2004
▁calm	-2005
▁fall	-2006
▁avoid	-2007
▁highly	-2008
▁support	-2009
▁Charlotte	-2010
▁mentioned	-2011
rew	-2012
▁Co	-2013
king	-2014
▁Har	-2015
▁tre	-2016
▁vain	-2017
orough	-2018
▁extra	-2019
▁frequ	-2020
▁suspic	-2021
▁mistaken	-2022
▁endeavour	-2023
▁ma	-2024
bour	-2025
▁bel	-2026
▁pat	-2027
▁pol	-2028
▁sing	-2029
▁style	-2030
▁behind	-2031
▁weather	-2032
▁esc	-2033
▁tra	-2034
▁duty	-2035
▁delay	-2036
▁share	-2037
▁struck	-2038
▁instead	-2039
▁enjoyment	-2040
▁also	-2041
▁none	-2042
▁impat	-2043
▁solic	-2044
▁women	-2045
▁favourite	-2046
▁friendship	-2047
▁disappointment	-2048
ors	-2049
▁fut	-2050
▁Mart	-2051
▁incon	-2052
▁offer	-2053
▁chance	-2054
▁assured	-2055
▁especially	-2056
▁age	-2057
▁emb	-2058
aster	-2059
reder	-2060
▁leng	-2061
▁loss	-2062
▁mort	-2063
▁pres	-2064
▁close	-2065
▁plain	-2066
▁reply	-2067
retched	-2068
▁afford	-2069
▁future	-2070
▁improve	-2071
▁conviction	-2072
▁resolution	-2073
old	-2074
what	-2075
hamed	-2076
unate	-2077
▁tone	-2078
▁lived	-2079
▁attend	-2080
ph	-2081
look	-2082
rehe	-2083
▁dep	-2084
▁run	-2085
▁vex	-2086
▁judge	-2087
▁separ	-2088
▁information	-2089
.'	-2090
▁bu	-2091
edly	-2092
▁ang	-2093
▁led	-2094
ardin	-2095
▁luck	-2096
▁wait	-2097
ottage	-2098
▁desir	-2099
▁watch	-2100
▁trying	-2101
▁cousins	-2102
▁finding	-2103
▁sentiment	-2104
▁aff	-2105
▁disp	-2106
▁ease	-2107
▁thus	-2108
▁above	-2109
▁treat	-2110
▁ashamed	-2111
▁conceal	-2112
▁reached	-2113
▁smallest	-2114
▁gentlemen	-2115
▁otherwise	-2116
▁exceedingly	-2117
mir	-2118
sit	-2119
happ	-2120
▁neg	-2121
▁suc	-2122
▁tea	-2123
▁hurry	-2124
▁forced	-2125
▁anxiety	-2126
▁succeed	-2127
▁confidence	-2128
▁understood	-2129
reed	-2130
▁clo	-2131
miral	-2132
▁exam	-2133
▁fact	-2134
▁chief	-2135
▁horse	-2136
▁niece	-2137
▁affair	-2138
▁dancing	-2139
▁distance	-2140
▁listened	-2141
▁interesting	-2142
We	-2143
ash	-2144
▁ed	-2145
▁ur	-2146
airs	-2147
ring	-2148
▁bed	-2149
▁says	-2150
▁thir	-2151
▁civil	-2152
▁press	-2153
▁yester	-2154
▁Admiral	-2155
▁agitation	-2156
▁consideration	-2157
uc	-2158
There	-2159
arted	-2160
ccess	-2161
itten	-2162
▁deep	-2163
▁stre	-2164
erhaps	-2165
licity	-2166
▁bless	-2167
▁occup	-2168
▁joined	-2169
▁promise	-2170
▁charming	-2171
▁marrying	-2172
▁thorough	-2173
▁yesterday	-2174
▁difficulty	-2175
nat	-2176
row	-2177
ives	-2178
urst	-2179
xion	-2180
▁art	-2181
anity	-2182
▁Here	-2183
▁blus	-2184
▁dece	-2185
▁angry	-2186
ability	-2187
▁itself	-2188
▁useful	-2189
together	-2190
▁turning	-2191
▁waiting	-2192
▁civility	-2193
▁promised	-2194
▁wretched	-2195
▁generally	-2196
▁absolutely	-2197
▁importance	-2198
eal	-2199
ont	-2200
vill	-2201
ndeed	-2202
▁Bart	-2203
▁mine	-2204
▁prep	-2205
▁cause	-2206
▁music	-2207
▁proof	-2208
ardiner	-2209
▁scheme	-2210
▁wishing	-2211
▁neighbourhood	-2212
com	-2213
ify	-2214
This	-2215
cked	-2216
▁bro	-2217
▁Well	-2218
▁pity	-2219
▁send	-2220
bation	-2221
erable	-2222
▁disag	-2223
▁resent	-2224
▁twenty	-2225
▁unhapp	-2226
▁Harvill	-2227
▁attended	-2228
▁altogether	-2229
uded	-2230
onage	-2231
▁miles	-2232
▁eldest	-2233
▁arrived	-2234
▁wanting	-2235
▁written	-2236
▁disposed	-2237
▁prospect	-2238
▁Tom	-2239
▁den	-2240
▁disg	-2241
▁Martin	-2242
▁perfor	-2243
▁justice	-2244
▁disagree	-2245
▁pleasing	-2246
▁whenever	-2247
▁affectionate	-2248
bed	-2249
▁Li	-2250
▁div	-2251
▁bene	-2252
▁rememb	-2253
▁confess	-2254
▁consent	-2255
▁dearest	-2256
▁intended	-2257
▁occurred	-2258
cas	-2259
ear	-2260
▁boy	-2261
▁rid	-2262
▁suf	-2263
▁tot	-2264
▁wit	-2265
▁fire	-2266
▁pict	-2267
▁guess	-2268
▁oppos	-2269
▁Barton	-2270
▁belong	-2271
▁excess	-2272
▁length	-2273
▁please	-2274
▁pounds	-2275
lly	-2276
▁arm	-2277
▁cur	-2278
bourn	-2279
▁term	-2280
▁grave	-2281
▁pause	-2282
▁excuse	-2283
▁secret	-2284
▁suffer	-2285
▁Longbourn	-2286
▁expressed	-2287
ett	-2288
▁ru	-2289
bell	-2290
▁Had	-2291
▁due	-2292
inter	-2293
▁vent	-2294
itable	-2295
▁during	-2296
▁collect	-2297
▁command	-2298
▁success	-2299
Wh	-2300
wick	-2301
▁ear	-2302
▁pub	-2303
▁sad	-2304
▁anim	-2305
▁lead	-2306
▁pref	-2307
▁happi	-2308
▁learn	-2309
andalls	-2310
▁admire	-2311
▁formed	-2312
▁latter	-2313
▁quarter	-2314
▁receive	-2315
▁welcome	-2316
▁fortnight	-2317
▁expectation	-2318
orn	-2319
ows	-2320
ingu	-2321
ison	-2322
lean	-2323
▁ign	-2324
▁wat	-2325
▁card	-2326
▁ignor	-2327
▁offic	-2328
▁misery	-2329
arsonage	-2330
▁comprehe	-2331
▁independ	-2332
ibly	-2333
mber	-2334
semb	-2335
▁gall	-2336
▁hold	-2337
▁subm	-2338
aining	-2339
ateful	-2340
resent	-2341
▁Lucas	-2342
▁caught	-2343
▁compar	-2344
▁strange	-2345
▁attached	-2346
▁produced	-2347
▁immediate	-2348
ich	-2349
erry	-2350
roft	-2351
▁bes	-2352
▁hig	-2353
ament	-2354
mouth	-2355
riety	-2356
▁trif	-2357
▁assur	-2358
▁regul	-2359
▁sever	-2360
▁tempt	-2361
▁uneas	-2362
▁choice	-2363
▁prepar	-2364
▁streng	-2365
ordinary	-2366
▁interrupt	-2367
▁necessity	-2368
▁indifference	-2369
▁vi	-2370
▁ama	-2371
▁odd	-2372
▁rej	-2373
▁vol	-2374
▁Camp	-2375
▁educ	-2376
▁Croft	-2377
▁langu	-2378
▁value	-2379
▁income	-2380
▁speech	-2381
▁cottage	-2382
▁service	-2383
▁Campbell	-2384
▁objection	-2385
▁prevented	-2386
▁particulars	-2387
▁astonishment	-2388
iod	-2389
irt	-2390
law	-2391
arer	-2392
polo	-2393
▁seat	-2394
iously	-2395
▁knows	-2396
▁mater	-2397
▁pursu	-2398
▁agreed	-2399
▁fright	-2400
▁period	-2401
▁proved	-2402
▁reading	-2403
▁following	-2404
▁relations	-2405
▁observation	-2406
▁consciousness	-2407
▁extraordinary	-2408
pon	-2409
elly	-2410
iced	-2411
▁col	-2412
▁hers	-2413
▁miss	-2414
▁note	-2415
▁scru	-2416
leanor	-2417
▁comes	-2418
▁instru	-2419
▁minute	-2420
▁exclaim	-2421
▁dreadful	-2422
▁persuade	-2423
▁acknowledged	-2424
mp	-2425
how	-2426
vey	-2427
hill	-2428
▁Let	-2429
ardon	-2430
▁prot	-2431
▁rich	-2432
assion	-2433
▁alter	-2434
▁apolo	-2435
▁conte	-2436
▁explan	-2437
▁writing	-2438
▁inconven	-2439
▁suffered	-2440
▁beautiful	-2441
▁returning	-2442
,'	-2443
▁fo	-2444
itty	-2445
▁num	-2446
▁sol	-2447
isure	-2448
undred	-2449
▁famili	-2450
▁horses	-2451
▁public	-2452
▁Eleanor	-2453
▁arrange	-2454
▁getting	-2455
▁leisure	-2456
teen	-2457
▁Eng	-2458
almer	-2459
pperc	-2460
▁prov	-2461
ission	-2462
▁eight	-2463
▁folly	-2464
▁happen	-2465
▁simple	-2466
▁capable	-2467
▁hundred	-2468
▁moments	-2469
▁partial	-2470
▁princip	-2471
▁staying	-2472
ppercross	-2473
▁concerned	-2474
▁expression	-2475
▁sl	-2476
▁pec	-2477
ative	-2478
ggest	-2479
▁soft	-2480
▁fears	-2481
▁liked	-2482
▁stood	-2483
▁terms	-2484
▁consol	-2485
▁design	-2486
▁secure	-2487
▁smiling	-2488
▁suggest	-2489
▁important	-2490
▁compassion	-2491
▁completely	-2492
▁intelligence	-2493
atul	-2494
ples	-2495
posal	-2496
▁viol	-2497
gratul	-2498
▁tears	-2499
▁yours	-2500
▁advice	-2501
▁lately	-2502
▁vanity	-2503
▁dislike	-2504
▁Harville	-2505
▁distingu	-2506
▁required	-2507
▁amusement	-2508
▁entertain	-2509
▁sufficient	-2510
To	-2511
eper	-2512
etta	-2513
asing	-2514
otion	-2515
▁auth	-2516
▁meas	-2517
▁whis	-2518
aching	-2519
ealous	-2520
rietta	-2521
▁fresh	-2522
▁spend	-2523
▁establ	-2524
▁nearly	-2525
▁placed	-2526
▁surpri	-2527
▁unwill	-2528
▁calling	-2529
▁painful	-2530
▁unhappy	-2531
▁intimacy	-2532
▁Henrietta	-2533
▁forgotten	-2534
▁receiving	-2535
▁represent	-2536
▁suffering	-2537
nch	-2538
ether	-2539
▁caut	-2540
▁seve	-2541
itated	-2542
▁death	-2543
▁infer	-2544
▁reser	-2545
▁fellow	-2546
▁several	-2547
▁actually	-2548
▁ladyship	-2549
etherfield	-2550
▁congratul	-2551
▁respectable	-2552
▁difficulties	-2553
▁disappointed	-2554
▁encouragement	-2555
bey	-2556
ches	-2557
elve	-2558
ergy	-2559
▁ine	-2560
▁sun	-2561
ision	-2562
obert	-2563
▁park	-2564
▁road	-2565
ferent	-2566
▁makes	-2567
▁sound	-2568
▁trave	-2569
▁wrote	-2570
ellynch	-2571
▁author	-2572
▁clever	-2573
▁embarr	-2574
▁lively	-2575
▁opened	-2576
▁parted	-2577
▁accompl	-2578
▁besides	-2579
▁flatter	-2580
▁parties	-2581
▁selfish	-2582
▁declared	-2583
▁standing	-2584
▁considering	-2585
rawn	-2586
ster	-2587
▁Ste	-2588
▁ann	-2589
▁fat	-2590
ality	-2591
ember	-2592
gence	-2593
▁dest	-2594
▁furn	-2595
▁indu	-2596
▁lear	-2597
▁post	-2598
▁valu	-2599
overed	-2600
▁catch	-2601
▁clear	-2602
▁habit	-2603
▁preva	-2604
▁claims	-2605
▁ground	-2606
▁humour	-2607
▁winter	-2608
▁constant	-2609
▁delicacy	-2610
▁increased	-2611
▁reasonable	-2612
▁reflection	-2613
▁indifferent	-2614
avy	-2615
hum	-2616
rim	-2617
▁Ben	-2618
omest	-2619
ption	-2620
using	-2621
▁gard	-2622
▁harm	-2623
▁sole	-2624
Indeed	-2625
▁carry	-2626
▁rooms	-2627
▁tired	-2628
▁peculi	-2629
▁wholly	-2630
▁Benwick	-2631
▁declare	-2632
▁observe	-2633
▁passing	-2634
▁unpleas	-2635
▁education	-2636
ug	-2637
▁By	-2638
▁mad	-2639
▁pen	-2640
arily	-2641
esday	-2642
▁dine	-2643
▁drew	-2644
▁lose	-2645
▁nice	-2646
▁ideas	-2647
▁views	-2648
▁libert	-2649
▁smiled	-2650
▁tranqu	-2651
▁twelve	-2652
▁unfort	-2653
ification	-2654
▁addition	-2655
▁disagreeable	-2656
Ah	-2657
orts	-2658
▁cou	-2659
aging	-2660
▁Stee	-2661
▁horr	-2662
▁sign	-2663
posure	-2664
▁cross	-2665
▁exerc	-2666
ception	-2667
▁acting	-2668
▁become	-2669
▁convey	-2670
▁master	-2671
▁prefer	-2672
▁suppos	-2673
▁private	-2674
▁thoroughly	-2675
ey	-2676
ape	-2677
cho	-2678
▁Be	-2679
ines	-2680
lace	-2681
▁Clay	-2682
▁Lyme	-2683
▁este	-2684
▁fool	-2685
▁sick	-2686
▁summer	-2687
▁content	-2688
▁elegant	-2689
▁picture	-2690
▁affected	-2691
▁prepared	-2692
▁solicitude	-2693
▁recollection	-2694
ald	-2695
ilt	-2696
▁bar	-2697
▁dev	-2698
ribut	-2699
▁proc	-2700
▁polit	-2701
▁eagerly	-2702
▁impress	-2703
▁invited	-2704
▁partner	-2705
▁naturally	-2706
▁suspicion	-2707
▁introduced	-2708
▁tenderness	-2709
▁explanation	-2710
▁considerable	-2711
odd	-2712
Miss	-2713
race	-2714
some	-2715
▁Why	-2716
inite	-2717
▁desp	-2718
▁foot	-2719
▁rain	-2720
▁shame	-2721
looking	-2722
▁estate	-2723
▁ration	-2724
▁relief	-2725
▁warmth	-2726
▁greatly	-2727
▁younger	-2728
▁grateful	-2729
▁ga	-2730
rist	-2731
▁fif	-2732
▁sle	-2733
ously	-2734
▁mark	-2735
▁unex	-2736
▁unre	-2737
▁negle	-2738
▁scene	-2739
▁conven	-2740
▁distin	-2741
▁thrown	-2742
▁warmly	-2743
▁matters	-2744
▁profess	-2745
▁removed	-2746
▁stopped	-2747
▁elegance	-2748
▁felicity	-2749
▁obliging	-2750
▁opinions	-2751
▁strength	-2752
▁attending	-2753
▁impatient	-2754
▁ourselves	-2755
▁proceeded	-2756
▁unwilling	-2757
▁favourable	-2758
ian	-2759
lan	-2760
not	-2761
ancy	-2762
crif	-2763
ghed	-2764
lour	-2765
ruel	-2766
▁fur	-2767
▁lay	-2768
▁paid	-2769
▁sigh	-2770
▁begun	-2771
▁exist	-2772
▁peace	-2773
▁accord	-2774
▁feared	-2775
▁sacrif	-2776
▁sooner	-2777
▁consult	-2778
▁laughed	-2779
▁likewise	-2780
▁servants	-2781
▁suddenly	-2782
▁seriously	-2783
▁astonished	-2784
▁unpleasant	-2785
▁possibility	-2786
lock	-2787
▁cut	-2788
▁rap	-2789
▁rev	-2790
▁sou	-2791
▁unf	-2792
▁suit	-2793
▁books	-2794
▁chair	-2795
▁earli	-2796
▁proud	-2797
▁restr	-2798
▁youth	-2799
▁couple	-2800
▁single	-2801
▁evident	-2802
▁jealous	-2803
▁totally	-2804
▁exercise	-2805
▁inferior	-2806
▁properly	-2807
▁desirable	-2808
▁miserable	-2809
cul	-2810
▁Ab	-2811
read	-2812
▁bit	-2813
▁Cole	-2814
▁fast	-2815
▁hist	-2816
▁move	-2817
ashion	-2818
ishing	-2819
▁becom	-2820
▁blame	-2821
▁blind	-2822
▁fatig	-2823
▁fully	-2824
▁guard	-2825
▁story	-2826
▁offend	-2827
▁street	-2828
▁conject	-2829
▁further	-2830
▁liberty	-2831
▁request	-2832
rehension	-2833
▁bringing	-2834
▁displeas	-2835
▁intimate	-2836
▁proposal	-2837
▁earnestly	-2838
▁profession	-2839
phe	-2840
uss	-2841
▁fit	-2842
▁ner	-2843
ining	-2844
▁dign	-2845
▁line	-2846
ifying	-2847
▁along	-2848
▁drive	-2849
▁imprud	-2850
▁parent	-2851
▁inquiry	-2852
▁accepted	-2853
▁infinite	-2854
▁confusion	-2855
▁assistance	-2856
▁comprehend	-2857
▁improvement	-2858
ns	-2859
ica	-2860
egin	-2861
ises	-2862
with	-2863
▁mut	-2864
▁tou	-2865
enced	-2866
owers	-2867
there	-2868
▁choo	-2869
▁pray	-2870
▁vill	-2871
▁weak	-2872
oddard	-2873
▁burst	-2874
▁doors	-2875
▁drawn	-2876
▁invol	-2877
eginald	-2878
▁dining	-2879
▁thinks	-2880
▁utmost	-2881
▁perform	-2882
▁observing	-2883
▁tolerably	-2884
▁imagination	-2885
lor	-2886
illy	-2887
▁awk	-2888
▁sch	-2889
choly	-2890
▁Lord	-2891
▁cord	-2892
▁apart	-2893
▁ended	-2894
▁grand	-2895
▁melan	-2896
▁order	-2897
▁paper	-2898
▁trans	-2899
▁twice	-2900
ilities	-2901
▁charge	-2902
▁confir	-2903
▁severe	-2904
▁spring	-2905
rederica	-2906
▁awkward	-2907
▁opening	-2908
▁parting	-2909
▁removal	-2910
▁travell	-2911
▁material	-2912
▁subjects	-2913
▁composure	-2914
▁propriety	-2915
▁melancholy	-2916
▁acknowledge	-2917
▁approbation	-2918
▁probability	-2919
een	-2920
lig	-2921
pan	-2922
▁id	-2923
loom	-2924
▁dem	-2925
▁med	-2926
▁pun	-2927
▁Mery	-2928
▁coun	-2929
▁mere	-2930
▁mess	-2931
▁pract	-2932
▁colour	-2933
▁escape	-2934
▁follow	-2935
▁supply	-2936
▁England	-2937
▁Meryton	-2938
▁gallant	-2939
▁instant	-2940
▁telling	-2941
▁admitted	-2942
▁contrary	-2943
▁exertion	-2944
▁mistress	-2945
▁intention	-2946
▁connection	-2947
▁resentment	-2948
de	-2949
inc	-2950
jud	-2951
wel	-2952
phew	-2953
▁fig	-2954
▁mem	-2955
cking	-2956
▁grad	-2957
▁shut	-2958
leness	-2959
ounded	-2960
▁trium	-2961
▁around	-2962
▁gained	-2963
▁indign	-2964
▁motive	-2965
▁nephew	-2966
▁resist	-2967
▁deserve	-2968
▁imagined	-2969
▁increase	-2970
▁language	-2971
▁overcome	-2972
▁interested	-2973
▁consolation	-2974
So	-2975
ips	-2976
▁feat	-2977
▁wild	-2978
ortion	-2979
ressed	-2980
▁merit	-2981
▁prete	-2982
▁rapid	-2983
▁renew	-2984
onsense	-2985
▁absent	-2986
▁consci	-2987
▁glance	-2988
▁settle	-2989
▁sorrow	-2990
▁houseke	-2991
▁satisfy	-2992
▁willing	-2993
▁entrance	-2994
▁exclaimed	-2995
▁listening	-2996
▁comparison	-2997
▁frequently	-2998
▁politeness	-2999
br	-3000
rem	-3001
They	-3002
aven	-3003
erty	-3004
ldom	-3005
▁nur	-3006
▁pit	-3007
alent	-3008
overy	-3009
▁grew	-3010
▁hero	-3011
▁rend	-3012
▁soul	-3013
▁While	-3014
▁gover	-3015
▁indis	-3016
▁liber	-3017
▁spare	-3018
omestic	-3019
▁circle	-3020
▁clergy	-3021
▁height	-3022
▁pardon	-3023
otherton	-3024
▁admired	-3025
▁emotion	-3026
▁expense	-3027
▁growing	-3028
▁mistake	-3029
▁readily	-3030
▁whisper	-3031
▁property	-3032
▁suspected	-3033
▁indulgence	-3034
▁compliments	-3035
con	-3036
ants	-3037
ical	-3038
▁dro	-3039
rigin	-3040
▁Then	-3041
▁spot	-3042
▁stup	-3043
▁dared	-3044
▁lines	-3045
▁stran	-3046
▁theat	-3047
idently	-3048
▁closed	-3049
▁intent	-3050
▁seated	-3051
▁steady	-3052
emberley	-3053
▁carried	-3054
▁fashion	-3055
▁history	-3056
▁domestic	-3057
▁laughing	-3058
▁proposed	-3059
▁reproach	-3060
▁Sotherton	-3061
▁assurance	-3062
▁connected	-3063
▁fortunate	-3064
▁questions	-3065
▁supposing	-3066
▁instrument	-3067
▁sentiments	-3068
Is	-3069
mas	-3070
ume	-3071
hank	-3072
hest	-3073
inte	-3074
pond	-3075
▁Bet	-3076
▁Tay	-3077
▁err	-3078
ommod	-3079
▁free	-3080
▁hair	-3081
stairs	-3082
▁posit	-3083
▁provo	-3084
▁reach	-3085
▁third	-3086
▁esteem	-3087
▁garden	-3088
▁honest	-3089
▁modest	-3090
▁origin	-3091
▁raised	-3092
▁result	-3093
▁seldom	-3094
▁offered	-3095
▁recover	-3096
▁accompan	-3097
▁inclined	-3098
▁possibly	-3099
▁eagerness	-3100
▁inquiries	-3101
▁principal	-3102
▁tolerable	-3103
▁inconvenience	-3104
ec	-3105
apa	-3106
ric	-3107
▁sk	-3108
rown	-3109
▁enc	-3110
▁irr	-3111
which	-3112
▁step	-3113
▁Could	-3114
▁These	-3115
▁blush	-3116
▁madam	-3117
▁speed	-3118
▁wants	-3119
▁worst	-3120
▁Christ	-3121
▁Taylor	-3122
▁asking	-3123
▁direct	-3124
▁number	-3125
▁unable	-3126
▁discour	-3127
▁discuss	-3128
▁hurried	-3129
▁protest	-3130
▁village	-3131
▁accident	-3132
▁frequent	-3133
▁friendly	-3134
▁embarrass	-3135
▁succeeded	-3136
▁cheerfulness	-3137
▁communication	-3138
tw	-3139
ye	-3140
Why	-3141
ang	-3142
den	-3143
onc	-3144
tic	-3145
rink	-3146
▁eat	-3147
▁fal	-3148
▁sea	-3149
ernon	-3150
▁stud	-3151
▁admit	-3152
▁cruel	-3153
▁enter	-3154
▁heavy	-3155
▁moved	-3156
▁perse	-3157
▁prove	-3158
▁Though	-3159
▁lament	-3160
▁powers	-3161
▁report	-3162
▁smiles	-3163
▁stupid	-3164
oubtedly	-3165
▁courage	-3166
▁agitated	-3167
▁apparent	-3168
▁gratified	-3169
▁perceived	-3170
▁affections	-3171
▁employment	-3172
▁sensations	-3173
▁arrangement	-3174
;"	-3175
mn	-3176
sing	-3177
ences	-3178
▁hall	-3179
▁prud	-3180
▁rank	-3181
▁rate	-3182
▁shru	-3183
▁sour	-3184
osings	-3185
▁arran	-3186
▁chose	-3187
▁piece	-3188
▁seven	-3189
▁start	-3190
▁ceased	-3191
▁church	-3192
▁figure	-3193
▁preser	-3194
▁quarre	-3195
▁solemn	-3196
▁unless	-3197
▁illness	-3198
▁regular	-3199
▁restore	-3200
▁witness	-3201
▁heartily	-3202
▁improved	-3203
▁interval	-3204
▁occupied	-3205
▁rational	-3206
▁evidently	-3207
▁tranquill	-3208
▁complexion	-3209
▁description	-3210
▁excessively	-3211
do	-3212
Mrs	-3213
ano	-3214
cied	-3215
etch	-3216
just	-3217
kind	-3218
oted	-3219
ially	-3220
iding	-3221
iture	-3222
▁busy	-3223
▁gown	-3224
▁sink	-3225
▁unne	-3226
▁anger	-3227
▁false	-3228
▁human	-3229
▁bright	-3230
▁corres	-3231
▁habits	-3232
▁kindly	-3233
▁learnt	-3234
▁orders	-3235
▁spared	-3236
▁talent	-3237
▁volunt	-3238
▁fancied	-3239
▁quietly	-3240
▁quitted	-3241
▁perceive	-3242
▁probable	-3243
▁unnecess	-3244
▁direction	-3245
▁remaining	-3246
▁conscience	-3247
set	-3248
cies	-3249
ices	-3250
orne	-3251
osen	-3252
vous	-3253
▁env	-3254
▁obt	-3255
▁saf	-3256
clock	-3257
ening	-3258
gress	-3259
▁dark	-3260
▁deli	-3261
▁diss	-3262
▁fill	-3263
▁hill	-3264
▁narr	-3265
▁rejo	-3266
▁wood	-3267
onwell	-3268
ounced	-3269
▁benef	-3270
▁forth	-3271
▁hesit	-3272
▁piano	-3273
▁truly	-3274
▁refuse	-3275
▁rising	-3276
▁school	-3277
ertainly	-3278
▁altered	-3279
▁attract	-3280
▁possess	-3281
▁related	-3282
ortsmouth	-3283
▁finished	-3284
▁patience	-3285
▁presence	-3286
▁pleasures	-3287
▁distressed	-3288
▁infinitely	-3289
▁differently	-3290
▁expressions	-3291
▁housekeeper	-3292
isk	-3293
ork	-3294
Then	-3295
▁tor	-3296
▁uns	-3297
obody	-3298
pping	-3299
under	-3300
▁maid	-3301
▁nove	-3302
course	-3303
▁breat	-3304
▁cerem	-3305
fulness	-3306
▁betray	-3307
▁effort	-3308
▁points	-3309
▁chiefly	-3310
▁cordial	-3311
▁parlour	-3312
fordshire	-3313
▁becoming	-3314
▁contempt	-3315
▁deceived	-3316
▁deserved	-3317
▁families	-3318
▁connexion	-3319
▁wonderful	-3320
▁frightened	-3321
▁increasing	-3322
▁separation	-3323
▁intercourse	-3324
▁unfortunate	-3325
att	-3326
edd	-3327
.--"	-3328
ainw	-3329
ixon	-3330
uses	-3331
forte	-3332
ommon	-3333
▁stop	-3334
omfort	-3335
▁Mainw	-3336
▁borne	-3337
▁court	-3338
▁rever	-3339
▁stead	-3340
▁attack	-3341
▁chosen	-3342
▁faults	-3343
rederick	-3344
▁caution	-3345
▁hastily	-3346
▁careless	-3347
▁convince	-3348
▁nonsense	-3349
▁watching	-3350
▁furniture	-3351
▁conclusion	-3352
▁engagements	-3353
▁independence	-3354
▁di	-3355
ilar	-3356
omin	-3357
ours	-3358
road	-3359
▁don	-3360
▁lod	-3361
pered	-3362
roves	-3363
while	-3364
▁enqu	-3365
▁fema	-3366
▁hurt	-3367
▁ways	-3368
▁wedd	-3369
ensive	-3370
though	-3371
▁escap	-3372
▁pains	-3373
▁apolog	-3374
▁declin	-3375
▁demand	-3376
▁distur	-3377
▁engage	-3378
▁safely	-3379
▁stairs	-3380
▁strugg	-3381
▁uneasy	-3382
▁unlike	-3383
▁applied	-3384
▁dignity	-3385
▁foolish	-3386
▁grounds	-3387
▁happier	-3388
▁measure	-3389
▁neglect	-3390
▁variety	-3391
▁visitor	-3392
▁accommod	-3393
▁blessing	-3394
▁moreover	-3395
▁progress	-3396
▁ignorance	-3397
▁presently	-3398
▁impression	-3399
▁neighbours	-3400
▁persuasion	-3401
▁remembrance	-3402
.,	-3403
▁da	-3404
▁fr	-3405
▁ow	-3406
luck	-3407
reen	-3408
▁Hay	-3409
▁bow	-3410
▁hot	-3411
anced	-3412
loved	-3413
vered	-3414
▁cand	-3415
▁firm	-3416
▁held	-3417
▁qual	-3418
▁rapt	-3419
▁tall	-3420
▁build	-3421
▁coach	-3422
▁estim	-3423
▁exper	-3424
▁force	-3425
▁gives	-3426
▁lover	-3427
hearted	-3428
▁Hayter	-3429
▁across	-3430
▁bitter	-3431
▁broken	-3432
▁insens	-3433
▁sought	-3434
▁waited	-3435
▁beloved	-3436
▁disgust	-3437
▁highest	-3438
▁pressed	-3439
▁require	-3440
▁treated	-3441
▁watched	-3442
▁conveyed	-3443
▁employed	-3444
▁stronger	-3445
▁addressed	-3446
▁attentive	-3447
▁concluded	-3448
▁expecting	-3449
▁gradually	-3450
▁recovered	-3451
▁possession	-3452
▁unnecessary	-3453
▁embarrassment	-3454
cha	-3455
sey	-3456
▁pu	-3457
▁si	-3458
play	-3459
▁gen	-3460
assed	-3461
▁fail	-3462
▁mile	-3463
▁papa	-3464
▁prec	-3465
▁quit	-3466
▁slow	-3467
▁wear	-3468
▁chuse	-3469
▁dwell	-3470
▁grace	-3471
▁noise	-3472
▁shrub	-3473
▁yield	-3474
onshire	-3475
▁advise	-3476
▁choose	-3477
▁depart	-3478
▁forese	-3479
▁hither	-3480
▁mutual	-3481
itations	-3482
▁excited	-3483
▁explain	-3484
▁passage	-3485
▁sending	-3486
▁theatre	-3487
▁concerns	-3488
▁entering	-3489
▁happiest	-3490
▁personal	-3491
▁vexation	-3492
▁clergyman	-3493
▁sincerely	-3494
▁uncomfort	-3495
▁Mainwaring	-3496
▁impatience	-3497
▁intentions	-3498
▁distressing	-3499
▁undoubtedly	-3500
ime	-3501
nly	-3502
▁ph	-3503
ctory	-3504
ouses	-3505
▁Hert	-3506
▁laid	-3507
▁land	-3508
▁lips	-3509
vering	-3510
▁affli	-3511
▁amend	-3512
▁raise	-3513
natured	-3514
▁amused	-3515
▁assert	-3516
▁calcul	-3517
▁impert	-3518
▁memory	-3519
▁parish	-3520
▁united	-3521
▁secured	-3522
▁trusted	-3523
▁features	-3524
▁ignorant	-3525
▁peculiar	-3526
▁somebody	-3527
▁Musgroves	-3528
▁sacrifice	-3529
▁Churchhill	-3530
▁companions	-3531
▁correspond	-3532
▁dependence	-3533
▁Hertfordshire	-3534
In	-3535
af	-3536
urd	-3537
pher	-3538
then	-3539
▁inn	-3540
▁law	-3541
table	-3542
▁Wall	-3543
▁boys	-3544
▁crow	-3545
▁dull	-3546
▁insu	-3547
▁pron	-3548
▁rous	-3549
▁susp	-3550
twenty	-3551
▁drove	-3552
▁exped	-3553
▁maint	-3554
onsider	-3555
▁assemb	-3556
▁belief	-3557
▁higher	-3558
▁matrim	-3559
▁resemb	-3560
▁taught	-3561
arriages	-3562
▁changed	-3563
▁commend	-3564
▁display	-3565
▁distant	-3566
▁message	-3567
▁objects	-3568
▁reserve	-3569
▁triumph	-3570
▁venture	-3571
▁wedding	-3572
▁depended	-3573
▁disgrace	-3574
▁impertin	-3575
▁instance	-3576
▁opposite	-3577
▁strongly	-3578
▁uncommon	-3579
▁explained	-3580
▁prevailed	-3581
▁interrupted	-3582
▁introduction	-3583
▁uncomfortable	-3584
ail	-3585
che	-3586
pit	-3587
▁Tu	-3588
Have	-3589
When	-3590
aple	-3591
aret	-3592
atur	-3593
iter	-3594
▁mam	-3595
aking	-3596
ourgh	-3597
▁Have	-3598
▁Some	-3599
▁hate	-3600
▁show	-3601
▁sunk	-3602
llable	-3603
orster	-3604
▁boast	-3605
▁daily	-3606
▁faith	-3607
▁lucky	-3608
unately	-3609
▁Bourgh	-3610
▁Steele	-3611
▁applic	-3612
▁missed	-3613
▁morrow	-3614
▁notion	-3615
▁unkind	-3616
▁unluck	-3617
omething	-3618
▁However	-3619
▁Tuesday	-3620
▁desired	-3621
▁divided	-3622
▁persons	-3623
▁produce	-3624
▁shortly	-3625
▁sincere	-3626
▁approach	-3627
▁attribut	-3628
▁calmness	-3629
▁softened	-3630
▁trifling	-3631
▁valuable	-3632
▁authority	-3633
▁believing	-3634
▁discourse	-3635
▁preparing	-3636
▁alteration	-3637
▁opposition	-3638
▁partiality	-3639
▁pianoforte	-3640
▁remarkably	-3641
▁uneasiness	-3642
▁tranquillity	-3643
As	-3644
ev	-3645
ges	-3646
ier	-3647
ked	-3648
oms	-3649
back	-3650
gent	-3651
idst	-3652
▁elo	-3653
▁gay	-3654
▁sex	-3655
garet	-3656
unday	-3657
▁bust	-3658
▁incl	-3659
▁loud	-3660
▁rose	-3661
▁Abbey	-3662
▁aloud	-3663
▁cares	-3664
▁crowd	-3665
▁drink	-3666
▁grown	-3667
▁oblig	-3668
▁vexed	-3669
attered	-3670
▁Sunday	-3671
▁chaise	-3672
▁deeply	-3673
▁endeav	-3674
▁horror	-3675
▁moving	-3676
▁shewed	-3677
▁thanks	-3678
▁worthy	-3679
▁discern	-3680
▁happily	-3681
▁keeping	-3682
▁afforded	-3683
▁arranged	-3684
▁confined	-3685
▁discover	-3686
▁goodness	-3687
▁sentence	-3688
▁unexpect	-3689
▁meanwhile	-3690
▁restraint	-3691
▁recommended	-3692
als	-3693
ift	-3694
ung	-3695
ush	-3696
▁Ex	-3697
irth	-3698
rive	-3699
▁lat	-3700
ormed	-3701
ticip	-3702
▁argu	-3703
▁dism	-3704
▁fate	-3705
▁idle	-3706
▁symp	-3707
▁Satur	-3708
▁Where	-3709
▁elder	-3710
▁moder	-3711
▁noble	-3712
▁sleep	-3713
▁Wallis	-3714
▁active	-3715
▁anyone	-3716
▁destro	-3717
▁endure	-3718
▁events	-3719
▁induce	-3720
▁judged	-3721
▁nearer	-3722
▁purcha	-3723
▁spread	-3724
▁undert	-3725
▁visits	-3726
▁anticip	-3727
▁confirm	-3728
▁fearful	-3729
▁seeming	-3730
▁setting	-3731
▁Saturday	-3732
▁anywhere	-3733
▁directed	-3734
▁shrubber	-3735
▁unreason	-3736
▁wondered	-3737
▁Christmas	-3738
▁certainty	-3739
▁complaint	-3740
▁principle	-3741
▁uncertain	-3742
▁distinction	-3743
▁indignation	-3744
▁recollected	-3745
▁occasionally	-3746
my	-3747
ron	-3748
urs	-3749
Emma	-3750
▁sei	-3751
Thank	-3752
isite	-3753
isted	-3754
▁neck	-3755
▁risk	-3756
▁summ	-3757
▁wise	-3758
olence	-3759
▁steps	-3760
william	-3761
▁abroad	-3762
▁longed	-3763
▁lovely	-3764
▁merits	-3765
▁middle	-3766
▁season	-3767
ashwoods	-3768
interest	-3769
▁behaved	-3770
▁forming	-3771
▁offence	-3772
▁putting	-3773
▁violent	-3774
▁windows	-3775
▁Margaret	-3776
▁comforts	-3777
▁composed	-3778
▁delicate	-3779
▁informed	-3780
▁officers	-3781
▁relation	-3782
▁syllable	-3783
▁visitors	-3784
▁youngest	-3785
▁continual	-3786
▁determine	-3787
▁residence	-3788
▁addressing	-3789
▁advantages	-3790
▁encouraged	-3791
▁preference	-3792
▁remembered	-3793
▁independent	-3794
▁interference	-3795
▁distinguished	-3796
gar	-3797
kes	-3798
omp	-3799
▁av	-3800
----	-3801
maid	-3802
▁Ens	-3803
▁asc	-3804
▁ing	-3805
▁war	-3806
▁wid	-3807
combe	-3808
erity	-3809
known	-3810
lance	-3811
lying	-3812
▁cool	-3813
▁forb	-3814
liness	-3815
▁Hurst	-3816
▁arise	-3817
▁cared	-3818
▁cheek	-3819
▁fetch	-3820
▁fifty	-3821
▁gloom	-3822
▁overp	-3823
▁silly	-3824
▁bustle	-3825
▁doubts	-3826
▁humble	-3827
▁office	-3828
▁thirty	-3829
▁trifle	-3830
▁wealth	-3831
▁amongst	-3832
▁apology	-3833
▁destroy	-3834
▁dressed	-3835
▁earlier	-3836
▁grieved	-3837
▁notions	-3838
▁pretend	-3839
▁rejoice	-3840
▁Bertrams	-3841
▁Enscombe	-3842
▁continue	-3843
▁generous	-3844
▁offended	-3845
▁provided	-3846
▁rendered	-3847
▁striking	-3848
▁suspense	-3849
▁abilities	-3850
▁animation	-3851
▁condition	-3852
▁decidedly	-3853
▁described	-3854
▁gallantry	-3855
▁introduce	-3856
▁endeavoured	-3857
▁established	-3858
▁reflections	-3859
▁accomplished	-3860
bb	-3861
og	-3862
eor	-3863
rid	-3864
umb	-3865
▁Ag	-3866
▁LA	-3867
▁Sh	-3868
▁et	-3869
▁kn	-3870
▁la	-3871
aper	-3872
ards	-3873
hall	-3874
qual	-3875
rose	-3876
▁Cam	-3877
▁ban	-3878
▁ung	-3879
ading	-3880
aning	-3881
month	-3882
rence	-3883
▁cure	-3884
▁died	-3885
▁farm	-3886
▁game	-3887
▁grow	-3888
▁mild	-3889
arance	-3890
humour	-3891
▁arose	-3892
▁black	-3893
▁forbe	-3894
▁hints	-3895
▁shook	-3896
▁touch	-3897
raction	-3898
▁danced	-3899
▁fatigu	-3900
▁forgiv	-3901
▁places	-3902
▁relate	-3903
▁unjust	-3904
▁escaped	-3905
▁injured	-3906
▁justify	-3907
▁misfort	-3908
▁shocked	-3909
▁brothers	-3910
▁ceremony	-3911
▁gracious	-3912
▁quitting	-3913
▁restored	-3914
▁upstairs	-3915
▁attempted	-3916
▁continually	-3917
▁encouraging	-3918
ls	-3919
ici	-3920
let	-3921
pet	-3922
▁Tw	-3923
alry	-3924
amed	-3925
pper	-3926
▁Can	-3927
▁Was	-3928
▁Who	-3929
▁ter	-3930
after	-3931
ement	-3932
igned	-3933
olent	-3934
onday	-3935
▁cens	-3936
▁clot	-3937
▁elig	-3938
▁rehe	-3939
▁ride	-3940
▁surr	-3941
hanger	-3942
▁abbey	-3943
▁cards	-3944
▁guest	-3945
▁schem	-3946
▁sympt	-3947
▁throw	-3948
hillips	-3949
▁absurd	-3950
▁desert	-3951
▁preced	-3952
▁reward	-3953
▁roused	-3954
▁source	-3955
humoured	-3956
▁contrad	-3957
▁induced	-3958
▁motives	-3959
▁unworth	-3960
▁various	-3961
▁visited	-3962
orthanger	-3963
▁honoured	-3964
▁shocking	-3965
▁thankful	-3966
▁apartment	-3967
▁appearing	-3968
▁ascertain	-3969
▁carriages	-3970
▁departure	-3971
▁discovery	-3972
▁existence	-3973
▁justified	-3974
▁supported	-3975
▁discussion	-3976
▁honourable	-3977
▁objections	-3978
▁approaching	-3979
▁performance	-3980
▁superiority	-3981
▁twelvemonth	-3982
▁apprehension	-3983
▁mortification	-3984
"--	-3985
ela	-3986
hab	-3987
hor	-3988
imp	-3989
pul	-3990
ump	-3991
was	-3992
ains	-3993
enes	-3994
iest	-3995
they	-3996
usal	-3997
vent	-3998
▁ess	-3999
▁lie	-4000
alrym	-4001
brary	-4002
iance	-4003
pherd	-4004
place	-4005
rible	-4006
xford	-4007
▁bore	-4008
▁curt	-4009
▁perm	-4010
▁seek	-4011
▁vast	-4012
retion	-4013
▁evils	-4014
▁haste	-4015
▁plans	-4016
▁takes	-4017
▁withd	-4018
ovember	-4019
righton	-4020
▁Betsey	-4021
▁Monday	-4022
▁begged	-4023
▁dances	-4024
▁excite	-4025
▁fallen	-4026
▁invite	-4027
▁openly	-4028
▁paying	-4029
▁polite	-4030
▁safety	-4031
▁submit	-4032
ableness	-4033
▁affairs	-4034
▁censure	-4035
▁forgive	-4036
▁leading	-4037
▁library	-4038
▁thanked	-4039
Certainly	-4040
▁Brighton	-4041
▁decision	-4042
▁formerly	-4043
▁hitherto	-4044
▁relieved	-4045
▁characters	-4046
▁civilities	-4047
▁imprudence	-4048
▁accordingly	-4049
▁resemblance	-4050
▁consequently	-4051
▁expectations	-4052
..	-4053
ox	-4054
atis	-4055
case	-4056
onci	-4057
onst	-4058
vant	-4059
▁aut	-4060
▁der	-4061
▁smo	-4062
inded	-4063
ounce	-4064
paper	-4065
urity	-4066
xions	-4067
▁gain	-4068
▁inev	-4069
▁nine	-4070
olding	-4071
▁House	-4072
▁alike	-4073
▁cease	-4074
▁shewn	-4075
▁urged	-4076
▁water	-4077
welcome	-4078
▁enquir	-4079
▁female	-4080
▁marked	-4081
▁scenes	-4082
▁supper	-4083
▁approve	-4084
▁doubted	-4085
▁inquire	-4086
▁parents	-4087
▁reconci	-4088
▁running	-4089
▁similar	-4090
▁sympath	-4091
▁Shepherd	-4092
▁bestowed	-4093
▁fancying	-4094
▁ventured	-4095
▁collected	-4096
▁connexions	-4097
▁continuing	-4098
▁convenience	-4099
▁displeasure	-4100
▁endeavouring	-4101
▁establishment	-4102
ex	-4103
any	-4104
edn	-4105
ete	-4106
oes	-4107
rep	-4108
umn	-4109
irty	-4110
ners	-4111
rust	-4112
▁bew	-4113
▁unt	-4114
acity	-4115
arded	-4116
armed	-4117
cence	-4118
chief	-4119
erton	-4120
▁Wedn	-4121
▁born	-4122
▁chat	-4123
▁dead	-4124
▁goes	-4125
▁shop	-4126
▁virt	-4127
▁Maple	-4128
▁flirt	-4129
▁parts	-4130
▁sangu	-4131
▁saved	-4132
▁subst	-4133
▁tremb	-4134
▁utter	-4135
elaford	-4136
▁corner	-4137
▁fairly	-4138
▁fitted	-4139
▁gaiety	-4140
▁houses	-4141
▁narrow	-4142
▁prejud	-4143
▁valued	-4144
incerity	-4145
▁falling	-4146
▁liberal	-4147
▁playing	-4148
▁prosper	-4149
▁refused	-4150
▁resolve	-4151
▁tempted	-4152
▁advanced	-4153
▁compared	-4154
▁contrast	-4155
▁declined	-4156
▁doubtful	-4157
▁dressing	-4158
▁improper	-4159
▁jealousy	-4160
▁positive	-4161
▁sanguine	-4162
▁scruples	-4163
▁solitude	-4164
▁spending	-4165
▁stranger	-4166
▁Wednesday	-4167
▁dangerous	-4168
▁matrimony	-4169
▁newspaper	-4170
▁unwelcome	-4171
▁assurances	-4172
▁commission	-4173
▁convenient	-4174
▁perceiving	-4175
▁previously	-4176
▁suspicions	-4177
▁application	-4178
▁voluntarily	-4179
▁unreasonable	-4180
▁wretchedness	-4181
bly	-4182
etr	-4183
ets	-4184
rit	-4185
uns	-4186
▁er	-4187
Such	-4188
akes	-4189
emed	-4190
lish	-4191
recy	-4192
uous	-4193
▁Cle	-4194
▁bas	-4195
▁bri	-4196
▁car	-4197
▁shy	-4198
ethod	-4199
hampt	-4200
oting	-4201
▁Hall	-4202
▁Hill	-4203
▁cost	-4204
▁deny	-4205
▁glow	-4206
▁lodg	-4207
▁terr	-4208
▁worn	-4209
▁error	-4210
▁fever	-4211
▁lives	-4212
▁loves	-4213
▁lower	-4214
▁Camden	-4215
▁autumn	-4216
▁declar	-4217
▁driven	-4218
▁duties	-4219
▁extent	-4220
▁insuff	-4221
▁larger	-4222
▁motion	-4223
▁nerves	-4224
orthampt	-4225
▁Steeles	-4226
▁blushed	-4227
▁consist	-4228
▁counter	-4229
▁nervous	-4230
▁pointed	-4231
▁quickly	-4232
▁renewed	-4233
▁ridicul	-4234
▁schemes	-4235
▁scruple	-4236
▁thither	-4237
▁alarming	-4238
▁carrying	-4239
▁describe	-4240
▁engaging	-4241
▁likeness	-4242
▁respects	-4243
▁somewhat	-4244
▁speeches	-4245
▁unworthy	-4246
interested	-4247
▁accepting	-4248
▁contented	-4249
▁excepting	-4250
▁hereafter	-4251
▁preferred	-4252
▁acceptable	-4253
▁discretion	-4254
▁peculiarly	-4255
▁pleasantly	-4256
▁principles	-4257
▁remarkable	-4258
▁connections	-4259
▁sensibility	-4260
▁satisfactory	-4261
ew	-4262
Aye	-4263
act	-4264
agn	-4265
ned	-4266
▁Sc	-4267
,"--	-4268
."--	-4269
ital	-4270
plex	-4271
uted	-4272
vity	-4273
your	-4274
▁box	-4275
▁etc	-4276
▁hat	-4277
▁pal	-4278
icing	-4279
quest	-4280
uding	-4281
▁obst	-4282
▁ones	-4283
▁simp	-4284
▁stir	-4285
asions	-4286
▁balls	-4287
▁grief	-4288
▁prett	-4289
▁shake	-4290
▁white	-4291
▁widow	-4292
▁wound	-4293
quisite	-4294
▁failed	-4295
▁hoping	-4296
▁recall	-4297
▁weight	-4298
alrymple	-4299
▁benefit	-4300
▁driving	-4301
▁ordered	-4302
▁passion	-4303
▁plainly	-4304
▁privile	-4305
▁reflect	-4306
▁animated	-4307
▁contradi	-4308
▁desirous	-4309
▁entreaty	-4310
▁familiar	-4311
▁lodgings	-4312
▁regiment	-4313
▁separate	-4314
▁tomorrow	-4315
▁imprudent	-4316
▁mortified	-4317
▁shrubbery	-4318
▁suggested	-4319
▁affliction	-4320
▁misfortune	-4321
▁obligation	-4322
▁repeatedly	-4323
▁unexpected	-4324
▁professions	-4325
▁selfishness	-4326
▁disinterested	-4327
▁recommendation	-4328
Are	-4329
His	-4330
ils	-4331
vag	-4332
▁Bu	-4333
▁ec	-4334
hand	-4335
hard	-4336
noon	-4337
nton	-4338
▁Com	-4339
▁ali	-4340
▁cry	-4341
▁lim	-4342
▁mix	-4343
▁pri	-4344
count	-4345
itary	-4346
ivers	-4347
olded	-4348
oring	-4349
stand	-4350
▁Come	-4351
▁inno	-4352
▁neat	-4353
▁save	-4354
▁sees	-4355
▁wand	-4356
eneral	-4357
ential	-4358
veland	-4359
▁Build	-4360
▁Crown	-4361
▁artic	-4362
▁subdu	-4363
▁total	-4364
▁trick	-4365
▁abomin	-4366
▁bestow	-4367
▁cheeks	-4368
▁denied	-4369
▁diseng	-4370
▁oblige	-4371
▁played	-4372
▁prompt	-4373
lessness	-4374
ullerton	-4375
▁alarmed	-4376
▁appears	-4377
▁appoint	-4378
▁engross	-4379
▁fatigue	-4380
▁prepare	-4381
▁project	-4382
▁secrecy	-4383
▁signify	-4384
▁station	-4385
▁earliest	-4386
▁pressing	-4387
▁previous	-4388
▁apprehens	-4389
▁concealed	-4390
▁exquisite	-4391
▁reception	-4392
▁sincerity	-4393
▁sweetness	-4394
▁wondering	-4395
▁Everything	-4396
▁approached	-4397
▁discovered	-4398
▁expressing	-4399
▁gratifying	-4400
▁insensible	-4401
▁forbearance	-4402
ais	-4403
ays	-4404
pri	-4405
que	-4406
▁du	-4407
▁hy	-4408
▁sw	-4409
!"--	-4410
fied	-4411
gers	-4412
ites	-4413
omer	-4414
oned	-4415
ters	-4416
when	-4417
yard	-4418
▁buy	-4419
▁kno	-4420
▁won	-4421
ailed	-4422
avens	-4423
isely	-4424
ustom	-4425
▁Cour	-4426
▁East	-4427
▁Even	-4428
▁cast	-4429
▁debt	-4430
▁envy	-4431
▁rise	-4432
▁sofa	-4433
▁urge	-4434
posing	-4435
▁acted	-4436
▁baron	-4437
▁corre	-4438
▁dined	-4439
▁dream	-4440
▁forty	-4441
▁front	-4442
▁incap	-4443
▁likes	-4444
▁midst	-4445
▁names	-4446
▁smart	-4447
▁staid	-4448
▁trial	-4449
▁finest	-4450
▁guided	-4451
▁lessen	-4452
▁liking	-4453
▁method	-4454
▁novelt	-4455
▁clothes	-4456
▁perplex	-4457
▁remains	-4458
▁remarks	-4459
▁seeking	-4460
▁sixteen	-4461
▁talents	-4462
▁unlucky	-4463
evonshire	-4464
▁accounts	-4465
▁catching	-4466
▁extravag	-4467
▁inquired	-4468
▁involved	-4469
▁overlook	-4470
▁precious	-4471
▁rejoiced	-4472
▁reserved	-4473
▁resolute	-4474
▁wherever	-4475
▁Buildings	-4476
▁Campbells	-4477
▁Cleveland	-4478
▁belonging	-4479
▁submitted	-4480
▁conjecture	-4481
▁displeased	-4482
▁gentleness	-4483
▁ridiculous	-4484
▁situations	-4485
▁travelling	-4486
▁declaration	-4487
▁communicated	-4488
▁sufficiently	-4489
▁representation	-4490
eb	-4491
mpl	-4492
opt	-4493
reg	-4494
arse	-4495
feel	-4496
hour	-4497
inet	-4498
▁Two	-4499
▁eff	-4500
▁fru	-4501
▁vul	-4502
anted	-4503
ernal	-4504
ieces	-4505
issed	-4506
ushed	-4507
▁bott	-4508
▁gate	-4509
▁inex	-4510
▁lock	-4511
▁reck	-4512
▁snow	-4513
▁unaf	-4514
ection	-4515
hether	-4516
nature	-4517
riving	-4518
urning	-4519
▁broke	-4520
▁guilt	-4521
▁later	-4522
▁nurse	-4523
▁threw	-4524
▁turns	-4525
▁walks	-4526
▁walls	-4527
unsford	-4528
▁Heaven	-4529
▁decide	-4530
▁defect	-4531
▁defici	-4532
▁desper	-4533
▁errand	-4534
▁hearts	-4535
▁heaven	-4536
▁justly	-4537
▁modern	-4538
▁penetr	-4539
▁reluct	-4540
▁repeat	-4541
▁strict	-4542
▁worked	-4543
▁Another	-4544
▁actions	-4545
▁advance	-4546
▁disturb	-4547
▁effects	-4548
▁example	-4549
▁finally	-4550
▁portion	-4551
▁quarrel	-4552
▁unknown	-4553
▁assisted	-4554
▁disappro	-4555
▁necklace	-4556
▁offering	-4557
▁security	-4558
▁unaffect	-4559
▁visiting	-4560
▁weakness	-4561
▁afternoon	-4562
▁flattered	-4563
▁fortitude	-4564
▁governess	-4565
▁promising	-4566
▁sensation	-4567
▁attraction	-4568
▁dreadfully	-4569
▁proportion	-4570
▁preparation	-4571
▁commendation	-4572
▁interruption	-4573
hip	-4574
ism	-4575
ixt	-4576
who	-4577
appe	-4578
bred	-4579
erby	-4580
inct	-4581
lled	-4582
▁Are	-4583
▁bid	-4584
▁cre	-4585
▁hes	-4586
▁imm	-4587
▁lab	-4588
aving	-4589
conom	-4590
▁arch	-4591
▁bold	-4592
▁elev	-4593
▁flow	-4594
▁flut	-4595
▁insp	-4596
▁jump	-4597
▁lane	-4598
▁owed	-4599
▁path	-4600
▁pump	-4601
▁ruin	-4602
▁song	-4603
itions	-4604
racted	-4605
thened	-4606
▁abhor	-4607
▁acute	-4608
▁adopt	-4609
▁barou	-4610
▁birth	-4611
▁faint	-4612
▁feels	-4613
▁green	-4614
▁hasty	-4615
▁older	-4616
▁stair	-4617
▁teach	-4618
▁trees	-4619
etition	-4620
▁Crofts	-4621
▁Indeed	-4622
▁condes	-4623
▁econom	-4624
▁exclam	-4625
▁grandm	-4626
▁paused	-4627
▁recent	-4628
▁reject	-4629
▁threat	-4630
▁vulgar	-4631
▁welcom	-4632
▁acquies	-4633
▁amusing	-4634
▁avoided	-4635
▁concert	-4636
▁despair	-4637
▁heroine	-4638
▁judging	-4639
▁learned	-4640
▁novelty	-4641
▁started	-4642
▁torment	-4643
erbyshire	-4644
▁building	-4645
▁complais	-4646
▁contempl	-4647
▁distrust	-4648
▁eligible	-4649
▁foreseen	-4650
▁forgiven	-4651
▁indulged	-4652
▁misunder	-4653
▁prudence	-4654
▁confident	-4655
▁contribut	-4656
▁encourage	-4657
▁essential	-4658
▁incapable	-4659
▁staircase	-4660
▁treatment	-4661
▁accomplish	-4662
▁cordiality	-4663
▁hesitation	-4664
▁pronounced	-4665
▁recovering	-4666
▁sufferings	-4667
▁comfortably	-4668
▁communicate	-4669
▁distinguish	-4670
▁earnestness	-4671
▁principally	-4672
▁congratulate	-4673
▁congratulations	-4674
II	-4675
ob	-4676
ux	-4677
wr	-4678
Her	-4679
his	-4680
oci	-4681
ule	-4682
cent	-4683
ctor	-4684
laim	-4685
nder	-4686
rief	-4687
rity	-4688
roat	-4689
▁coo	-4690
▁key	-4691
▁leg	-4692
▁wet	-4693
ature	-4694
enses	-4695
hange	-4696
ndeur	-4697
pless	-4698
verse	-4699
▁Were	-4700
▁hung	-4701
▁joke	-4702
▁lest	-4703
▁rule	-4704
▁shar	-4705
▁thin	-4706
▁wine	-4707
ancing	-4708
ension	-4709
formed	-4710
owered	-4711
▁benev	-4712
▁board	-4713
▁dirty	-4714
▁entit	-4715
▁exult	-4716
▁ingen	-4717
▁punct	-4718
▁shock	-4719
▁space	-4720
▁sport	-4721
Harriet	-4722
nothing	-4723
perhaps	-4724
▁action	-4725
▁amends	-4726
▁associ	-4727
▁brilli	-4728
▁calmly	-4729
▁condem	-4730
▁detest	-4731
▁injury	-4732
▁oppose	-4733
▁perpet	-4734
▁releas	-4735
▁remove	-4736
▁rights	-4737
▁showed	-4738
▁smooth	-4739
▁sounds	-4740
▁strike	-4741
▁blessed	-4742
▁complac	-4743
▁devoted	-4744
▁enjoyed	-4745
▁gallery	-4746
▁longing	-4747
▁promote	-4748
▁reproof	-4749
▁unequal	-4750
▁univers	-4751
▁Hunsford	-4752
▁barouche	-4753
▁belonged	-4754
▁grandeur	-4755
▁hopeless	-4756
▁learning	-4757
▁raptures	-4758
▁regarded	-4759
▁solitary	-4760
▁speedily	-4761
▁struggle	-4762
▁supplied	-4763
▁Everybody	-4764
▁according	-4765
▁anxiously	-4766
▁deficient	-4767
▁elsewhere	-4768
▁intending	-4769
▁intervals	-4770
▁momentary	-4771
▁somewhere	-4772
▁attendance	-4773
▁flattering	-4774
▁materially	-4775
▁mortifying	-4776
▁occasional	-4777
▁occasioned	-4778
▁proceeding	-4779
▁temptation	-4780
▁entertained	-4781
▁impertinent	-4782
▁intelligible	-4783
▁observations	-4784
▁gentlemanlike	-4785
▁gratification	-4786
▁unfortunately	-4787
SA	-4788
oc	-4789
cca	-4790
dom	-4791
ebe	-4792
hib	-4793
ina	-4794
ode	-4795
rer	-4796
aces	-4797
only	-4798
▁apt	-4799
▁dim	-4800
▁hos	-4801
▁lux	-4802
▁sal	-4803
acher	-4804
atory	-4805
ching	-4806
lling	-4807
quare	-4808
▁----	-4809
▁beau	-4810
▁capt	-4811
▁exte	-4812
▁mixt	-4813
▁pace	-4814
▁plag	-4815
▁port	-4816
▁sail	-4817
advant	-4818
ebecca	-4819
erning	-4820
idable	-4821
ieties	-4822
priety	-4823
▁abode	-4824
▁bloom	-4825
▁bride	-4826
▁brief	-4827
▁defer	-4828
▁hence	-4829
▁minds	-4830
▁parce	-4831
▁stage	-4832
▁storm	-4833
ensions	-4834
inement	-4835
▁county	-4836
▁deeper	-4837
▁defend	-4838
▁incomp	-4839
▁leaves	-4840
▁retire	-4841
▁senses	-4842
▁slowly	-4843
▁suited	-4844
▁uncons	-4845
▁chamber	-4846
▁checked	-4847
▁constit	-4848
▁deceive	-4849
▁discont	-4850
▁dreaded	-4851
▁fifteen	-4852
▁guessed	-4853
▁mixture	-4854
▁musical	-4855
▁pursuit	-4856
▁unreser	-4857
▁usually	-4858
▁coloured	-4859
▁conceive	-4860
▁mischief	-4861
▁obtained	-4862
▁procured	-4863
▁purchase	-4864
▁refusing	-4865
▁tendency	-4866
▁accompany	-4867
▁contained	-4868
▁disadvant	-4869
▁excessive	-4870
▁regretted	-4871
▁entreaties	-4872
▁experience	-4873
▁punishment	-4874
▁reasonably	-4875
▁succeeding	-4876
▁unaffected	-4877
▁improvements	-4878
▁correspondence	-4879
";	-4880
Ex	-4881
Can	-4882
Sir	-4883
Who	-4884
has	-4885
pel	-4886
Here	-4887
bing	-4888
comm	-4889
cond	-4890
held	-4891
kins	-4892
resh	-4893
such	-4894
sure	-4895
welt	-4896
▁Car	-4897
▁bye	-4898
▁orn	-4899
▁red	-4900
epend	-4901
ricle	-4902
▁Happ	-4903
▁Tell	-4904
▁alac	-4905
▁bill	-4906
▁disd	-4907
▁fare	-4908
▁hang	-4909
▁harp	-4910
▁heir	-4911
▁pers	-4912
▁subs	-4913
▁surm	-4914
▁test	-4915
▁tong	-4916
▁unus	-4917
either	-4918
ursday	-4919
▁agony	-4920
▁aside	-4921
▁cloud	-4922
▁dwelt	-4923
▁inhab	-4924
▁irres	-4925
▁unsus	-4926
perfect	-4927
verance	-4928
▁Eltons	-4929
▁Having	-4930
▁abrupt	-4931
▁actual	-4932
▁appeal	-4933
▁assent	-4934
▁breath	-4935
▁filled	-4936
▁fixing	-4937
▁formal	-4938
▁horrid	-4939
▁needed	-4940
▁presum	-4941
▁repent	-4942
▁speaks	-4943
▁surely	-4944
▁terror	-4945
▁virtue	-4946
▁volume	-4947
▁baronet	-4948
▁careful	-4949
▁compare	-4950
▁correct	-4951
▁cruelty	-4952
▁delayed	-4953
▁gravely	-4954
▁guarded	-4955
▁propose	-4956
▁prudent	-4957
▁reasons	-4958
▁refusal	-4959
▁rehears	-4960
▁touched	-4961
▁working	-4962
▁Thornton	-4963
▁Thursday	-4964
▁alacrity	-4965
▁alliance	-4966
▁allowing	-4967
▁announce	-4968
▁cautious	-4969
▁contents	-4970
▁dwelling	-4971
▁hurrying	-4972
▁ornament	-4973
▁recovery	-4974
▁sweetest	-4975
▁announced	-4976
▁confirmed	-4977
▁deserving	-4978
▁destroyed	-4979
▁expedient	-4980
▁occasions	-4981
▁parsonage	-4982
▁precisely	-4983
▁prospects	-4984
▁resolving	-4985
▁slightest	-4986
▁strongest	-4987
▁calculated	-4988
▁disengaged	-4989
▁everywhere	-4990
▁heightened	-4991
▁positively	-4992
▁simplicity	-4993
▁concealment	-4994
▁continuance	-4995
▁embarrassed	-4996
▁necessarily	-4997
▁unconscious	-4998
▁complaisance	-4999
▁relationship	-5000
▁comprehension	-5001
?'	-5002
.'"	-5003
Let	-5004
eps	-5005
ieu	-5006
irm	-5007
isy	-5008
ius	-5009
olk	-5010
tem	-5011
▁Al	-5012
Come	-5013
arth	-5014
cher	-5015
epte	-5016
head	-5017
hold	-5018
icar	-5019
imed	-5020
mers	-5021
mond	-5022
oman	-5023
orum	-5024
oung	-5025
rees	-5026
uine	-5027
ulse	-5028
ural	-5029
year	-5030
▁Haw	-5031
▁Thr	-5032
▁Wey	-5033
▁ard	-5034
▁dry	-5035
▁lot	-5036
▁nay	-5037
▁ple	-5038
▁rom	-5039
▁vac	-5040
aches	-5041
cause	-5042
iring	-5043
piece	-5044
▁Lang	-5045
▁Suck	-5046
▁bent	-5047
▁cent	-5048
▁dict	-5049
▁king	-5050
▁lawn	-5051
▁mama	-5052
▁unac	-5053
▁wore	-5054
oncern	-5055
pulous	-5056
ustice	-5057
▁Septe	-5058
▁abund	-5059
▁advis	-5060
▁alive	-5061
▁check	-5062
▁earth	-5063
▁gross	-5064
▁mouth	-5065
▁shown	-5066
▁study	-5067
▁tells	-5068
▁today	-5069
▁uncon	-5070
command	-5071
▁Before	-5072
▁behave	-5073
▁charms	-5074
▁expose	-5075
▁genius	-5076
▁impart	-5077
▁insult	-5078
▁lasted	-5079
▁occupy	-5080
▁pitied	-5081
atisfied	-5082
▁English	-5083
▁Hawkins	-5084
▁Tilneys	-5085
▁charade	-5086
▁counsel	-5087
▁flutter	-5088
▁genuine	-5089
▁gravity	-5090
▁indulge	-5091
▁lasting	-5092
▁leaning	-5093
▁modesty	-5094
▁nearest	-5095
▁noticed	-5096
▁offices	-5097
▁opposed	-5098
▁presume	-5099
▁refresh	-5100
▁regrets	-5101
▁reverse	-5102
▁shewing	-5103
▁solicit	-5104
▁Weymouth	-5105
▁Woodston	-5106
▁betrayed	-5107
▁coachman	-5108
▁complain	-5109
▁curricle	-5110
▁entitled	-5111
▁evenings	-5112
▁hastened	-5113
▁inviting	-5114
▁moderate	-5115
▁practice	-5116
▁pretence	-5117
▁relative	-5118
▁removing	-5119
▁slighted	-5120
▁sympathy	-5121
▁symptoms	-5122
▁throwing	-5123
▁welcomed	-5124
▁September	-5125
▁constancy	-5126
▁contrived	-5127
▁creatures	-5128
▁falsehood	-5129
▁injustice	-5130
▁neglected	-5131
▁presented	-5132
▁proposals	-5133
▁protested	-5134
▁readiness	-5135
▁apparently	-5136
▁attempting	-5137
▁collection	-5138
▁constantly	-5139
▁influenced	-5140
▁irritation	-5141
▁perfection	-5142
▁surrounded	-5143
▁awkwardness	-5144
▁impropriety	-5145
▁troublesome	-5146
▁acquiescence	-5147
▁arrangements	-5148
▁recollections	-5149
▁disapprobation	-5150
An	-5151
At	-5152
ys	-5153
ari	-5154
kin	-5155
mon	-5156
nal	-5157
oat	-5158
▁Le	-5159
▁ca	-5160
With	-5161
amma	-5162
ebru	-5163
eter	-5164
gate	-5165
ilty	-5166
inth	-5167
lies	-5168
olid	-5169
ries	-5170
uite	-5171
vert	-5172
work	-5173
▁Ind	-5174
▁May	-5175
▁aud	-5176
▁bon	-5177
▁ere	-5178
▁owe	-5179
▁tid	-5180
Shall	-5181
about	-5182
cient	-5183
eorge	-5184
erous	-5185
hered	-5186
illed	-5187
ories	-5188
rench	-5189
▁Till	-5190
▁crit	-5191
▁heat	-5192
▁navy	-5193
▁refr	-5194
▁ring	-5195
▁scre	-5196
▁shad	-5197
▁sons	-5198
▁unsu	-5199
cended	-5200
iation	-5201
ichard	-5202
icious	-5203
ohnson	-5204
▁Those	-5205
▁Would	-5206
▁below	-5207
▁frank	-5208
▁hills	-5209
▁inatt	-5210
▁inval	-5211
▁moral	-5212
▁named	-5213
▁overt	-5214
▁sharp	-5215
▁sides	-5216
▁stout	-5217
▁talks	-5218
▁upper	-5219
▁woods	-5220
atively	-5221
ebruary	-5222
feeling	-5223
▁Thrush	-5224
▁acquit	-5225
▁adding	-5226
▁decent	-5227
▁deject	-5228
▁eating	-5229
▁finish	-5230
▁incred	-5231
▁indisp	-5232
▁interv	-5233
▁joyful	-5234
▁losing	-5235
▁manage	-5236
▁patron	-5237
▁reconc	-5238
▁sevent	-5239
▁specul	-5240
▁stable	-5241
▁tenant	-5242
▁theirs	-5243
▁throat	-5244
▁tongue	-5245
▁urgent	-5246
setshire	-5247
tempered	-5248
▁Cottage	-5249
▁article	-5250
▁cleared	-5251
▁joining	-5252
▁patient	-5253
▁revived	-5254
▁sinking	-5255
▁suspend	-5256
▁Langford	-5257
▁Whatever	-5258
▁approved	-5259
▁argument	-5260
▁attempts	-5261
▁avoiding	-5262
▁conclude	-5263
▁eighteen	-5264
▁enjoying	-5265
▁expenses	-5266
▁flattery	-5267
▁included	-5268
▁measures	-5269
▁stopping	-5270
▁unpardon	-5271
▁Something	-5272
▁addresses	-5273
▁answering	-5274
▁consulted	-5275
▁delivered	-5276
▁exertions	-5277
▁judgement	-5278
▁qualities	-5279
▁travelled	-5280
▁unconcern	-5281
▁cheerfully	-5282
▁discontent	-5283
▁excellence	-5284
▁inevitable	-5285
▁mentioning	-5286
▁thoughtful	-5287
▁throughout	-5288
▁uncommonly	-5289
▁examination	-5290
▁constitution	-5291
▁recollecting	-5292
▁accommodation	-5293
▁entertainment	-5294
By	-5295
ax	-5296
go	-5297
op	-5298
sc	-5299
ama	-5300
dol	-5301
ics	-5302
ket	-5303
net	-5304
orf	-5305
pho	-5306
rey	-5307
rop	-5308
rue	-5309
acey	-5310
ache	-5311
from	-5312
othe	-5313
poss	-5314
umed	-5315
uten	-5316
▁Mad	-5317
▁amb	-5318
▁deb	-5319
▁die	-5320
▁rob	-5321
▁san	-5322
▁ver	-5323
Where	-5324
idity	-5325
ivity	-5326
lfare	-5327
▁Agat	-5328
▁Many	-5329
▁ange	-5330
▁arms	-5331
▁blow	-5332
▁dirt	-5333
▁enab	-5334
▁fing	-5335
▁hunt	-5336
▁keen	-5337
▁mead	-5338
▁pale	-5339
▁pert	-5340
▁pred	-5341
▁redu	-5342
▁tire	-5343
▁trem	-5344
arying	-5345
dolpho	-5346
orfolk	-5347
otions	-5348
verted	-5349
▁Lacey	-5350
▁awful	-5351
▁bound	-5352
▁bowed	-5353
▁broad	-5354
▁class	-5355
▁decis	-5356
▁disli	-5357
▁exact	-5358
▁fruit	-5359
▁griev	-5360
▁holid	-5361
▁mamma	-5362
▁noisy	-5363
▁shade	-5364
▁swell	-5365
▁thick	-5366
▁topic	-5367
▁unfit	-5368
▁unnat	-5369
▁whist	-5370
respect	-5371
▁Courcy	-5372
▁accent	-5373
▁amount	-5374
▁bottom	-5375
▁bought	-5376
▁double	-5377
▁encoun	-5378
▁energy	-5379
▁experi	-5380
▁gladly	-5381
▁guilty	-5382
▁incess	-5383
▁incons	-5384
▁muslin	-5385
▁nieces	-5386
▁obstin	-5387
▁plenty	-5388
▁resour	-5389
▁riding	-5390
▁stayed	-5391
▁unwell	-5392
▁beneath	-5393
▁capital	-5394
▁curious	-5395
▁deliber	-5396
▁demands	-5397
▁designs	-5398
▁examine	-5399
▁foresee	-5400
▁letting	-5401
▁outward	-5402
▁retired	-5403
▁unusual	-5404
▁warmest	-5405
▁welfare	-5406
▁Allenham	-5407
▁Consider	-5408
▁breaking	-5409
▁horrible	-5410
▁pictures	-5411
▁reminded	-5412
▁signific	-5413
▁slightly	-5414
▁steadily	-5415
▁violence	-5416
▁Harvilles	-5417
▁apologies	-5418
▁deference	-5419
▁disturbed	-5420
▁engrossed	-5421
▁hesitated	-5422
▁housemaid	-5423
▁imperfect	-5424
▁inquiring	-5425
▁interview	-5426
▁performed	-5427
▁professed	-5428
▁repeating	-5429
▁respected	-5430
▁seventeen	-5431
▁strangers	-5432
▁substance	-5433
▁voluntary	-5434
▁whispered	-5435
▁witnessed	-5436
▁Middletons	-5437
▁complaints	-5438
▁conference	-5439
▁deficiency	-5440
▁directions	-5441
▁downstairs	-5442
▁endeavours	-5443
▁estimation	-5444
▁forgetting	-5445
▁liberality	-5446
▁perplexity	-5447
▁regretting	-5448
▁suspecting	-5449
▁accompanied	-5450
▁complacency	-5451
▁overpowered	-5452
▁unexception	-5453
▁inconvenient	-5454
▁perseverance	-5455
▁affectionately	-5456
▁accomplishments	-5457
Me	-5458
nk	-5459
Was	-5460
dig	-5461
eel	-5462
ias	-5463
itc	-5464
lia	-5465
nor	-5466
ases	-5467
bled	-5468
bted	-5469
cket	-5470
door	-5471
enny	-5472
erke	-5473
halt	-5474
phan	-5475
sett	-5476
▁Hug	-5477
▁Ire	-5478
▁fro	-5479
▁sly	-5480
alley	-5481
bable	-5482
every	-5483
icked	-5484
ighed	-5485
oline	-5486
orton	-5487
stead	-5488
stood	-5489
▁bell	-5490
▁ecst	-5491
▁fret	-5492
▁gout	-5493
▁kitc	-5494
▁oper	-5495
▁phil	-5496
▁poet	-5497
▁rude	-5498
▁shel	-5499
▁sold	-5500
▁ungr	-5501
favour	-5502
inclin	-5503
liance	-5504
▁Coles	-5505
▁angel	-5506
▁apply	-5507
▁blood	-5508
▁built	-5509
▁eloqu	-5510
▁grate	-5511
▁impud	-5512
▁insip	-5513
▁plann	-5514
▁revol	-5515
▁stopt	-5516
▁undes	-5517
conduct	-5518
erkeley	-5519
icarage	-5520
ichmond	-5521
parlour	-5522
utenant	-5523
writing	-5524
▁Agatha	-5525
▁Hughes	-5526
▁Morton	-5527
▁captiv	-5528
▁chapel	-5529
▁dearer	-5530
▁insist	-5531
▁overhe	-5532
▁pained	-5533
▁prodig	-5534
▁saving	-5535
informed	-5536
▁Evering	-5537
▁Ireland	-5538
▁Without	-5539
▁ancient	-5540
▁apprehe	-5541
▁created	-5542
▁crossed	-5543
▁decorum	-5544
▁economy	-5545
▁endured	-5546
▁exposed	-5547
▁implied	-5548
▁inconst	-5549
▁kindest	-5550
▁kitchen	-5551
▁placing	-5552
▁procure	-5553
▁rapidly	-5554
▁upright	-5555
▁useless	-5556
▁worldly	-5557
▁admiring	-5558
▁beauties	-5559
▁confused	-5560
▁deserves	-5561
▁detained	-5562
▁drawback	-5563
▁indebted	-5564
▁meetings	-5565
▁openness	-5566
▁pursuits	-5567
▁rapidity	-5568
▁requires	-5569
▁restless	-5570
▁settling	-5571
▁startled	-5572
▁suitable	-5573
rehensible	-5574
▁amendment	-5575
▁assembled	-5576
▁carefully	-5577
▁desperate	-5578
▁examining	-5579
▁extensive	-5580
▁horseback	-5581
▁improving	-5582
▁oppressed	-5583
▁preceding	-5584
▁preserved	-5585
▁provoking	-5586
▁purposely	-5587
▁suspended	-5588
▁unaccount	-5589
▁willingly	-5590
▁Everingham	-5591
▁confession	-5592
▁describing	-5593
▁generosity	-5594
▁misconduct	-5595
▁reconciled	-5596
▁retirement	-5597
▁ungrateful	-5598
▁astonishing	-5599
▁represented	-5600
▁delightfully	-5601
▁acknowledgment	-5602
▁unexceptionable	-5603
!'	-5604
Be	-5605
der	-5606
ilf	-5607
ole	-5608
pes	-5609
phy	-5610
rat	-5611
▁Ah	-5612
▁La	-5613
▁od	-5614
▁om	-5615
four	-5616
part	-5617
uity	-5618
▁Ame	-5619
▁Box	-5620
▁ben	-5621
▁fid	-5622
▁flo	-5623
▁mur	-5624
▁rub	-5625
▁sed	-5626
ected	-5627
grity	-5628
iform	-5629
ilsom	-5630
orted	-5631
ridge	-5632
sight	-5633
sumed	-5634
teney	-5635
uming	-5636
verty	-5637
▁awak	-5638
▁bare	-5639
▁degr	-5640
▁gift	-5641
▁ours	-5642
▁sore	-5643
▁stro	-5644
esides	-5645
urious	-5646
usions	-5647
▁Combe	-5648
▁awake	-5649
▁clock	-5650
▁elope	-5651
▁mount	-5652
▁plays	-5653
▁sadly	-5654
▁shape	-5655
▁sober	-5656
▁treas	-5657
▁unpre	-5658
▁yards	-5659
emember	-5660
enerous	-5661
liation	-5662
picious	-5663
racious	-5664
utation	-5665
▁Amelia	-5666
▁Anhalt	-5667
▁Easter	-5668
▁Exeter	-5669
▁Harley	-5670
▁Milsom	-5671
▁Square	-5672
▁apples	-5673
▁arrive	-5674
▁aspect	-5675
▁basket	-5676
▁coolly	-5677
▁dearly	-5678
▁detail	-5679
▁discom	-5680
▁disord	-5681
▁odious	-5682
▁repose	-5683
▁speedy	-5684
▁valley	-5685
▁wisest	-5686
ometimes	-5687
▁admirer	-5688
▁advised	-5689
▁civilly	-5690
▁conceit	-5691
▁excused	-5692
▁excuses	-5693
▁founded	-5694
▁happens	-5695
▁harbour	-5696
▁imputed	-5697
▁officer	-5698
▁poverty	-5699
▁pursued	-5700
▁remonst	-5701
▁renewal	-5702
▁retreat	-5703
▁showing	-5704
▁uniform	-5705
▁Berkeley	-5706
▁Caroline	-5707
▁activity	-5708
▁agreeing	-5709
▁awakened	-5710
▁coldness	-5711
▁conquest	-5712
▁deserted	-5713
▁distinct	-5714
▁emotions	-5715
▁exchange	-5716
▁fatigued	-5717
▁instinct	-5718
▁irresist	-5719
▁listener	-5720
▁maternal	-5721
▁numerous	-5722
▁ordinary	-5723
▁preserve	-5724
▁pursuing	-5725
▁relating	-5726
▁silenced	-5727
▁stepping	-5728
▁allowance	-5729
▁encounter	-5730
▁entreated	-5731
▁instances	-5732
▁integrity	-5733
▁prejudice	-5734
▁privilege	-5735
▁reconcile	-5736
▁reference	-5737
▁separated	-5738
▁trembling	-5739
▁unnatural	-5740
▁abominable	-5741
▁additional	-5742
▁apartments	-5743
▁consistent	-5744
▁disrespect	-5745
▁foundation	-5746
▁handsomely	-5747
▁lieutenant	-5748
▁maintained	-5749
▁occupation	-5750
▁protection	-5751
▁repetition	-5752
▁respecting	-5753
▁anticipated	-5754
▁attractions	-5755
▁conjectures	-5756
▁intelligent	-5757
▁introducing	-5758
▁accidentally	-5759
▁insufficient	-5760
▁unpardonable	-5761
▁determination	-5762
orthamptonshire	-5763
HE	-5764
bs	-5765
jo	-5766
oe	-5767
ale	-5768
anu	-5769
bby	-5770
bye	-5771
had	-5772
oop	-5773
oso	-5774
ras	-5775
uff	-5776
uit	-5777
▁"'	-5778
▁Am	-5779
▁Se	-5780
?"--	-5781
Will	-5782
arch	-5783
cend	-5784
eorg	-5785
iana	-5786
isen	-5787
lorn	-5788
ming	-5789
rang	-5790
tete	-5791
this	-5792
▁Cli	-5793
▁Cox	-5794
▁Has	-5795
▁cof	-5796
▁cop	-5797
▁mil	-5798
▁mon	-5799
▁oft	-5800
▁vig	-5801
aired	-5802
alled	-5803
aming	-5804
cture	-5805
itate	-5806
onies	-5807
riend	-5808
ugust	-5809
woman	-5810
would	-5811
▁ensu	-5812
▁exec	-5813
▁grou	-5814
▁magn	-5815
▁pair	-5816
▁pure	-5817
▁sple	-5818
▁spru	-5819
▁tete	-5820
acious	-5821
anuary	-5822
encies	-5823
erring	-5824
rances	-5825
▁Somer	-5826
▁amiss	-5827
▁ample	-5828
▁debts	-5829
▁dying	-5830
▁field	-5831
▁heads	-5832
▁infam	-5833
▁merry	-5834
▁north	-5835
▁owned	-5836
▁owner	-5837
▁rough	-5838
▁score	-5839
▁union	-5840
ounding	-5841
turning	-5842
ulation	-5843
ulteney	-5844
urrence	-5845
▁candle	-5846
▁detain	-5847
▁divide	-5848
▁ecstas	-5849
▁famous	-5850
▁fourth	-5851
▁gloomy	-5852
▁hospit	-5853
▁humili	-5854
▁imposs	-5855
▁incumb	-5856
▁parcel	-5857
▁transp	-5858
eorgiana	-5859
▁alluded	-5860
▁claimed	-5861
▁dischar	-5862
▁disdain	-5863
▁dropped	-5864
▁enabled	-5865
▁footing	-5866
▁forlorn	-5867
▁hanging	-5868
▁honours	-5869
▁kingdom	-5870
▁oftener	-5871
▁philoso	-5872
▁refrain	-5873
▁relieve	-5874
▁singing	-5875
▁tidings	-5876
▁uttered	-5877
▁yielded	-5878
▁accustom	-5879
▁assuring	-5880
▁contrive	-5881
▁drinking	-5882
▁esteemed	-5883
▁farewell	-5884
▁goodwill	-5885
▁husbands	-5886
▁original	-5887
▁powerful	-5888
▁reaching	-5889
▁resigned	-5890
▁tranquil	-5891
▁Crawfords	-5892
▁advisable	-5893
▁assertion	-5894
▁disinclin	-5895
▁dismissed	-5896
▁imaginary	-5897
▁inconsist	-5898
▁overpower	-5899
▁possessed	-5900
▁procuring	-5901
▁qualified	-5902
▁quickness	-5903
▁resources	-5904
▁solemnity	-5905
▁undertake	-5906
▁unfeeling	-5907
▁Churchills	-5908
▁acceptance	-5909
▁attributed	-5910
▁containing	-5911
▁exultation	-5912
▁formidable	-5913
▁gratefully	-5914
▁handsomest	-5915
▁inconsider	-5916
▁inducement	-5917
▁prevailing	-5918
▁prosperity	-5919
▁reluctance	-5920
▁resolutely	-5921
▁steadiness	-5922
▁submission	-5923
▁ungenerous	-5924
▁whispering	-5925
▁appointment	-5926
▁ascertained	-5927
▁confinement	-5928
▁employments	-5929
▁invitations	-5930
▁penetration	-5931
▁remembering	-5932
▁confirmation	-5933
▁considerably	-5934
▁disadvantage	-5935
▁dissatisfied	-5936
▁irresistible	-5937
▁unsuspicious	-5938
▁acknowledging	-5939
▁comparatively	-5940
▁impossibility	-5941
▁indisposition	-5942
▁insensibility	-5943
▁unwillingness	-5944
▁reconciliation	-5945
▁respectability	-5946
bo	-5947
sm	-5948
sp	-5949
ts	-5950
Had	-5951
rav	-5952
ued	-5953
▁sn	-5954
▁vo	-5955
Lord	-5956
aced	-5957
arte	-5958
bers	-5959
leep	-5960
more	-5961
quet	-5962
reci	-5963
rous	-5964
▁Ant	-5965
▁Its	-5966
▁Lod	-5967
▁Sur	-5968
▁hed	-5969
▁top	-5970
▁unb	-5971
anter	-5972
antic	-5973
eding	-5974
icule	-5975
impse	-5976
lieve	-5977
phant	-5978
▁Cobb	-5979
▁Look	-5980
▁Scot	-5981
▁blue	-5982
▁crim	-5983
▁ling	-5984
▁meal	-5985
▁mode	-5986
▁mour	-5987
▁pack	-5988
▁page	-5989
▁roof	-5990
▁temp	-5991
▁unse	-5992
▁wide	-5993
atible	-5994
coming	-5995
laimed	-5996
veying	-5997
▁Again	-5998
▁Mamma	-5999
▁Thank	-6000
▁adapt	-6001
▁aunts	-6002
▁bewit	-6003
▁billi	-6004
▁brain	-6005
▁enfor	-6006
▁exhib	-6007
▁faces	-6008
▁freed	-6009
▁inher	-6010
▁joint	-6011
▁ninet	-6012
▁owing	-6013
▁paint	-6014
▁plant	-6015
▁weary	-6016
ication	-6017
ignific	-6018
isition	-6019
itating	-6020
settled	-6021
version	-6022
whether	-6023
▁August	-6024
▁Indies	-6025
▁bonnet	-6026
▁causes	-6027
▁footst	-6028
▁forbid	-6029
▁gently	-6030
▁imagin	-6031
▁insinu	-6032
▁invent	-6033
▁labour	-6034
▁likeli	-6035
▁nurser	-6036
▁pocket	-6037
▁portra	-6038
▁render	-6039
▁sickly	-6040
▁sighed	-6041
▁wicked	-6042
▁writes	-6043
appeared	-6044
▁Lucases	-6045
▁blinded	-6046
▁clearer	-6047
▁clearly	-6048
▁condemn	-6049
▁decline	-6050
▁degrees	-6051
▁fearing	-6052
▁gaining	-6053
▁genteel	-6054
▁glimpse	-6055
▁harmony	-6056
▁heavens	-6057
▁imposed	-6058
▁inhabit	-6059
▁luckily	-6060
▁praised	-6061
▁preposs	-6062
▁prevail	-6063
▁provide	-6064
▁proving	-6065
▁raising	-6066
▁resumed	-6067
▁reverie	-6068
▁somehow	-6069
▁stepped	-6070
▁warrant	-6071
abilities	-6072
▁Suckling	-6073
▁acquired	-6074
▁ambition	-6075
▁assembly	-6076
▁deprived	-6077
▁designed	-6078
▁disposal	-6079
▁doubting	-6080
▁examined	-6081
▁exciting	-6082
▁fatigues	-6083
▁graceful	-6084
▁holidays	-6085
▁honestly	-6086
▁involunt	-6087
▁lessened	-6088
▁nineteen	-6089
▁provoked	-6090
▁punctual	-6091
▁resisted	-6092
▁soothing	-6093
▁terrible	-6094
▁tiresome	-6095
▁unfavour	-6096
▁unlikely	-6097
▁attribute	-6098
▁completed	-6099
▁conceited	-6100
▁confessed	-6101
▁declining	-6102
▁dependent	-6103
▁dignified	-6104
▁elopement	-6105
▁enquiries	-6106
▁impartial	-6107
▁producing	-6108
▁provision	-6109
▁regularly	-6110
▁rehearsal	-6111
▁stupidity	-6112
▁wandering	-6113
▁bitterness	-6114
▁flirtation	-6115
▁insignific	-6116
▁permission	-6117
▁persuading	-6118
▁scrupulous	-6119
▁successful	-6120
▁ungracious	-6121
▁unkindness	-6122
▁attachments	-6123
▁benevolence	-6124
▁experienced	-6125
▁fashionable	-6126
▁hospitality	-6127
▁inferiority	-6128
▁presumption	-6129
▁pretensions	-6130
▁speculation	-6131
▁extravagance	-6132
▁impertinence	-6133
▁preparations	-6134
▁recommending	-6135
▁correspondent	-6136
▁unaccountable	-6137
EA	-6138
--'	-6139
cil	-6140
fee	-6141
ims	-6142
iny	-6143
rob	-6144
saw	-6145
ulf	-6146
Lady	-6147
aled	-6148
aron	-6149
arts	-6150
chie	-6151
coat	-6152
fton	-6153
gard	-6154
peak	-6155
ront	-6156
time	-6157
ular	-6158
velo	-6159
▁Any	-6160
▁bef	-6161
▁cab	-6162
▁glo	-6163
▁kne	-6164
▁mal	-6165
▁ost	-6166
▁pou	-6167
▁qui	-6168
▁sli	-6169
▁vou	-6170
acles	-6171
actly	-6172
agger	-6173
cript	-6174
cting	-6175
ctive	-6176
ellow	-6177
imate	-6178
licit	-6179
overs	-6180
quite	-6181
rooms	-6182
▁Lark	-6183
▁Much	-6184
▁adjo	-6185
▁alas	-6186
▁aven	-6187
▁bord	-6188
▁cher	-6189
▁damp	-6190
▁depl	-6191
▁dish	-6192
▁lord	-6193
▁obey	-6194
▁pang	-6195
▁pork	-6196
▁prem	-6197
▁rent	-6198
▁ship	-6199
▁slee	-6200
▁stra	-6201
erably	-6202
ically	-6203
idious	-6204
itably	-6205
lesome	-6206
rained	-6207
uation	-6208
usable	-6209
▁Lodge	-6210
▁Since	-6211
▁atone	-6212
▁chest	-6213
▁compr	-6214
▁dissu	-6215
▁embra	-6216
▁gates	-6217
▁glass	-6218
▁hated	-6219
▁indec	-6220
▁infli	-6221
▁model	-6222
▁skill	-6223
▁solid	-6224
▁stock	-6225
▁stone	-6226
▁stret	-6227
▁swall	-6228
▁sweep	-6229
▁waste	-6230
isposed	-6231
lymouth	-6232
meaning	-6233
ouncing	-6234
pection	-6235
ruction	-6236
▁beheld	-6237
▁bewild	-6238
▁centre	-6239
▁coffee	-6240
▁denial	-6241
▁disper	-6242
▁dissip	-6243
▁eleven	-6244
▁enable	-6245
▁errors	-6246
▁fidget	-6247
▁finery	-6248
▁firmly	-6249
▁flower	-6250
▁govern	-6251
▁gravel	-6252
▁guests	-6253
▁hearty	-6254
▁hyster	-6255
▁jumped	-6256
▁lesson	-6257
▁liable	-6258
▁lovers	-6259
▁luxury	-6260
▁offers	-6261
▁perman	-6262
▁plague	-6263
▁plants	-6264
▁remind	-6265
▁spoilt	-6266
▁talker	-6267
▁vacant	-6268
▁writer	-6269
▁Clifton	-6270
▁Larkins	-6271
▁Martins	-6272
▁Thorpes	-6273
▁affront	-6274
▁artless	-6275
▁becomes	-6276
▁charity	-6277
▁compose	-6278
▁console	-6279
▁cutting	-6280
▁defence	-6281
▁depends	-6282
▁derived	-6283
▁feature	-6284
▁females	-6285
▁folding	-6286
▁freedom	-6287
▁impulse	-6288
▁invalid	-6289
▁knocked	-6290
▁nursery	-6291
▁penance	-6292
▁provoke	-6293
▁shyness	-6294
▁streets	-6295
▁subdued	-6296
▁symptom	-6297
▁allusion	-6298
▁bitterly	-6299
▁decisive	-6300
▁division	-6301
▁faithful	-6302
▁governed	-6303
▁guardian	-6304
▁hardened	-6305
▁helpless	-6306
▁humility	-6307
▁needless	-6308
▁partners	-6309
▁promises	-6310
▁ridicule	-6311
▁services	-6312
▁situated	-6313
▁trusting	-6314
orthampton	-6315
▁abundance	-6316
▁assisting	-6317
▁benefited	-6318
▁betraying	-6319
▁brilliant	-6320
▁exploring	-6321
▁frightful	-6322
▁incessant	-6323
▁incumbent	-6324
▁indispens	-6325
▁promotion	-6326
▁unluckily	-6327
▁unreserve	-6328
▁amusements	-6329
▁concealing	-6330
▁concluding	-6331
▁contradict	-6332
▁conversing	-6333
▁enjoyments	-6334
▁exclaiming	-6335
▁intimately	-6336
▁liveliness	-6337
▁pleasanter	-6338
▁rationally	-6339
▁triumphant	-6340
▁appearances	-6341
▁attentively	-6342
▁exclamation	-6343
▁impatiently	-6344
▁unhappiness	-6345
▁comprehended	-6346
▁strengthened	-6347
▁acquaintances	-6348
▁apprehensions	-6349
▁compassionate	-6350
▁misunderstood	-6351
▁opportunities	-6352
▁distinguishing	-6353
Li	-6354
ks	-6355
Tis	-6356
ats	-6357
box	-6358
cal	-6359
cto	-6360
ece	-6361
eed	-6362
hus	-6363
ipt	-6364
lar	-6365
min	-6366
off	-6367
ope	-6368
upp	-6369
vet	-6370
yes	-6371
ades	-6372
ator	-6373
atte	-6374
atty	-6375
born	-6376
gged	-6377
give	-6378
hael	-6379
lebr	-6380
poor	-6381
said	-6382
till	-6383
wers	-6384
▁Mic	-6385
▁ate	-6386
▁awe	-6387
▁dar	-6388
▁dup	-6389
▁fer	-6390
▁fet	-6391
▁fra	-6392
▁fun	-6393
▁gig	-6394
▁gle	-6395
▁ted	-6396
Every	-6397
astle	-6398
breed	-6399
haust	-6400
idden	-6401
rants	-6402
repro	-6403
timed	-6404
ulous	-6405
▁Harr	-6406
▁Soon	-6407
▁abst	-6408
▁canv	-6409
▁conj	-6410
▁cook	-6411
▁drop	-6412
▁enem	-6413
▁fulf	-6414
▁gold	-6415
▁hide	-6416
▁irre	-6417
▁issu	-6418
▁lamp	-6419
▁mare	-6420
▁merc	-6421
▁pond	-6422
▁reve	-6423
▁secl	-6424
▁shaw	-6425
▁tree	-6426
abouts	-6427
aneous	-6428
ctober	-6429
iences	-6430
indeed	-6431
isions	-6432
isting	-6433
ligent	-6434
minded	-6435
nected	-6436
ushing	-6437
▁About	-6438
▁Baron	-6439
▁Carte	-6440
▁Happy	-6441
▁Three	-6442
▁blund	-6443
▁bread	-6444
▁calls	-6445
▁cases	-6446
▁devil	-6447
▁dropt	-6448
▁enclo	-6449
▁glory	-6450
▁group	-6451
▁guine	-6452
▁holds	-6453
▁incur	-6454
▁monst	-6455
▁overc	-6456
▁pages	-6457
▁repul	-6458
▁reven	-6459
▁rival	-6460
▁serve	-6461
▁spark	-6462
▁straw	-6463
▁train	-6464
▁unite	-6465
▁using	-6466
▁vouch	-6467
▁works	-6468
because	-6469
cending	-6470
haelmas	-6471
henever	-6472
ottager	-6473
ponding	-6474
ression	-6475
▁accuse	-6476
▁advent	-6477
▁amidst	-6478
▁candid	-6479
▁celebr	-6480
▁coarse	-6481
▁create	-6482
▁crying	-6483
▁deceit	-6484
▁enthus	-6485
▁flight	-6486
▁grieve	-6487
▁handed	-6488
▁ingrat	-6489
▁intend	-6490
▁invest	-6491
▁misled	-6492
▁papers	-6493
▁parade	-6494
▁proofs	-6495
▁raptur	-6496
▁reckon	-6497
▁ruined	-6498
▁sailor	-6499
▁shaken	-6500
▁shared	-6501
▁splend	-6502
▁unfair	-6503
▁urging	-6504
▁whence	-6505
breeding	-6506
▁Besides	-6507
▁Instead	-6508
▁accused	-6509
▁arising	-6510
▁boasted	-6511
▁breathe	-6512
▁chances	-6513
▁changes	-6514
▁destiny	-6515
▁dinners	-6516
▁ecstasy	-6517
▁enquiry	-6518
▁exerted	-6519
▁follows	-6520
▁forever	-6521
▁furnish	-6522
▁gardens	-6523
▁gratify	-6524
▁meadows	-6525
▁reduced	-6526
▁release	-6527
▁sources	-6528
▁studied	-6529
▁tempers	-6530
▁whither	-6531
▁Carteret	-6532
▁arriving	-6533
▁billiard	-6534
▁declares	-6535
▁disliked	-6536
▁estimate	-6537
▁extended	-6538
▁firmness	-6539
▁fondness	-6540
▁grievous	-6541
▁headache	-6542
▁idleness	-6543
▁intently	-6544
▁pointing	-6545
▁politely	-6546
▁presumed	-6547
▁prompted	-6548
▁reckoned	-6549
▁rejected	-6550
▁restrain	-6551
▁sanction	-6552
▁severely	-6553
▁silently	-6554
▁treating	-6555
▁trembled	-6556
▁withdrew	-6557
ifications	-6558
▁absurdity	-6559
▁adjoining	-6560
▁agreement	-6561
▁arguments	-6562
▁blameless	-6563
▁blessings	-6564
▁blindness	-6565
▁colouring	-6566
▁commanded	-6567
▁conducted	-6568
▁cordially	-6569
▁discerned	-6570
▁grandmama	-6571
▁happening	-6572
▁indulgent	-6573
▁indulging	-6574
▁ingenuity	-6575
▁monstrous	-6576
▁negligent	-6577
▁obstinate	-6578
▁perpetual	-6579
▁pretended	-6580
▁rejoicing	-6581
▁scattered	-6582
▁simpleton	-6583
▁thousands	-6584
▁Michaelmas	-6585
▁abhorrence	-6586
▁contracted	-6587
▁creditable	-6588
▁diffidence	-6589
▁indisposed	-6590
▁inevitably	-6591
▁management	-6592
▁moderation	-6593
▁originally	-6594
▁overlooked	-6595
▁persevered	-6596
▁preventing	-6597
▁prosperous	-6598
▁conjectured	-6599
▁considerate	-6600
▁extravagant	-6601
▁fortunately	-6602
▁inconstancy	-6603
▁quarrelling	-6604
▁surrounding	-6605
▁thoughtless	-6606
▁uncertainty	-6607
▁apprehensive	-6608
▁consequences	-6609
▁entertaining	-6610
▁inclinations	-6611
▁unfavourable	-6612
▁Somersetshire	-6613
▁comprehending	-6614
▁contemplation	-6615
▁considerations	-6616
Ay	-6617
LI	-6618
gs	-6619
aby	-6620
did	-6621
ker	-6622
lew	-6623
ues	-6624
why	-6625
▁oh	-6626
True	-6627
agna	-6628
aker	-6629
book	-6630
chan	-6631
cili	-6632
cont	-6633
have	-6634
idge	-6635
impo	-6636
ivid	-6637
much	-6638
pled	-6639
pril	-6640
rate	-6641
ratt	-6642
rent	-6643
runs	-6644
sion	-6645
umer	-6646
unes	-6647
▁Ecc	-6648
▁Sam	-6649
▁agg	-6650
▁aid	-6651
▁cru	-6652
▁dou	-6653
▁dra	-6654
▁dur	-6655
▁mid	-6656
▁phr	-6657
▁ram	-6658
▁rum	-6659
▁unm	-6660
▁van	-6661
These	-6662
asted	-6663
attle	-6664
board	-6665
hetic	-6666
idant	-6667
ifted	-6668
inity	-6669
irley	-6670
nings	-6671
onial	-6672
orous	-6673
riday	-6674
stery	-6675
▁baby	-6676
▁beat	-6677
▁comb	-6678
▁date	-6679
▁empt	-6680
▁feet	-6681
▁gets	-6682
▁intr	-6683
▁meat	-6684
▁mill	-6685
▁pull	-6686
▁ribb	-6687
▁sele	-6688
▁skin	-6689
▁unce	-6690
▁ungu	-6691
▁unst	-6692
▁wilf	-6693
ailing	-6694
atched	-6695
atious	-6696
church	-6697
entive	-6698
except	-6699
import	-6700
judged	-6701
utions	-6702
▁April	-6703
▁Bruns	-6704
▁Magna	-6705
▁Shall	-6706
▁South	-6707
▁Still	-6708
▁Winth	-6709
▁alloy	-6710
▁chain	-6711
▁disgu	-6712
▁floor	-6713
▁grant	-6714
▁guide	-6715
▁knoll	-6716
▁liter	-6717
▁mixed	-6718
▁prior	-6719
▁range	-6720
▁seats	-6721
▁shawl	-6722
▁shill	-6723
▁south	-6724
▁tease	-6725
▁terri	-6726
▁wiser	-6727
Colonel	-6728
ariably	-6729
atingly	-6730
borough	-6731
lesford	-6732
sequent	-6733
unction	-6734
without	-6735
▁Little	-6736
▁Mother	-6737
▁alarms	-6738
▁arisen	-6739
▁avenue	-6740
▁barely	-6741
▁behalf	-6742
▁breach	-6743
▁brings	-6744
▁courte	-6745
▁curate	-6746
▁custom	-6747
▁daring	-6748
▁deemed	-6749
▁disreg	-6750
▁helped	-6751
▁intrud	-6752
▁killed	-6753
▁needle	-6754
▁nights	-6755
▁pertur	-6756
▁propri	-6757
▁rained	-6758
▁rushed	-6759
▁served	-6760
▁shrink	-6761
▁social	-6762
▁sports	-6763
▁travel	-6764
▁vastly	-6765
disposed	-6766
iousness	-6767
▁Between	-6768
▁Shirley	-6769
▁Westons	-6770
▁Whether	-6771
▁adapted	-6772
▁answers	-6773
▁bearing	-6774
▁blunder	-6775
▁candour	-6776
▁contriv	-6777
▁covered	-6778
▁curtain	-6779
▁dispose	-6780
▁efforts	-6781
▁existed	-6782
▁glowing	-6783
▁individ	-6784
▁insipid	-6785
▁involve	-6786
▁languid	-6787
▁limited	-6788
▁numbers	-6789
▁pervers	-6790
▁playful	-6791
▁reality	-6792
▁scolded	-6793
▁sharing	-6794
▁smaller	-6795
▁sorrows	-6796
▁steward	-6797
▁summons	-6798
▁surmise	-6799
▁teasing	-6800
▁utility	-6801
▁wonders	-6802
▁wounded	-6803
something	-6804
▁Cottager	-6805
▁Scotland	-6806
▁Winthrop	-6807
▁abruptly	-6808
▁ballroom	-6809
▁breeding	-6810
▁dissuade	-6811
▁fourteen	-6812
▁grieving	-6813
▁hardship	-6814
▁hesitate	-6815
▁humanity	-6816
▁insolent	-6817
▁inspired	-6818
▁noticing	-6819
▁pitiable	-6820
▁recalled	-6821
▁recently	-6822
▁released	-6823
▁romantic	-6824
▁securing	-6825
▁spacious	-6826
▁straight	-6827
▁yielding	-6828
▁Brunswick	-6829
▁Sometimes	-6830
▁appointed	-6831
▁confidant	-6832
▁consented	-6833
▁declaring	-6834
▁dejection	-6835
▁exception	-6836
▁expensive	-6837
▁furnished	-6838
▁handsomer	-6839
▁intellect	-6840
▁permitted	-6841
▁prettiest	-6842
▁promoting	-6843
▁reflected	-6844
▁requiring	-6845
▁sentences	-6846
▁sorrowful	-6847
▁variation	-6848
▁violently	-6849
▁Ecclesford	-6850
▁accidental	-6851
▁attractive	-6852
▁bewildered	-6853
▁bewitching	-6854
▁carelessly	-6855
▁compliance	-6856
▁composedly	-6857
▁convincing	-6858
▁counteract	-6859
▁expressive	-6860
▁improbable	-6861
▁invariably	-6862
▁lengthened	-6863
▁likelihood	-6864
▁questioned	-6865
▁solicitous	-6866
▁subsequent	-6867
▁threatened	-6868
▁usefulness	-6869
▁yourselves	-6870
▁acquisition	-6871
▁discernment	-6872
▁grandmother	-6873
▁inattention	-6874
▁refreshment	-6875
▁unconnected	-6876
▁universally	-6877
▁advantageous	-6878
▁contradicted	-6879
▁disagreement	-6880
▁exclamations	-6881
▁overpowering	-6882
▁perverseness	-6883
▁remonstrance	-6884
▁congratulated	-6885
▁misunderstand	-6886
▁unconsciously	-6887
▁accomplishment	-6888
▁communications	-6889
▁disinclination	-6890
▁disappointments	-6891
▁recommendations	-6892
Ab	-6893
ah	-6894
bl	-6895
ef	-6896
gl	-6897
Has	-6898
alf	-6899
ams	-6900
ank	-6901
cks	-6902
elt	-6903
evi	-6904
lds	-6905
rec	-6906
▁au	-6907
,--"	-6908
;--"	-6909
Char	-6910
aked	-6911
ambt	-6912
bute	-6913
cuse	-6914
eyno	-6915
ogue	-6916
ooms	-6917
pent	-6918
ping	-6919
told	-6920
▁Ali	-6921
▁Bra	-6922
▁Mon	-6923
▁fly	-6924
▁god	-6925
▁lin	-6926
▁pac	-6927
▁pin	-6928
▁tro	-6929
▁viv	-6930
andal	-6931
antel	-6932
bling	-6933
elina	-6934
ental	-6935
ferer	-6936
lived	-6937
octor	-6938
orned	-6939
pular	-6940
raser	-6941
rated	-6942
ussex	-6943
▁Half	-6944
▁Most	-6945
▁Sure	-6946
▁Time	-6947
▁Whit	-6948
▁Wing	-6949
▁bend	-6950
▁bran	-6951
▁dock	-6952
▁flew	-6953
▁food	-6954
▁iron	-6955
▁mend	-6956
▁murm	-6957
▁plea	-6958
▁pupp	-6959
▁scra	-6960
▁sell	-6961
▁snug	-6962
▁triv	-6963
▁vind	-6964
▁wall	-6965
almers	-6966
almost	-6967
ambton	-6968
athing	-6969
cation	-6970
encing	-6971
erness	-6972
establ	-6973
gments	-6974
icable	-6975
ifully	-6976
kinson	-6977
lanted	-6978
making	-6979
oncert	-6980
orable	-6981
ristol	-6982
things	-6983
▁Adieu	-6984
▁March	-6985
▁adieu	-6986
▁afflu	-6987
▁alert	-6988
▁assid	-6989
▁avail	-6990
▁beaux	-6991
▁bench	-6992
▁forms	-6993
▁frost	-6994
▁hedge	-6995
▁imped	-6996
▁indef	-6997
▁infat	-6998
▁mercy	-6999
▁mirth	-7000
▁novel	-7001
▁poult	-7002
▁river	-7003
▁roads	-7004
▁safer	-7005
▁shows	-7006
▁spect	-7007
▁store	-7008
▁stuff	-7009
▁trace	-7010
▁trade	-7011
▁unans	-7012
▁wives	-7013
eynolds	-7014
judging	-7015
oration	-7016
tending	-7017
▁Harris	-7018
▁Sussex	-7019
▁Within	-7020
▁artful	-7021
▁asleep	-7022
▁begins	-7023
▁butler	-7024
▁calmer	-7025
▁caring	-7026
▁darted	-7027
▁delays	-7028
▁disclo	-7029
▁dispar	-7030
▁dispos	-7031
▁dissim	-7032
▁easier	-7033
▁extrem	-7034
▁farmer	-7035
▁kinder	-7036
▁kissed	-7037
▁mantel	-7038
▁mental	-7039
▁myster	-7040
▁novels	-7041
▁obtain	-7042
▁overth	-7043
▁patter	-7044
▁phrase	-7045
▁poetry	-7046
▁pursue	-7047
▁remiss	-7048
▁resign	-7049
▁search	-7050
▁sermon	-7051
▁shadow	-7052
▁silver	-7053
▁sketch	-7054
▁solely	-7055
▁soothe	-7056
▁sprung	-7057
▁stream	-7058
▁subdue	-7059
▁survey	-7060
▁truths	-7061
▁varied	-7062
▁voices	-7063
▁Bennets	-7064
▁Bristol	-7065
▁Lambton	-7066
▁artific	-7067
▁begging	-7068
▁butcher	-7069
▁cabinet	-7070
▁caprice	-7071
▁chooses	-7072
▁closely	-7073
▁condesc	-7074
▁courtes	-7075
▁darling	-7076
▁despise	-7077
▁endless	-7078
▁exhaust	-7079
▁explore	-7080
▁fancies	-7081
▁fingers	-7082
▁forcing	-7083
▁granted	-7084
▁heroism	-7085
▁holding	-7086
▁hunting	-7087
▁languor	-7088
▁lecture	-7089
▁mansion	-7090
▁masters	-7091
▁mystery	-7092
▁perusal	-7093
▁pitiful	-7094
▁popular	-7095
▁propens	-7096
▁receipt	-7097
▁revenge	-7098
▁rightly	-7099
▁shaking	-7100
▁sighing	-7101
▁supplic	-7102
▁tribute	-7103
▁trivial	-7104
▁varying	-7105
▁visible	-7106
▁applying	-7107
▁appropri	-7108
▁astonish	-7109
▁banished	-7110
▁blushing	-7111
▁converse	-7112
▁critical	-7113
▁despatch	-7114
▁detected	-7115
▁discreet	-7116
▁dockyard	-7117
▁effusion	-7118
▁elevated	-7119
▁fearless	-7120
▁foretold	-7121
▁glancing	-7122
▁humoured	-7123
▁indolent	-7124
▁insisted	-7125
▁joyfully	-7126
▁lamented	-7127
▁mildness	-7128
▁negative	-7129
▁opposing	-7130
▁passages	-7131
▁propriet	-7132
▁secondly	-7133
▁severity	-7134
▁sleeping	-7135
▁sufferer	-7136
▁summoned	-7137
▁theatric	-7138
▁thirteen	-7139
▁treasure	-7140
▁unfolded	-7141
▁withdraw	-7142
▁Christian	-7143
▁Wingfield	-7144
▁admitting	-7145
▁advancing	-7146
▁affording	-7147
▁agreeably	-7148
▁allowable	-7149
▁comforted	-7150
▁comprised	-7151
▁consoling	-7152
▁conveying	-7153
▁depressed	-7154
▁directing	-7155
▁disgusted	-7156
▁displayed	-7157
▁eloquence	-7158
▁footsteps	-7159
▁innocence	-7160
▁interests	-7161
▁interfere	-7162
▁intrusion	-7163
▁invention	-7164
▁judicious	-7165
▁lamenting	-7166
▁offending	-7167
▁ornaments	-7168
▁overheard	-7169
▁pronounce	-7170
▁sleepless	-7171
▁unguarded	-7172
▁universal	-7173
▁unsettled	-7174
▁withdrawn	-7175
▁authorised	-7176
▁brilliancy	-7177
▁celebrated	-7178
▁collecting	-7179
▁concerning	-7180
▁consequent	-7181
▁contriving	-7182
▁disgusting	-7183
▁interposed	-7184
▁restrained	-7185
▁suggestion	-7186
▁suspicious	-7187
▁thankfully	-7188
▁wilderness	-7189
▁attributing	-7190
▁concurrence	-7191
▁familiarity	-7192
▁forgiveness	-7193
▁ingratitude	-7194
▁matrimonial	-7195
▁meditations	-7196
▁picturesque	-7197
▁significant	-7198
▁supposition	-7199
▁unconcerned	-7200
▁unwillingly	-7201
▁willingness	-7202
▁explanations	-7203
▁perturbation	-7204
▁presentation	-7205
▁unexpectedly	-7206
▁unpretending	-7207
▁probabilities	-7208
▁accommodations	-7209
▁thoughtfulness	-7210
ai	-7211
ds	-7212
si	-7213
ua	-7214
'--	-7215
THE	-7216
afe	-7217
awd	-7218
bar	-7219
boy	-7220
can	-7221
cer	-7222
cia	-7223
cim	-7224
haw	-7225
key	-7226
leg	-7227
ogn	-7228
oom	-7229
pla	-7230
ros	-7231
rov	-7232
tar	-7233
ura	-7234
yer	-7235
▁Ar	-7236
▁Bl	-7237
▁Ir	-7238
▁ug	-7239
.'--	-7240
acon	-7241
anim	-7242
atic	-7243
bury	-7244
ceiv	-7245
cham	-7246
gest	-7247
haet	-7248
heas	-7249
iasm	-7250
ieus	-7251
igua	-7252
irst	-7253
ivil	-7254
ixed	-7255
long	-7256
mour	-7257
ones	-7258
oose	-7259
orse	-7260
port	-7261
pret	-7262
side	-7263
stem	-7264
tern	-7265
udes	-7266
ulty	-7267
vere	-7268
xcom	-7269
▁Cha	-7270
▁Con	-7271
▁End	-7272
▁Hon	-7273
▁Lee	-7274
▁Sha	-7275
▁Sto	-7276
▁Ten	-7277
▁amp	-7278
▁bos	-7279
▁das	-7280
▁del	-7281
▁egg	-7282
▁hun	-7283
▁nic	-7284
▁oak	-7285
▁orc	-7286
▁ren	-7287
▁rou	-7288
▁sam	-7289
▁sky	-7290
▁tax	-7291
▁tur	-7292
▁vic	-7293
▁wra	-7294
About	-7295
alian	-7296
astic	-7297
erson	-7298
estib	-7299
etite	-7300
gered	-7301
iders	-7302
iency	-7303
inent	-7304
irons	-7305
ishes	-7306
kespe	-7307
liest	-7308
osing	-7309
oward	-7310
umber	-7311
uries	-7312
xious	-7313
▁Monk	-7314
▁More	-7315
▁Spit	-7316
▁airs	-7317
▁dawd	-7318
▁defy	-7319
▁ears	-7320
▁glee	-7321
▁hind	-7322
▁kiss	-7323
▁lace	-7324
▁lies	-7325
▁phys	-7326
▁quad	-7327
▁rode	-7328
▁roll	-7329
▁sang	-7330
▁succ	-7331
▁surv	-7332
▁torn	-7333
▁tort	-7334
▁vice	-7335
▁warn	-7336
▁west	-7337
Though	-7338
always	-7339
ancies	-7340
anting	-7341
assing	-7342
denial	-7343
hanged	-7344
houses	-7345
idding	-7346
igning	-7347
iments	-7348
impole	-7349
onious	-7350
▁Count	-7351
▁Harry	-7352
▁Irish	-7353
▁Laura	-7354
▁Small	-7355
▁Surry	-7356
▁White	-7357
▁accus	-7358
▁cheap	-7359
▁clean	-7360
▁enlar	-7361
▁faire	-7362
▁falls	-7363
▁finds	-7364
▁forfe	-7365
▁frame	-7366
▁grove	-7367
▁gruel	-7368
▁indub	-7369
▁inexp	-7370
▁knife	-7371
▁knock	-7372
▁nomin	-7373
▁phaet	-7374
▁pheas	-7375
▁prime	-7376
▁prope	-7377
▁recur	-7378
▁rules	-7379
▁satin	-7380
▁scold	-7381
▁sheet	-7382
▁shoes	-7383
▁slept	-7384
▁stake	-7385
▁stamp	-7386
▁trunk	-7387
▁whims	-7388
consequ	-7389
ifiable	-7390
sighted	-7391
verting	-7392
▁Alicia	-7393
▁Lovers	-7394
▁adieus	-7395
▁affron	-7396
▁ardour	-7397
▁banish	-7398
▁beings	-7399
▁carpet	-7400
▁clouds	-7401
▁compet	-7402
▁coxcom	-7403
▁curacy	-7404
▁encumb	-7405
▁ensure	-7406
▁enumer	-7407
▁excurs	-7408
▁fondly	-7409
▁forest	-7410
▁freely	-7411
▁gather	-7412
▁halloo	-7413
▁infect	-7414
▁injure	-7415
▁interm	-7416
▁latest	-7417
▁lawyer	-7418
▁laying	-7419
▁loving	-7420
▁misapp	-7421
▁profit	-7422
▁reader	-7423
▁recogn	-7424
▁relent	-7425
▁reprob	-7426
▁review	-7427
▁series	-7428
▁specim	-7429
▁tempor	-7430
▁testim	-7431
▁thread	-7432
▁unseen	-7433
▁vestib	-7434
▁warmer	-7435
▁wisely	-7436
enkinson	-7437
kespeare	-7438
plaister	-7439
▁Antigua	-7440
▁Italian	-7441
▁Wimpole	-7442
▁acquire	-7443
▁acutely	-7444
▁augment	-7445
▁briefly	-7446
▁captain	-7447
▁complet	-7448
▁connect	-7449
▁contain	-7450
▁crowded	-7451
▁defects	-7452
▁dictate	-7453
▁draught	-7454
▁fervent	-7455
▁filling	-7456
▁foresaw	-7457
▁guineas	-7458
▁honesty	-7459
▁horrors	-7460
▁humbled	-7461
▁journal	-7462
▁missing	-7463
▁planned	-7464
▁poultry	-7465
▁scandal	-7466
▁shelter	-7467
▁stretch	-7468
▁suffice	-7469
▁tenants	-7470
▁tremble	-7471
▁winding	-7472
Something	-7473
certainly	-7474
▁Spithead	-7475
▁Whenever	-7476
▁alternat	-7477
▁ascended	-7478
▁asserted	-7479
▁attitude	-7480
▁behaving	-7481
▁changing	-7482
▁checking	-7483
▁creating	-7484
▁defiance	-7485
▁departed	-7486
▁despised	-7487
▁disguise	-7488
▁disorder	-7489
▁diverted	-7490
▁drawings	-7491
▁educated	-7492
▁environs	-7493
▁exposing	-7494
▁feverish	-7495
▁impudent	-7496
▁investig	-7497
▁magnific	-7498
▁mourning	-7499
▁overcame	-7500
▁polished	-7501
▁practise	-7502
▁presents	-7503
▁prettily	-7504
▁rehearse	-7505
▁replying	-7506
▁retained	-7507
▁rewarded	-7508
▁scolding	-7509
▁sensibly	-7510
▁sisterly	-7511
▁strawber	-7512
▁thanking	-7513
▁underval	-7514
▁vivacity	-7515
racechurch	-7516
▁afflicted	-7517
▁affluence	-7518
▁arranging	-7519
▁attaching	-7520
▁ceaseless	-7521
▁comparing	-7522
▁considers	-7523
▁courteous	-7524
▁detection	-7525
▁discredit	-7526
▁discussed	-7527
▁disparity	-7528
▁effusions	-7529
▁faultless	-7530
▁feelingly	-7531
▁formality	-7532
▁gentility	-7533
▁household	-7534
▁including	-7535
▁inconceiv	-7536
▁injurious	-7537
▁insolence	-7538
▁irritated	-7539
▁lingering	-7540
▁officious	-7541
▁patroness	-7542
▁rapturous	-7543
▁requested	-7544
▁resentful	-7545
▁sparkling	-7546
▁struggled	-7547
▁supplying	-7548
▁varieties	-7549
▁vestibule	-7550
▁allowances	-7551
▁artificial	-7552
▁beforehand	-7553
▁benevolent	-7554
▁brightened	-7555
▁charmingly	-7556
▁discerning	-7557
▁dissimilar	-7558
▁distinctly	-7559
▁enthusiasm	-7560
▁expediency	-7561
▁incredible	-7562
▁personally	-7563
▁preferring	-7564
▁prejudiced	-7565
▁privileged	-7566
▁prodigious	-7567
▁reproaches	-7568
▁sacrificed	-7569
▁spectacles	-7570
▁unreserved	-7571
▁Shakespeare	-7572
▁accommodate	-7573
▁affectation	-7574
▁comparative	-7575
▁contrivance	-7576
▁disgraceful	-7577
▁disregarded	-7578
▁handwriting	-7579
▁humiliation	-7580
▁impressions	-7581
▁infatuation	-7582
▁instruction	-7583
▁mantelpiece	-7584
▁playfulness	-7585
▁proceedings	-7586
▁shrubberies	-7587
▁accompanying	-7588
▁anticipation	-7589
▁consultation	-7590
▁dispositions	-7591
▁hesitatingly	-7592
▁representing	-7593
▁condescension	-7594
▁indispensable	-7595
▁objectionable	-7596
▁particularity	-7597
▁inconveniences	-7598
AM	-7599
Al	-7600
Ed	-7601
Ha	-7602
fl	-7603
Bec	-7604
May	-7605
avo	-7606
bod	-7607
don	-7608
dox	-7609
edy	-7610
ept	-7611
ium	-7612
lif	-7613
nes	-7614
oke	-7615
spe	-7616
▁Ay	-7617
▁CA	-7618
▁Cl	-7619
▁Es	-7620
▁bi	-7621
▁cr	-7622
▁va	-7623
....	-7624
acle	-7625
anes	-7626
arah	-7627
aval	-7628
cary	-7629
eady	-7630
even	-7631
five	-7632
geon	-7633
ians	-7634
itia	-7635
ivoc	-7636
llig	-7637
lves	-7638
mbre	-7639
mons	-7640
must	-7641
obin	-7642
pman	-7643
rill	-7644
serv	-7645
supp	-7646
ugal	-7647
▁Abs	-7648
▁Sey	-7649
▁Sum	-7650
▁ast	-7651
▁aye	-7652
▁bod	-7653
▁cot	-7654
▁dru	-7655
▁ecl	-7656
▁fag	-7657
▁jun	-7658
▁lic	-7659
▁lit	-7660
▁rud	-7661
▁sag	-7662
▁slo	-7663
▁sne	-7664
▁tit	-7665
Could	-7666
Those	-7667
cibly	-7668
ckles	-7669
could	-7670
eping	-7671
gency	-7672
grown	-7673
isons	-7674
lings	-7675
linqu	-7676
ocate	-7677
othed	-7678
pport	-7679
quate	-7680
quiet	-7681
shine	-7682
ships	-7683
uated	-7684
velop	-7685
▁Alas	-7686
▁Bond	-7687
▁Each	-7688
▁Lane	-7689
▁Marl	-7690
▁Take	-7691
▁acts	-7692
▁army	-7693
▁bias	-7694
▁coat	-7695
▁cott	-7696
▁deed	-7697
▁dial	-7698
▁fame	-7699
▁fish	-7700
▁gips	-7701
▁goss	-7702
▁grey	-7703
▁guid	-7704
▁hack	-7705
▁leve	-7706
▁main	-7707
▁merr	-7708
▁nons	-7709
▁pave	-7710
▁push	-7711
▁ramp	-7712
▁rese	-7713
▁shan	-7714
▁soup	-7715
▁star	-7716
▁tear	-7717
▁tour	-7718
aconia	-7719
ainter	-7720
arries	-7721
atives	-7722
father	-7723
garden	-7724
ignant	-7725
looked	-7726
mbrell	-7727
office	-7728
pected	-7729
pelled	-7730
staple	-7731
tofore	-7732
uously	-7733
utable	-7734
▁Edgar	-7735
▁Sarah	-7736
▁Short	-7737
▁abuse	-7738
▁admin	-7739
▁aimed	-7740
▁amply	-7741
▁apple	-7742
▁baked	-7743
▁bosom	-7744
▁brisk	-7745
▁cloak	-7746
▁cough	-7747
▁crime	-7748
▁dimin	-7749
▁droll	-7750
▁empty	-7751
▁endan	-7752
▁enemy	-7753
▁final	-7754
▁gaily	-7755
▁gouty	-7756
▁hears	-7757
▁inexc	-7758
▁intol	-7759
▁invar	-7760
▁leads	-7761
▁linen	-7762
▁lobby	-7763
▁lying	-7764
▁naval	-7765
▁preci	-7766
▁price	-7767
▁privy	-7768
▁roses	-7769
▁rouse	-7770
▁route	-7771
▁shift	-7772
▁shops	-7773
▁slave	-7774
▁steep	-7775
▁stoop	-7776
▁tooth	-7777
▁unavo	-7778
▁unper	-7779
Because	-7780
Charles	-7781
athered	-7782
aughter	-7783
chamber	-7784
ensical	-7785
hibited	-7786
ingston	-7787
iveness	-7788
liament	-7789
parties	-7790
quality	-7791
thought	-7792
▁Allens	-7793
▁Castle	-7794
▁Maddox	-7795
▁Selina	-7796
▁Should	-7797
▁affirm	-7798
▁aggrav	-7799
▁allevi	-7800
▁apothe	-7801
▁ardent	-7802
▁astray	-7803
▁avowed	-7804
▁barbar	-7805
▁chuses	-7806
▁comedy	-7807
▁disgra	-7808
▁earned	-7809
▁entail	-7810
▁faster	-7811
▁faulty	-7812
▁forego	-7813
▁gloves	-7814
▁graces	-7815
▁impose	-7816
▁indisc	-7817
▁infirm	-7818
▁keenly	-7819
▁musing	-7820
▁mutton	-7821
▁nation	-7822
▁nicely	-7823
▁noises	-7824
▁obeyed	-7825
▁partly	-7826
▁pencil	-7827
▁physic	-7828
▁placid	-7829
▁preach	-7830
▁pushed	-7831
▁refres	-7832
▁repaid	-7833
▁repuls	-7834
▁robbed	-7835
▁rubber	-7836
▁screen	-7837
▁sprang	-7838
▁stands	-7839
▁stared	-7840
▁stated	-7841
▁system	-7842
▁thence	-7843
▁tricks	-7844
▁undist	-7845
▁uninte	-7846
▁weaken	-7847
▁wilful	-7848
avenshaw	-7849
ceptible	-7850
kerchief	-7851
orkshire	-7852
question	-7853
▁Because	-7854
▁Believe	-7855
▁Happily	-7856
▁Laconia	-7857
▁Seymour	-7858
▁Summers	-7859
▁apologi	-7860
▁asunder	-7861
▁chanced	-7862
▁chusing	-7863
▁courted	-7864
▁coxcomb	-7865
▁curtsey	-7866
▁dismiss	-7867
▁forebod	-7868
▁fullest	-7869
▁grossly	-7870
▁indelic	-7871
▁infancy	-7872
▁inspire	-7873
▁longest	-7874
▁madness	-7875
▁pattern	-7876
▁pausing	-7877
▁privacy	-7878
▁quicker	-7879
▁recital	-7880
▁relinqu	-7881
▁sailors	-7882
▁sermons	-7883
▁spoiled	-7884
▁stables	-7885
▁terrors	-7886
▁umbrell	-7887
▁uncivil	-7888
▁ushered	-7889
▁wearing	-7890
ibilities	-7891
qualified	-7892
▁Monkford	-7893
▁advances	-7894
▁advocate	-7895
▁although	-7896
▁appeased	-7897
▁appetite	-7898
▁articles	-7899
▁assented	-7900
▁blunders	-7901
▁conjugal	-7902
▁countera	-7903
▁crossing	-7904
▁demanded	-7905
▁distract	-7906
▁enforced	-7907
▁escaping	-7908
▁excluded	-7909
▁forcibly	-7910
▁forwards	-7911
▁frighten	-7912
▁gaieties	-7913
▁guidance	-7914
▁incommod	-7915
▁innocent	-7916
▁maintain	-7917
▁mornings	-7918
▁observer	-7919
▁outlived	-7920
▁planning	-7921
▁promoted	-7922
▁quarters	-7923
▁ramparts	-7924
▁resident	-7925
▁secretly	-7926
▁shameful	-7927
▁shooting	-7928
▁sickness	-7929
▁spirited	-7930
▁striving	-7931
▁sunshine	-7932
▁tenderly	-7933
▁treacher	-7934
▁unsteady	-7935
▁untoward	-7936
▁withheld	-7937
▁youthful	-7938
▁admirable	-7939
▁animating	-7940
▁approving	-7941
▁atonement	-7942
▁attendant	-7943
▁attracted	-7944
▁calculate	-7945
▁commonest	-7946
▁complying	-7947
▁conceived	-7948
▁divisions	-7949
▁execution	-7950
▁exhausted	-7951
▁forbidden	-7952
▁frankness	-7953
▁freshness	-7954
▁indignant	-7955
▁insupport	-7956
▁lessening	-7957
▁meditated	-7958
▁merriment	-7959
▁obtaining	-7960
▁offensive	-7961
▁operation	-7962
▁persevere	-7963
▁pheasants	-7964
▁providing	-7965
▁purchased	-7966
▁remainder	-7967
▁requisite	-7968
▁seclusion	-7969
▁shoulders	-7970
▁smallness	-7971
▁solicited	-7972
▁spreading	-7973
▁superinte	-7974
▁swallowed	-7975
▁testimony	-7976
▁unceasing	-7977
▁venturing	-7978
▁vexatious	-7979
▁wholesome	-7980
▁Longstaple	-7981
▁Smallridge	-7982
▁accustomed	-7983
▁affability	-7984
▁announcing	-7985
▁apothecary	-7986
▁completion	-7987
▁desponding	-7988
▁dispatched	-7989
▁distresses	-7990
▁explaining	-7991
▁faithfully	-7992
▁fastidious	-7993
▁favourably	-7994
▁graciously	-7995
▁heretofore	-7996
▁honourably	-7997
▁improperly	-7998
▁invariable	-7999
▁loveliness	-8000
▁meditating	-8001
▁motionless	-8002
▁originated	-8003
▁perception	-8004
▁preferment	-8005
▁prepossess	-8006
▁pretending	-8007
▁protesting	-8008
▁punctually	-8009
▁reproached	-8010
▁resistance	-8011
▁respectful	-8012
▁sacrifices	-8013
▁scandalous	-8014
▁succession	-8015
▁suggesting	-8016
▁supplanted	-8017
▁suppressed	-8018
▁travellers	-8019
▁unintellig	-8020
▁unquestion	-8021
▁witnessing	-8022
▁Marlborough	-8023
▁alternative	-8024
▁apprehended	-8025
▁captivating	-8026
▁ceremonious	-8027
▁commonplace	-8028
▁composition	-8029
▁contentment	-8030
▁discomposed	-8031
▁discovering	-8032
▁gentlewoman	-8033
▁inattentive	-8034
▁indubitable	-8035
▁inhabitants	-8036
▁magnificent	-8037
▁maintaining	-8038
▁maintenance	-8039
▁perfections	-8040
▁perpetually	-8041
▁practicable	-8042
▁resolutions	-8043
▁suggestions	-8044
▁confidential	-8045
▁friendliness	-8046
▁handkerchief	-8047
▁housekeeping	-8048
▁instructions	-8049
▁insufferable	-8050
▁intermission	-8051
▁lamentations	-8052
▁remembrances	-8053
▁agreeableness	-8054
▁communicating	-8055
▁communicative	-8056
▁conversations	-8057
▁disappointing	-8058
▁inconceivable	-8059
▁inconsistency	-8060
▁justification	-8061
▁inconsiderable	-8062
;'	-8063
Am	-8064
IS	-8065
uv	-8066
yr	-8067
All	-8068
Hum	-8069
III	-8070
ait	-8071
asc	-8072
ask	-8073
awn	-8074
ecd	-8075
ese	-8076
gge	-8077
gue	-8078
isc	-8079
may	-8080
nay	-8081
nel	-8082
ped	-8083
poc	-8084
rog	-8085
rum	-8086
rus	-8087
ucy	-8088
udd	-8089
▁Im	-8090
▁Ma	-8091
.--'	-8092
Mari	-8093
Mill	-8094
Much	-8095
agon	-8096
agra	-8097
augh	-8098
dear	-8099
isse	-8100
llen	-8101
mble	-8102
oeuv	-8103
oing	-8104
ooke	-8105
ored	-8106
pter	-8107
quar	-8108
rong	-8109
were	-8110
▁Cow	-8111
▁Esq	-8112
▁Ham	-8113
▁Hod	-8114
▁Imp	-8115
▁Mat	-8116
▁Mid	-8117
▁Say	-8118
▁Ser	-8119
▁Too	-8120
▁Tow	-8121
▁aim	-8122
▁ank	-8123
▁asp	-8124
▁cun	-8125
▁ded	-8126
▁fav	-8127
▁lap	-8128
▁mir	-8129
▁net	-8130
▁nob	-8131
▁sin	-8132
▁squ	-8133
▁tap	-8134
▁tum	-8135
▁tyr	-8136
▁win	-8137
arers	-8138
ashes	-8139
enger	-8140
eople	-8141
erred	-8142
glass	-8143
guish	-8144
icted	-8145
ifice	-8146
ilton	-8147
ipped	-8148
mbers	-8149
otted	-8150
poses	-8151
raged	-8152
rinci	-8153
since	-8154
urned	-8155
vable	-8156
▁Both	-8157
▁Cond	-8158
▁High	-8159
▁Luck	-8160
▁Soph	-8161
▁Supp	-8162
▁ages	-8163
▁bank	-8164
▁boat	-8165
▁bury	-8166
▁cler	-8167
▁coll	-8168
▁cult	-8169
▁deaf	-8170
▁dili	-8171
▁doct	-8172
▁dogs	-8173
▁doom	-8174
▁echo	-8175
▁exem	-8176
▁fili	-8177
▁flir	-8178
▁glor	-8179
▁heed	-8180
▁hosp	-8181
▁jest	-8182
▁lift	-8183
▁moon	-8184
▁mult	-8185
▁noon	-8186
▁patr	-8187
▁sand	-8188
▁stub	-8189
▁tast	-8190
▁trim	-8191
▁ugly	-8192
▁unhe	-8193
▁vary	-8194
▁wont	-8195
▁yard	-8196
Elinor	-8197
ackson	-8198
adable	-8199
agraph	-8200
antity	-8201
atisfa	-8202
bridge	-8203
cribed	-8204
earest	-8205
fering	-8206
ilbert	-8207
illery	-8208
irited	-8209
itious	-8210
kingly	-8211
landau	-8212
mances	-8213
orgive	-8214
owager	-8215
quette	-8216
renity	-8217
tering	-8218
ternal	-8219
uities	-8220
▁Allow	-8221
▁Among	-8222
▁CATHE	-8223
▁Court	-8224
▁Lakes	-8225
▁Lower	-8226
▁Madam	-8227
▁accur	-8228
▁achie	-8229
▁alien	-8230
▁anecd	-8231
▁bears	-8232
▁blank	-8233
▁brown	-8234
▁china	-8235
▁coinc	-8236
▁conqu	-8237
▁corps	-8238
▁crown	-8239
▁drank	-8240
▁duped	-8241
▁endur	-8242
▁felic	-8243
▁finer	-8244
▁harsh	-8245
▁hypoc	-8246
▁image	-8247
▁inciv	-8248
▁jokes	-8249
▁keeps	-8250
▁landl	-8251
▁maids	-8252
▁manus	-8253
▁negli	-8254
▁outst	-8255
▁penit	-8256
▁pitch	-8257
▁posts	-8258
▁print	-8259
▁prose	-8260
▁puppy	-8261
▁purse	-8262
▁reads	-8263
▁remed	-8264
▁rivet	-8265
▁sakes	-8266
▁saucy	-8267
▁spont	-8268
▁tende	-8269
▁unass	-8270
▁unequ	-8271
▁unnot	-8272
However	-8273
adation	-8274
cellent	-8275
fashion	-8276
forward	-8277
ictions	-8278
lighted	-8279
neither	-8280
obinson	-8281
servant	-8282
▁Bragge	-8283
▁Cowper	-8284
▁Hodges	-8285
▁airing	-8286
▁altern	-8287
▁animal	-8288
▁archly	-8289
▁boiled	-8290
▁branch	-8291
▁critic	-8292
▁demure	-8293
▁derive	-8294
▁doings	-8295
▁doubly	-8296
▁ensued	-8297
▁extend	-8298
▁finger	-8299
▁gossip	-8300
▁growth	-8301
▁hinted	-8302
▁joyous	-8303
▁lesser	-8304
▁louder	-8305
▁miscon	-8306
▁naming	-8307
▁native	-8308
▁poured	-8309
▁prison	-8310
▁purity	-8311
▁rested	-8312
▁restri	-8313
▁revive	-8314
▁ribbon	-8315
▁riches	-8316
▁rumour	-8317
▁scrape	-8318
▁simply	-8319
▁soften	-8320
▁sweets	-8321
▁timber	-8322
▁topics	-8323
▁toward	-8324
▁traged	-8325
▁transa	-8326
▁unatte	-8327
▁vouchs	-8328
▁waiter	-8329
▁wander	-8330
▁wasted	-8331
▁wisdom	-8332
▁yearly	-8333
▁yellow	-8334
Marianne	-8335
aneously	-8336
reproach	-8337
speaking	-8338
▁Chapman	-8339
▁Conduit	-8340
▁Towards	-8341
▁admires	-8342
▁agonies	-8343
▁anguish	-8344
▁appreci	-8345
▁belongs	-8346
▁carpent	-8347
▁ceasing	-8348
▁charged	-8349
▁charmed	-8350
▁comprom	-8351
▁concili	-8352
▁conform	-8353
▁contend	-8354
▁cruelly	-8355
▁cunning	-8356
▁dashing	-8357
▁decease	-8358
▁deepest	-8359
▁denying	-8360
▁descend	-8361
▁deserts	-8362
▁despond	-8363
▁develop	-8364
▁dispute	-8365
▁dresses	-8366
▁enquire	-8367
▁exagger	-8368
▁failing	-8369
▁fellows	-8370
▁fishing	-8371
▁healthy	-8372
▁hunters	-8373
▁lessons	-8374
▁lighted	-8375
▁manoeuv	-8376
▁matches	-8377
▁mothers	-8378
▁nursing	-8379
▁oppress	-8380
▁parcels	-8381
▁phaeton	-8382
▁pleases	-8383
▁prayers	-8384
▁purport	-8385
▁quality	-8386
▁rapture	-8387
▁replies	-8388
▁repress	-8389
▁retract	-8390
▁romance	-8391
▁rousing	-8392
▁slipped	-8393
▁species	-8394
▁strikes	-8395
▁surgeon	-8396
▁tedious	-8397
▁torture	-8398
▁uniting	-8399
▁urgency	-8400
fashioned	-8401
nightleys	-8402
▁Anderson	-8403
▁Scarcely	-8404
▁Williams	-8405
▁assuming	-8406
▁attacked	-8407
▁audience	-8408
▁blooming	-8409
▁choosing	-8410
▁coolness	-8411
▁courtesy	-8412
▁deciding	-8413
▁dejected	-8414
▁delights	-8415
▁destined	-8416
▁devotion	-8417
▁dialogue	-8418
▁dispense	-8419
▁dreading	-8420
▁eloquent	-8421
▁enclosed	-8422
▁entailed	-8423
▁everyday	-8424
▁everyone	-8425
▁fetching	-8426
▁guessing	-8427
▁imparted	-8428
▁inferred	-8429
▁messages	-8430
▁objected	-8431
▁pavement	-8432
▁perverse	-8433
▁politics	-8434
▁portrait	-8435
▁preacher	-8436
▁premises	-8437
▁quantity	-8438
▁raillery	-8439
▁reasoned	-8440
▁rejoined	-8441
▁renewing	-8442
▁resented	-8443
▁revealed	-8444
▁sagacity	-8445
▁screened	-8446
▁serenity	-8447
▁singular	-8448
▁solemnly	-8449
▁strictly	-8450
▁stubborn	-8451
▁studying	-8452
▁teaching	-8453
▁timidity	-8454
▁unanswer	-8455
▁unfairly	-8456
▁unlooked	-8457
▁vicinity	-8458
appearance	-8459
especially	-8460
ndoubtedly	-8461
orsetshire	-8462
▁acquitted	-8463
▁affecting	-8464
▁affronted	-8465
▁apologise	-8466
▁associate	-8467
▁bestowing	-8468
▁breathing	-8469
▁buildings	-8470
▁canvassed	-8471
▁cherished	-8472
▁conscient	-8473
▁deception	-8474
▁degrading	-8475
▁depending	-8476
▁dispersed	-8477
▁elevation	-8478
▁exceeding	-8479
▁excursion	-8480
▁extremity	-8481
▁foresight	-8482
▁greatcoat	-8483
▁hysterics	-8484
▁imagining	-8485
▁impressed	-8486
▁impudence	-8487
▁inexpress	-8488
▁informing	-8489
▁involving	-8490
▁irritable	-8491
▁marriages	-8492
▁messenger	-8493
▁observant	-8494
▁occurring	-8495
▁paragraph	-8496
▁patronage	-8497
▁persisted	-8498
▁pointedly	-8499
▁portraits	-8500
▁practised	-8501
▁preaching	-8502
▁properest	-8503
▁proposing	-8504
▁regarding	-8505
▁relenting	-8506
▁reluctant	-8507
▁repressed	-8508
▁repulsive	-8509
▁retreated	-8510
▁seemingly	-8511
▁shillings	-8512
▁splendour	-8513
▁statement	-8514
▁stationed	-8515
▁strictest	-8516
▁temporary	-8517
▁unnoticed	-8518
▁vulgarity	-8519
▁weariness	-8520
▁worthless	-8521
established	-8522
▁abominably	-8523
▁affectedly	-8524
▁agitations	-8525
▁charitable	-8526
▁compatible	-8527
▁confirming	-8528
▁consulting	-8529
▁contribute	-8530
▁dimensions	-8531
▁disapprove	-8532
▁disconcert	-8533
▁exhibition	-8534
▁grievances	-8535
▁hereabouts	-8536
▁hospitable	-8537
▁housemaids	-8538
▁incivility	-8539
▁indecision	-8540
▁individual	-8541
▁injunction	-8542
▁inspection	-8543
▁manuscript	-8544
▁meditation	-8545
▁negligence	-8546
▁occurrence	-8547
▁persisting	-8548
▁philosophy	-8549
▁privations	-8550
▁proclaimed	-8551
▁productive	-8552
▁professing	-8553
▁prohibited	-8554
▁proprietor	-8555
▁quarrelled	-8556
▁refinement	-8557
▁reflecting	-8558
▁reputation	-8559
▁requesting	-8560
▁respective	-8561
▁satisfying	-8562
▁similarity	-8563
▁strikingly	-8564
▁struggling	-8565
▁surprising	-8566
▁unsuitable	-8567
▁wretchedly	-8568
▁aggravation	-8569
▁apologising	-8570
▁contributed	-8571
▁degradation	-8572
▁destination	-8573
▁determining	-8574
▁disappeared	-8575
▁disturbance	-8576
▁effectually	-8577
▁generations	-8578
▁inexcusable	-8579
▁involuntary	-8580
▁nonsensical	-8581
▁persevering	-8582
▁plantations	-8583
▁possessions	-8584
▁serviceable	-8585
▁undertaking	-8586
▁vindication	-8587
▁associations	-8588
▁carelessness	-8589
▁complimented	-8590
▁contemptible	-8591
▁contributing	-8592
▁deficiencies	-8593
▁deliberately	-8594
▁deliberation	-8595
▁discontented	-8596
▁graciousness	-8597
▁imaginations	-8598
▁incompatible	-8599
▁performances	-8600
▁pleasantness	-8601
▁strawberries	-8602
▁successively	-8603
▁supplication	-8604
▁disadvantages	-8605
▁insignificant	-8606
▁instantaneous	-8607
▁instinctively	-8608
▁involuntarily	-8609
▁unjustifiable	-8610
▁insignificance	-8611
▁unintelligible	-8612
▁unquestionably	-8613
▁misapprehension	-8614
▁thoughtlessness	-8615
.;	-8616
IA	-8617
Sh	-8618
bu	-8619
cl	-8620
sy	-8621
--,	-8622
Eli	-8623
Hen	-8624
abs	-8625
add	-8626
aus	-8627
bet	-8628
cot	-8629
des	-8630
ean	-8631
eer	-8632
elf	-8633
fic	-8634
fty	-8635
gam	-8636
lls	-8637
lou	-8638
nut	-8639
ogy	-8640
see	-8641
sho	-8642
sum	-8643
tis	-8644
uly	-8645
uni	-8646
vin	-8647
vis	-8648
vol	-8649
▁Sw	-8650
▁Te	-8651
▁nu	-8652
More	-8653
Some	-8654
Take	-8655
ague	-8656
down	-8657
ells	-8658
etty	-8659
felt	-8660
gain	-8661
heum	-8662
ials	-8663
iber	-8664
icip	-8665
iser	-8666
ival	-8667
lett	-8668
ogra	-8669
olar	-8670
otes	-8671
owal	-8672
phab	-8673
phic	-8674
rews	-8675
rite	-8676
sell	-8677
▁Asp	-8678
▁Bad	-8679
▁Cas	-8680
▁Che	-8681
▁Ell	-8682
▁Man	-8683
▁Tau	-8684
▁ant	-8685
▁bal	-8686
▁fac	-8687
▁fee	-8688
▁hom	-8689
▁irk	-8690
▁job	-8691
▁pos	-8692
▁tie	-8693
▁woe	-8694
After	-8695
Bless	-8696
Henry	-8697
Three	-8698
Which	-8699
Would	-8700
adays	-8701
aling	-8702
aries	-8703
aware	-8704
ciful	-8705
cried	-8706
dding	-8707
enary	-8708
ensed	-8709
escri	-8710
eterm	-8711
ettic	-8712
forty	-8713
green	-8714
hable	-8715
happy	-8716
hasis	-8717
imney	-8718
ipage	-8719
istic	-8720
lands	-8721
maker	-8722
mploy	-8723
orney	-8724
orter	-8725
otege	-8726
plain	-8727
pture	-8728
rices	-8729
rings	-8730
uable	-8731
ulate	-8732
ulity	-8733
usage	-8734
ustri	-8735
▁Sney	-8736
▁Thus	-8737
▁acut	-8738
▁anew	-8739
▁arts	-8740
▁boot	-8741
▁bows	-8742
▁brow	-8743
▁cake	-8744
▁club	-8745
▁conn	-8746
▁cree	-8747
▁duly	-8748
▁dust	-8749
▁east	-8750
▁enli	-8751
▁fasc	-8752
▁fick	-8753
▁flat	-8754
▁fuss	-8755
▁immo	-8756
▁inch	-8757
▁inim	-8758
▁leaf	-8759
▁litt	-8760
▁male	-8761
▁ming	-8762
▁mini	-8763
▁oath	-8764
▁obvi	-8765
▁palp	-8766
▁pill	-8767
▁pomp	-8768
▁pour	-8769
▁rare	-8770
▁resp	-8771
▁riot	-8772
▁sadd	-8773
▁sank	-8774
▁saun	-8775
▁scar	-8776
▁shot	-8777
▁stif	-8778
▁stip	-8779
▁tres	-8780
▁tumb	-8781
▁unbe	-8782
▁unfe	-8783
▁unob	-8784
▁unso	-8785
▁vehe	-8786
▁wink	-8787
▁yawn	-8788
Excuse	-8789
antial	-8790
arched	-8791
arding	-8792
cester	-8793
change	-8794
ecided	-8795
erfect	-8796
gammon	-8797
iberal	-8798
loying	-8799
manage	-8800
minine	-8801
orting	-8802
rather	-8803
rences	-8804
rupted	-8805
soever	-8806
spread	-8807
strong	-8808
summer	-8809
tables	-8810
thirty	-8811
uction	-8812
uniary	-8813
vation	-8814
versed	-8815
▁Leave	-8816
▁Sophy	-8817
▁Think	-8818
▁Twice	-8819
▁abate	-8820
▁arrog	-8821
▁attic	-8822
▁awoke	-8823
▁basin	-8824
▁block	-8825
▁blunt	-8826
▁coars	-8827
▁cured	-8828
▁downs	-8829
▁eclat	-8830
▁enhan	-8831
▁enorm	-8832
▁faded	-8833
▁fewer	-8834
▁gowns	-8835
▁groom	-8836
▁grows	-8837
▁haunt	-8838
▁imply	-8839
▁issue	-8840
▁knees	-8841
▁lanes	-8842
▁level	-8843
▁lofty	-8844
▁manly	-8845
▁medic	-8846
▁memor	-8847
▁notes	-8848
▁outwe	-8849
▁plate	-8850
▁plaus	-8851
▁pulse	-8852
▁queen	-8853
▁queer	-8854
▁rated	-8855
▁relig	-8856
▁rheum	-8857
▁scorn	-8858
▁sends	-8859
▁shore	-8860
▁spoil	-8861
▁spots	-8862
▁stays	-8863
▁suits	-8864
▁swept	-8865
▁timid	-8866
▁toile	-8867
▁unche	-8868
▁vault	-8869
▁volum	-8870
▁worry	-8871
Exactly	-8872
athetic	-8873
iciency	-8874
repared	-8875
rescent	-8876
robably	-8877
▁Either	-8878
▁Except	-8879
▁Sophia	-8880
▁abused	-8881
▁alphab	-8882
▁avowal	-8883
▁blamed	-8884
▁boldly	-8885
▁bottle	-8886
▁breast	-8887
▁buried	-8888
▁busily	-8889
▁butter	-8890
▁chairs	-8891
▁chaper	-8892
▁cheese	-8893
▁closet	-8894
▁contro	-8895
▁dishon	-8896
▁dissol	-8897
▁embell	-8898
▁envied	-8899
▁equals	-8900
▁fagged	-8901
▁fasten	-8902
▁folded	-8903
▁hasten	-8904
▁indist	-8905
▁infamy	-8906
▁infant	-8907
▁juster	-8908
▁landed	-8909
▁landsc	-8910
▁limits	-8911
▁livery	-8912
▁market	-8913
▁meadow	-8914
▁mostly	-8915
▁nicest	-8916
▁nicety	-8917
▁nursed	-8918
▁ostent	-8919
▁overfl	-8920
▁pacing	-8921
▁pettic	-8922
▁pieces	-8923
▁poorly	-8924
▁punish	-8925
▁ramble	-8926
▁regain	-8927
▁repair	-8928
▁repine	-8929
▁retain	-8930
▁retros	-8931
▁richer	-8932
▁stroke	-8933
▁stroll	-8934
▁tastes	-8935
▁teased	-8936
▁traced	-8937
▁trades	-8938
▁unanim	-8939
▁vigour	-8940
▁walker	-8941
▁widely	-8942
Isabella	-8943
ardiners	-8944
possible	-8945
standing	-8946
▁Andrews	-8947
▁Elliots	-8948
▁Taunton	-8949
▁adopted	-8950
▁adorned	-8951
▁animate	-8952
▁attacks	-8953
▁audible	-8954
▁bargain	-8955
▁bathing	-8956
▁bidding	-8957
▁channel	-8958
▁chimney	-8959
▁circums	-8960
▁climate	-8961
▁clouded	-8962
▁colonel	-8963
▁confide	-8964
▁confine	-8965
▁dangers	-8966
▁descent	-8967
▁desires	-8968
▁dissent	-8969
▁easiest	-8970
▁elderly	-8971
▁enlarge	-8972
▁enlight	-8973
▁extingu	-8974
▁favours	-8975
▁fetched	-8976
▁flowers	-8977
▁footman	-8978
▁forbade	-8979
▁foreign	-8980
▁gipsies	-8981
▁gradual	-8982
▁hackney	-8983
▁helping	-8984
▁immense	-8985
▁incline	-8986
▁inexper	-8987
▁irksome	-8988
▁largest	-8989
▁lightly	-8990
▁managed	-8991
▁midship	-8992
▁militia	-8993
▁mischie	-8994
▁mortify	-8995
▁needful	-8996
▁nephews	-8997
▁netting	-8998
▁nowhere	-8999
▁omitted	-9000
▁orchard	-9001
▁pensive	-9002
▁plagued	-9003
▁plainer	-9004
▁praises	-9005
▁precaut	-9006
▁process	-9007
▁prolong	-9008
▁protege	-9009
▁quieted	-9010
▁relates	-9011
▁reports	-9012
▁rupture	-9013
▁sadness	-9014
▁scholar	-9015
▁seating	-9016
▁slumber	-9017
▁speaker	-9018
▁stoutly	-9019
▁submiss	-9020
▁substit	-9021
▁swelled	-9022
▁tending	-9023
▁tonight	-9024
▁undeser	-9025
▁viewing	-9026
▁virtues	-9027
▁wearied	-9028
ichardson	-9029
loucester	-9030
rincipled	-9031
supposing	-9032
ushworths	-9033
▁Whitwell	-9034
▁advising	-9035
▁attorney	-9036
▁aversion	-9037
▁bordered	-9038
▁breathed	-9039
▁brighter	-9040
▁clearing	-9041
▁consoled	-9042
▁cottages	-9043
▁dawdling	-9044
▁deferred	-9045
▁descript	-9046
▁desiring	-9047
▁dictated	-9048
▁diffused	-9049
▁duration	-9050
▁emphasis	-9051
▁enduring	-9052
▁enquired	-9053
▁equality	-9054
▁equalled	-9055
▁equipage	-9056
▁evidence	-9057
▁explicit	-9058
▁fanciful	-9059
▁feminine	-9060
▁gardener	-9061
▁harmless	-9062
▁infamous	-9063
▁injuries	-9064
▁insulted	-9065
▁laughter	-9066
▁literary	-9067
▁memories	-9068
▁minutely	-9069
▁mistakes	-9070
▁morality	-9071
▁narrowly	-9072
▁nowadays	-9073
▁ordained	-9074
▁parental	-9075
▁particip	-9076
▁poignant	-9077
▁position	-9078
▁preceded	-9079
▁precipit	-9080
▁prettier	-9081
▁reliance	-9082
▁repaired	-9083
▁residing	-9084
▁retrench	-9085
▁rudeness	-9086
▁sameness	-9087
▁selected	-9088
▁specimen	-9089
▁starting	-9090
▁stirring	-9091
▁supersed	-9092
▁suppress	-9093
▁swelling	-9094
▁tolerate	-9095
▁unmanage	-9096
▁wandered	-9097
▁weakened	-9098
▁wounding	-9099
importance	-9100
▁Certainly	-9101
▁Sucklings	-9102
▁accession	-9103
▁accounted	-9104
▁admirably	-9105
▁adventure	-9106
▁alertness	-9107
▁apprehend	-9108
▁ascending	-9109
▁authorise	-9110
▁blockhead	-9111
▁clergymen	-9112
▁commended	-9113
▁committed	-9114
▁condemned	-9115
▁conversed	-9116
▁deceitful	-9117
▁demanding	-9118
▁despaired	-9119
▁detaining	-9120
▁diffident	-9121
▁diligence	-9122
▁disgraced	-9123
▁doubtless	-9124
▁employing	-9125
▁establish	-9126
▁estimable	-9127
▁excusable	-9128
▁expressly	-9129
▁fashioned	-9130
▁fearfully	-9131
▁finishing	-9132
▁gathering	-9133
▁greatness	-9134
▁grievance	-9135
▁hallooing	-9136
▁hardships	-9137
▁hastening	-9138
▁illiberal	-9139
▁immovable	-9140
▁infection	-9141
▁ingenious	-9142
▁inhabited	-9143
▁liberally	-9144
▁liberties	-9145
▁liveliest	-9146
▁mercenary	-9147
▁miserably	-9148
▁moonlight	-9149
▁movements	-9150
▁narration	-9151
▁obstinacy	-9152
▁overtaken	-9153
▁partially	-9154
▁pecuniary	-9155
▁petticoat	-9156
▁physician	-9157
▁premature	-9158
▁privately	-9159
▁profusion	-9160
▁projected	-9161
▁reasoning	-9162
▁regulated	-9163
▁resembled	-9164
▁restoring	-9165
▁retaining	-9166
▁secondary	-9167
▁sheltered	-9168
▁shortness	-9169
▁slighting	-9170
▁steadfast	-9171
▁stockings	-9172
▁stretched	-9173
▁tenderest	-9174
▁transient	-9175
▁unhappily	-9176
▁uniformly	-9177
▁uppermost	-9178
consequence	-9179
▁administer	-9180
▁answerable	-9181
▁assemblies	-9182
▁breathless	-9183
▁complained	-9184
▁condescend	-9185
▁contrasted	-9186
▁deplorable	-9187
▁detestable	-9188
▁discharged	-9189
▁disclosure	-9190
▁doubtingly	-9191
▁entreating	-9192
▁eventually	-9193
▁forwarding	-9194
▁headstrong	-9195
▁hysterical	-9196
▁imaginable	-9197
▁impediment	-9198
▁incommoded	-9199
▁indelicacy	-9200
▁inequality	-9201
▁insipidity	-9202
▁invaluable	-9203
▁laughingly	-9204
▁littleness	-9205
▁mysterious	-9206
▁needlework	-9207
▁neglecting	-9208
▁newspapers	-9209
▁observance	-9210
▁overcoming	-9211
▁overspread	-9212
▁performers	-9213
▁popularity	-9214
▁preserving	-9215
▁reappeared	-9216
▁reasonings	-9217
▁refreshing	-9218
▁regularity	-9219
▁restraints	-9220
▁salutation	-9221
▁theatrical	-9222
▁unattended	-9223
▁accustomary	-9224
▁alterations	-9225
▁calculation	-9226
▁constrained	-9227
▁development	-9228
▁eligibility	-9229
▁encumbrance	-9230
▁instinctive	-9231
▁interfering	-9232
▁intolerable	-9233
▁misfortunes	-9234
▁obligations	-9235
▁perceptible	-9236
▁philosophic	-9237
▁pleasantest	-9238
▁proposition	-9239
▁provocation	-9240
▁substantial	-9241
▁sympathetic	-9242
▁threatening	-9243
▁unavoidable	-9244
▁understands	-9245
▁unqualified	-9246
▁wonderfully	-9247
▁acquirements	-9248
▁anticipating	-9249
▁applications	-9250
▁condescended	-9251
▁contemptuous	-9252
▁expressively	-9253
▁guardianship	-9254
▁imperfection	-9255
▁intellectual	-9256
▁neighbouring	-9257
▁successfully	-9258
▁unanswerable	-9259
▁unmanageable	-9260
▁unprincipled	-9261
▁unreasonably	-9262
▁watchfulness	-9263
▁circumstanced	-9264
▁insupportable	-9265
▁prepossession	-9266
▁significantly	-9267
▁congratulation	-9268
▁acknowledgments	-9269
▁representations	-9270
',	-9271
';	-9272
Im	-9273
co	-9274
ms	-9275
--!	-9276
CIA	-9277
Eng	-9278
adc	-9279
ags	-9280
bal	-9281
bit	-9282
bow	-9283
col	-9284
ext	-9285
fer	-9286
hoo	-9287
iae	-9288
irs	-9289
jac	-9290
lim	-9291
oon	-9292
pro	-9293
ral	-9294
run	-9295
try	-9296
two	-9297
wis	-9298
▁SI	-9299
▁je	-9300
;"--	-9301
acit	-9302
ales	-9303
alis	-9304
atig	-9305
avan	-9306
ayed	-9307
bare	-9308
beds	-9309
beha	-9310
cake	-9311
ccup	-9312
cers	-9313
cial	-9314
does	-9315
dure	-9316
east	-9317
eder	-9318
enth	-9319
fact	-9320
full	-9321
gone	-9322
mate	-9323
nion	-9324
nodd	-9325
obli	-9326
olen	-9327
omen	-9328
oolf	-9329
oved	-9330
oyed	-9331
past	-9332
pick	-9333
quor	-9334
rave	-9335
requ	-9336
rily	-9337
ssed	-9338
tell	-9339
town	-9340
tway	-9341
uced	-9342
uing	-9343
wear	-9344
wens	-9345
whom	-9346
▁ALI	-9347
▁Acc	-9348
▁Aye	-9349
▁HIS	-9350
▁Med	-9351
▁Men	-9352
▁Sec	-9353
▁THE	-9354
▁aug	-9355
▁ble	-9356
▁bru	-9357
▁bur	-9358
▁cav	-9359
▁cri	-9360
▁dil	-9361
▁gun	-9362
▁hit	-9363
▁lid	-9364
▁mar	-9365
▁max	-9366
▁non	-9367
▁nut	-9368
▁oli	-9369
▁pul	-9370
▁scr	-9371
▁sob	-9372
▁uno	-9373
▁wal	-9374
Since	-9375
allow	-9376
appro	-9377
apsed	-9378
arice	-9379
ashed	-9380
avily	-9381
berry	-9382
built	-9383
deley	-9384
enham	-9385
epton	-9386
estry	-9387
faced	-9388
ffect	-9389
icacy	-9390
ifies	-9391
inner	-9392
laugh	-9393
liffe	-9394
maids	-9395
money	-9396
osted	-9397
ounge	-9398
ourer	-9399
ricot	-9400
rille	-9401
roken	-9402
their	-9403
these	-9404
think	-9405
ument	-9406
urbed	-9407
uster	-9408
voice	-9409
▁Bell	-9410
▁Blai	-9411
▁Care	-9412
▁Comp	-9413
▁Lans	-9414
▁Make	-9415
▁Mill	-9416
▁Skin	-9417
▁True	-9418
▁amid	-9419
▁beds	-9420
▁borr	-9421
▁bred	-9422
▁bree	-9423
▁burn	-9424
▁camp	-9425
▁cart	-9426
▁clos	-9427
▁cows	-9428
▁cram	-9429
▁cred	-9430
▁curl	-9431
▁dies	-9432
▁dint	-9433
▁dupe	-9434
▁edge	-9435
▁eggs	-9436
▁ejac	-9437
▁fash	-9438
▁feeb	-9439
▁feed	-9440
▁grud	-9441
▁hyac	-9442
▁impr	-9443
▁kill	-9444
▁lave	-9445
▁mass	-9446
▁muff	-9447
▁nour	-9448
▁obed	-9449
▁obsc	-9450
▁owes	-9451
▁pars	-9452
▁pear	-9453
▁pink	-9454
▁quot	-9455
▁rage	-9456
▁rays	-9457
▁rect	-9458
▁runs	-9459
▁sale	-9460
▁seas	-9461
▁shed	-9462
▁sobs	-9463
▁sque	-9464
▁stim	-9465
▁tied	-9466
▁unab	-9467
▁unin	-9468
▁unlo	-9469
▁witt	-9470
ainted	-9471
alling	-9472
anners	-9473
anness	-9474
arting	-9475
awlish	-9476
boured	-9477
ceived	-9478
cently	-9479
chance	-9480
contre	-9481
ecting	-9482
ending	-9483
erland	-9484
giving	-9485
ground	-9486
headed	-9487
health	-9488
ifting	-9489
ildren	-9490
incere	-9491
inding	-9492
inence	-9493
ingham	-9494
issors	-9495
master	-9496
ointed	-9497
onavan	-9498
ortune	-9499
ouched	-9500
people	-9501
ranean	-9502
ranged	-9503
rasers	-9504
street	-9505
taking	-9506
ulated	-9507
verses	-9508
vinced	-9509
volous	-9510
wisher	-9511
▁Coxes	-9512
▁Sally	-9513
▁Sneyd	-9514
▁Which	-9515
▁acced	-9516
▁altar	-9517
▁basis	-9518
▁chick	-9519
▁colds	-9520
▁comic	-9521
▁dares	-9522
▁dated	-9523
▁dears	-9524
▁defin	-9525
▁depos	-9526
▁doctr	-9527
▁doted	-9528
▁draws	-9529
▁elbow	-9530
▁encro	-9531
▁exten	-9532
▁facts	-9533
▁fifth	-9534
▁fight	-9535
▁flour	-9536
▁goose	-9537
▁hates	-9538
▁homes	-9539
▁hotel	-9540
▁impet	-9541
▁inade	-9542
▁injud	-9543
▁irreg	-9544
▁kings	-9545
▁legal	-9546
▁limbs	-9547
▁local	-9548
▁loung	-9549
▁manor	-9550
▁misle	-9551
▁modes	-9552
▁newly	-9553
▁plead	-9554
▁precl	-9555
▁reign	-9556
▁rides	-9557
▁scant	-9558
▁scram	-9559
▁shoot	-9560
▁signs	-9561
▁sloop	-9562
▁stare	-9563
▁stiff	-9564
▁swift	-9565
▁tresp	-9566
▁unall	-9567
▁unmer	-9568
▁unsha	-9569
▁unwho	-9570
▁vigor	-9571
▁waist	-9572
▁weigh	-9573
▁woody	-9574
▁wrapt	-9575
Another	-9576
Captain	-9577
achable	-9578
ational	-9579
behaved	-9580
ccupied	-9581
denying	-9582
ealousy	-9583
ecember	-9584
engaged	-9585
ensured	-9586
iculate	-9587
idation	-9588
inating	-9589
iterate	-9590
ittance	-9591
leasant	-9592
mention	-9593
mployed	-9594
nodding	-9595
ortions	-9596
ourable	-9597
riendly	-9598
smiling	-9599
usively	-9600
varying	-9601
▁ALICIA	-9602
▁Accord	-9603
▁Better	-9604
▁Butler	-9605
▁Cassel	-9606
▁Common	-9607
▁Surely	-9608
▁access	-9609
▁advert	-9610
▁assume	-9611
▁backed	-9612
▁befall	-9613
▁borrow	-9614
▁career	-9615
▁chatty	-9616
▁closer	-9617
▁coldly	-9618
▁commit	-9619
▁consum	-9620
▁cooler	-9621
▁copied	-9622
▁corrob	-9623
▁cotton	-9624
▁cultiv	-9625
▁dancer	-9626
▁darker	-9627
▁denote	-9628
▁dismay	-9629
▁doctor	-9630
▁doomed	-9631
▁ending	-9632
▁entang	-9633
▁eyeing	-9634
▁fairer	-9635
▁firmer	-9636
▁flying	-9637
▁fonder	-9638
▁graver	-9639
▁harden	-9640
▁hating	-9641
▁haught	-9642
▁heroic	-9643
▁hourly	-9644
▁instig	-9645
▁keener	-9646
▁knight	-9647
▁levity	-9648
▁lifted	-9649
▁liquor	-9650
▁lowest	-9651
▁malice	-9652
▁meanly	-9653
▁member	-9654
▁mixing	-9655
▁ostler	-9656
▁permit	-9657
▁player	-9658
▁prayer	-9659
▁prover	-9660
▁raises	-9661
▁ranked	-9662
▁rattle	-9663
▁reform	-9664
▁relied	-9665
▁remedy	-9666
▁riddle	-9667
▁safest	-9668
▁selves	-9669
▁shabby	-9670
▁sheets	-9671
▁sphere	-9672
▁spruce	-9673
▁square	-9674
▁stolen	-9675
▁string	-9676
▁summon	-9677
▁tables	-9678
▁toilet	-9679
▁truest	-9680
▁tumult	-9681
▁turkey	-9682
▁undece	-9683
▁viewed	-9684
Whatever	-9685
adcliffe	-9686
arklands	-9687
consider	-9688
countess	-9689
ernation	-9690
iciously	-9691
itiously	-9692
lightful	-9693
quarters	-9694
querable	-9695
▁Anxious	-9696
▁Augusta	-9697
▁Bateses	-9698
▁Hayters	-9699
▁Luckily	-9700
▁Mansion	-9701
▁Mediter	-9702
▁abusing	-9703
▁admiral	-9704
▁angrily	-9705
▁apricot	-9706
▁availed	-9707
▁avarice	-9708
▁bespeak	-9709
▁blushes	-9710
▁burning	-9711
▁candles	-9712
▁circles	-9713
▁circuit	-9714
▁closing	-9715
▁concise	-9716
▁decency	-9717
▁denoted	-9718
▁diffuse	-9719
▁discrim	-9720
▁drawers	-9721
▁dutiful	-9722
▁elevate	-9723
▁endowed	-9724
▁enhance	-9725
▁ensured	-9726
▁estates	-9727
▁eternal	-9728
▁failure	-9729
▁fathers	-9730
▁follies	-9731
▁forgets	-9732
▁glanced	-9733
▁gloried	-9734
▁hearers	-9735
▁inherit	-9736
▁jumping	-9737
▁landing	-9738
▁manager	-9739
▁mankind	-9740
▁marking	-9741
▁marries	-9742
▁merited	-9743
▁mounted	-9744
▁musings	-9745
▁oneself	-9746
▁painted	-9747
▁partake	-9748
▁payment	-9749
▁persist	-9750
▁pitying	-9751
▁pointer	-9752
▁posture	-9753
▁proudly	-9754
▁pushing	-9755
▁refined	-9756
▁regards	-9757
▁remorse	-9758
▁returns	-9759
▁revival	-9760
▁scarlet	-9761
▁schoolf	-9762
▁screens	-9763
▁secrets	-9764
▁shining	-9765
▁soldier	-9766
▁someone	-9767
▁soothed	-9768
▁stating	-9769
▁swallow	-9770
▁tempest	-9771
▁terrace	-9772
▁tragedy	-9773
▁trifled	-9774
▁twisted	-9775
▁unalter	-9776
▁undesir	-9777
▁undoubt	-9778
▁unheard	-9779
▁unspeak	-9780
▁verdure	-9781
▁villain	-9782
▁visibly	-9783
▁volumes	-9784
▁washing	-9785
▁widower	-9786
Catherine	-9787
etermined	-9788
important	-9789
rehensive	-9790
represent	-9791
roportion	-9792
▁Baddeley	-9793
▁Bartlett	-9794
▁Bingleys	-9795
▁Crescent	-9796
▁Hamilton	-9797
▁Lansdown	-9798
▁Morlands	-9799
▁Somebody	-9800
▁Westgate	-9801
▁Wherever	-9802
▁accosted	-9803
▁addicted	-9804
▁admirals	-9805
▁alluding	-9806
▁altering	-9807
▁appealed	-9808
▁attained	-9809
▁borrowed	-9810
▁capacity	-9811
▁cheering	-9812
▁commiser	-9813
▁commonly	-9814
▁complied	-9815
▁confeder	-9816
▁courting	-9817
▁curtains	-9818
▁darkness	-9819
▁debating	-9820
▁defended	-9821
▁detached	-9822
▁dividing	-9823
▁efficacy	-9824
▁embraced	-9825
▁exceeded	-9826
▁exerting	-9827
▁exposure	-9828
▁farthest	-9829
▁fashions	-9830
▁favoured	-9831
▁fireside	-9832
▁fortunes	-9833
▁freckles	-9834
▁gathered	-9835
▁guarding	-9836
▁habitual	-9837
▁heavenly	-9838
▁heedless	-9839
▁heighten	-9840
▁hyacinth	-9841
▁implicit	-9842
▁indescri	-9843
▁instruct	-9844
▁irritate	-9845
▁landlord	-9846
▁lavender	-9847
▁meanness	-9848
▁minutiae	-9849
▁mutually	-9850
▁neatness	-9851
▁obstacle	-9852
▁outweigh	-9853
▁overtook	-9854
▁painting	-9855
▁pardoned	-9856
▁passions	-9857
▁purposes	-9858
▁reverted	-9859
▁reviving	-9860
▁scissors	-9861
▁shoulder	-9862
▁softness	-9863
▁splendid	-9864
▁stooping	-9865
▁subsided	-9866
▁tempting	-9867
▁vicarage	-9868
▁watchful	-9869
▁watering	-9870
▁wavering	-9871
ortunately	-9872
▁Collinses	-9873
▁acuteness	-9874
▁anxieties	-9875
▁arrogance	-9876
▁assiduous	-9877
▁assistant	-9878
▁barbarous	-9879
▁beholding	-9880
▁bordering	-9881
▁captivate	-9882
▁carpenter	-9883
▁clearness	-9884
▁confiding	-9885
▁consisted	-9886
▁courtship	-9887
▁deceiving	-9888
▁delicious	-9889
▁discharge	-9890
▁disdained	-9891
▁disliking	-9892
▁downright	-9893
▁enquiring	-9894
▁exchanged	-9895
▁fireplace	-9896
▁forwarded	-9897
▁frivolous	-9898
▁fulfilled	-9899
▁heartfelt	-9900
▁hindrance	-9901
▁histories	-9902
▁indignity	-9903
▁indolence	-9904
▁insincere	-9905
▁lightened	-9906
▁luxurious	-9907
▁nominally	-9908
▁objecting	-9909
▁permanent	-9910
▁possesses	-9911
▁protected	-9912
▁purchases	-9913
▁quadrille	-9914
▁quickened	-9915
▁quietness	-9916
▁rejection	-9917
▁reminding	-9918
▁rencontre	-9919
▁rendering	-9920
▁shrinking	-9921
▁sportsmen	-9922
▁springing	-9923
▁struggles	-9924
▁subsisted	-9925
▁talkative	-9926
▁toothpick	-9927
▁tormented	-9928
▁traveller	-9929
▁treachery	-9930
▁undecided	-9931
▁undertook	-9932
▁unfounded	-9933
▁unsuccess	-9934
▁waistcoat	-9935
▁withstand	-9936
▁abruptness	-9937
▁abundantly	-9938
▁accusation	-9939
▁admittance	-9940
▁assertions	-9941
▁backgammon	-9942
▁behindhand	-9943
▁cautiously	-9944
▁commanding	-9945
▁competence	-9946
▁compromise	-9947
▁condolence	-9948
▁confidante	-9949
▁confounded	-9950
▁contrition	-9951
▁diminution	-9952
▁disclaimed	-9953
▁disordered	-9954
▁displaying	-9955
▁dissipated	-9956
▁elegancies	-9957
▁endangered	-9958
▁favourites	-9959
▁feebleness	-9960
▁felicities	-9961
▁foreseeing	-9962
▁generality	-9963
▁generation	-9964
▁government	-9965
▁grievously	-9966
▁habitation	-9967
▁hesitating	-9968
▁inadequate	-9969
▁inconstant	-9970
▁indistinct	-9971
▁inflicting	-9972
▁inheriting	-9973
▁inimitable	-9974
▁innocently	-9975
▁intimation	-9976
▁irrational	-9977
▁irresolute	-9978
▁oppression	-9979
▁ordination	-9980
▁pardonable	-9981
▁parliament	-9982
▁plantation	-9983
▁practising	-9984
▁preferable	-9985
▁prejudices	-9986
▁pretension	-9987
▁propensity	-9988
▁recurrence	-9989
▁regardless	-9990
▁repentance	-9991
▁retreating	-9992
▁retrospect	-9993
▁spiritless	-9994
▁subjection	-9995
▁submissive	-9996
▁submitting	-9997
▁suddenness	-9998
▁suspension	-9999
▁threadbare	-10000
▁transition	-10001
▁unbecoming	-10002
▁undertaken	-10003
▁unemployed	-10004
▁unprepared	-10005
▁wickedness	-10006
▁advancement	-10007
▁affirmative	-10008
▁appropriate	-10009
▁beautifully	-10010
▁comfortless	-10011
▁comparisons	-10012
▁convictions	-10013
▁despondence	-10014
▁destruction	-10015
▁discoveries	-10016
▁dissipation	-10017
▁enlightened	-10018
▁enumerating	-10019
▁fascination	-10020
▁humiliating	-10021
▁imperfectly	-10022
▁incessantly	-10023
▁incredulity	-10024
▁indignantly	-10025
▁insinuating	-10026
▁interchange	-10027
▁mischievous	-10028
▁occurrences	-10029
▁overflowing	-10030
▁permanently	-10031
▁persuasions	-10032
▁preparatory	-10033
▁pronouncing	-10034
▁punctuality	-10035
▁resignation	-10036
▁restoration	-10037
▁sacrificing	-10038
▁slightingly	-10039
▁solicitudes	-10040
▁spontaneous	-10041
▁superintend	-10042
▁undisturbed	-10043
▁unsuspected	-10044
▁unwholesome	-10045
▁calculations	-10046
▁conjecturing	-10047
▁construction	-10048
▁contemplated	-10049
▁conveniently	-10050
▁counteracted	-10051
▁descriptions	-10052
▁disconcerted	-10053
▁extinguished	-10054
▁impartiality	-10055
▁indisputable	-10056
▁insinuations	-10057
▁interrupting	-10058
▁prodigiously	-10059
▁propensities	-10060
▁restrictions	-10061
▁solicitation	-10062
▁triumphantly	-10063
loucestershire	-10064
▁Mediterranean	-10065
▁accommodating	-10066
▁complimentary	-10067
▁comprehensive	-10068
▁conscientious	-10069
▁consternation	-10070
▁contradiction	-10071
▁disrespectful	-10072
▁expeditiously	-10073
▁inexpressibly	-10074
▁intentionally	-10075
▁investigation	-10076
▁participation	-10077
▁prepossessing	-10078
▁protestations	-10079
▁reprehensible	-10080
▁unconquerable	-10081
▁unnecessarily	-10082
▁characteristic	-10083
▁circumspection	-10084
▁congratulating	-10085
▁mortifications	-10086
▁disrespectfully	-10087
AL	-10088
Ch	-10089
La	-10090
pi	-10091
pr	-10092
rd	-10093
AME	-10094
Bet	-10095
Ext	-10096
aks	-10097
aly	-10098
aps	-10099
IL	-10100
Sm	-10101
St	-10102
Tw	-10103
Two	-10104
arc	-10105
aud	-10106
bib	-10107
bre	-10108
cle	-10109
cur	-10110
eep	-10111
ewc	-10112
flu	-10113
gic	-10114
hil	-10115
hog	-10116
ict	-10117
ima	-10118
mos	-10119
oul	-10120
rel	-10121
sha	-10122
sor	-10123
spo	-10124
ulk	-10125
win	-10126
yet	-10127
▁Em	-10128
▁ay	-10129
▁ba	-10130
▁eb	-10131
▁ep	-10132
▁na	-10133
?--"	-10134
Anne	-10135
Even	-10136
Happ	-10137
Look	-10138
Mary	-10139
Most	-10140
Supp	-10141
Sure	-10142
Tell	-10143
Were	-10144
Whom	-10145
airy	-10146
aped	-10147
aria	-10148
ater	-10149
away	-10150
beer	-10151
dded	-10152
enhe	-10153
esty	-10154
ewis	-10155
fold	-10156
form	-10157
fted	-10158
hast	-10159
hern	-10160
hore	-10161
iate	-10162
iers	-10163
ieth	-10164
ihil	-10165
inal	-10166
isms	-10167
laid	-10168
leng	-10169
lets	-10170
loqu	-10171
loss	-10172
lvet	-10173
mosp	-10174
nant	-10175
nces	-10176
nuts	-10177
oder	-10178
once	-10179
othy	-10180
path	-10181
quel	-10182
rade	-10183
rapp	-10184
reak	-10185
riot	-10186
root	-10187
than	-10188
uber	-10189
upon	-10190
urdy	-10191
werp	-10192
yday	-10193
▁Alt	-10194
▁Ann	-10195
▁Ast	-10196
▁Bel	-10197
▁Han	-10198
▁Hum	-10199
▁dr	-10200
kele	-10201
▁Lar	-10202
▁Mit	-10203
▁Six	-10204
▁Tun	-10205
▁ade	-10206
▁ail	-10207
▁aus	-10208
▁dig	-10209
▁eti	-10210
▁flu	-10211
▁fox	-10212
▁hea	-10213
▁hue	-10214
▁lam	-10215
▁len	-10216
▁lip	-10217
▁pad	-10218
▁pan	-10219
▁pel	-10220
▁pet	-10221
▁pew	-10222
▁pot	-10223
▁sen	-10224
▁sev	-10225
▁stu	-10226
▁twi	-10227
▁ult	-10228
▁wip	-10229
Humph	-10230
Still	-10231
While	-10232
acies	-10233
added	-10234
alogy	-10235
apham	-10236
arked	-10237
athed	-10238
aying	-10239
bbing	-10240
belie	-10241
bibed	-10242
btrus	-10243
close	-10244
creat	-10245
dance	-10246
doing	-10247
doors	-10248
dress	-10249
eally	-10250
edged	-10251
elity	-10252
emima	-10253
enery	-10254
enetr	-10255
enial	-10256
eries	-10257
esign	-10258
forth	-10259
guard	-10260
hings	-10261
ibral	-10262
inate	-10263
irely	-10264
isapp	-10265
ivete	-10266
ixons	-10267
llied	-10268
mbarr	-10269
mence	-10270
mento	-10271
nable	-10272
nally	-10273
othic	-10274
ourse	-10275
phing	-10276
ptive	-10277
racts	-10278
ranch	-10279
reens	-10280
retty	-10281
rewed	-10282
rives	-10283
seven	-10284
trade	-10285
uting	-10286
▁Bald	-10287
▁Crom	-10288
▁Ever	-10289
▁Like	-10290
▁Mine	-10291
▁Moor	-10292
▁Must	-10293
▁SAME	-10294
▁Self	-10295
▁Staf	-10296
▁Stan	-10297
▁Talk	-10298
▁Walk	-10299
▁Ward	-10300
▁Wind	-10301
▁airy	-10302
▁band	-10303
▁bath	-10304
▁bili	-10305
▁blam	-10306
▁caro	-10307
▁city	-10308
▁clam	-10309
▁copy	-10310
▁cray	-10311
▁dess	-10312
▁devi	-10313
▁epit	-10314
▁eyed	-10315
▁fest	-10316
▁foul	-10317
▁frat	-10318
▁fres	-10319
▁fury	-10320
▁gust	-10321
▁heal	-10322
▁hire	-10323
▁host	-10324
▁inad	-10325
▁inns	-10326
▁kick	-10327
▁laws	-10328
▁lend	-10329
▁lent	-10330
▁lieu	-10331
▁mock	-10332
▁mood	-10333
▁nods	-10334
▁nort	-10335
▁omit	-10336
▁pall	-10337
▁pane	-10338
▁pays	-10339
▁pier	-10340
▁pony	-10341
▁pool	-10342
▁prey	-10343
▁pudd	-10344
▁rant	-10345
▁rash	-10346
▁resc	-10347
▁sarc	-10348
▁sauc	-10349
▁sins	-10350
▁sixp	-10351
▁smir	-10352
▁soil	-10353
▁soli	-10354
▁stag	-10355
▁stom	-10356
▁sust	-10357
▁tame	-10358
▁task	-10359
▁tick	-10360
▁tide	-10361
▁tidy	-10362
▁toil	-10363
▁trou	-10364
▁tune	-10365
▁upst	-10366
▁veil	-10367
▁vile	-10368
▁void	-10369
▁ward	-10370
▁ware	-10371
▁wept	-10372
Edmund	-10373
Edward	-10374
Heaven	-10375
Should	-10376
achers	-10377
arings	-10378
atient	-10379
atures	-10380
cannot	-10381
chaise	-10382
ctagon	-10383
cution	-10384
enheim	-10385
ernons	-10386
estern	-10387
hogany	-10388
horses	-10389
igence	-10390
ivocal	-10391
ledged	-10392
legant	-10393
length	-10394
mitted	-10395
odious	-10396
orothy	-10397
perate	-10398
quetry	-10399
rangle	-10400
rimand	-10401
seeing	-10402
sellor	-10403
semble	-10404
should	-10405
spoken	-10406
spring	-10407
terest	-10408
terior	-10409
throat	-10410
uating	-10411
ulness	-10412
undrum	-10413
unging	-10414
unless	-10415
utting	-10416
velope	-10417
willed	-10418
▁Aston	-10419
▁Being	-10420
▁Betty	-10421
▁Bless	-10422
▁Broad	-10423
▁Brown	-10424
▁Emily	-10425
▁Lewis	-10426
▁Salis	-10427
▁Scott	-10428
▁Seven	-10429
▁Storn	-10430
▁Surpr	-10431
▁Swiss	-10432
▁Twick	-10433
▁abide	-10434
▁acres	-10435
▁argue	-10436
▁arrow	-10437
▁augur	-10438
▁bache	-10439
▁beque	-10440
▁boxes	-10441
▁cells	-10442
▁cheat	-10443
▁clerk	-10444
▁cleve	-10445
▁cling	-10446
▁copse	-10447
▁cream	-10448
▁creep	-10449
▁dairy	-10450
▁dines	-10451
▁drops	-10452
▁drown	-10453
▁drunk	-10454
▁duets	-10455
▁endow	-10456
▁ensue	-10457
▁equiv	-10458
▁erred	-10459
▁essay	-10460
▁fatal	-10461
▁fluct	-10462
▁frown	-10463
▁games	-10464
▁glare	-10465
▁guile	-10466
▁heirs	-10467
▁impol	-10468
▁indic	-10469
▁innum	-10470
▁jewel	-10471
▁laure	-10472
▁leant	-10473
▁lists	-10474
▁lowly	-10475
▁marks	-10476
▁meets	-10477
▁moves	-10478
▁needs	-10479
▁nobly	-10480
▁olive	-10481
▁paces	-10482
▁pangs	-10483
▁plump	-10484
▁prone	-10485
▁quart	-10486
▁races	-10487
▁risen	-10488
▁risks	-10489
▁roast	-10490
▁rocks	-10491
▁scale	-10492
▁shews	-10493
▁ships	-10494
▁shrew	-10495
▁skele	-10496
▁solit	-10497
▁songs	-10498
▁spell	-10499
▁sposo	-10500
▁squee	-10501
▁stept	-10502
▁stren	-10503
▁tacit	-10504
▁teeth	-10505
▁title	-10506
▁token	-10507
▁tones	-10508
▁tread	-10509
▁truer	-10510
▁unfor	-10511
▁unint	-10512
▁unpro	-10513
▁vague	-10514
▁vener	-10515
▁volub	-10516
▁wains	-10517
▁witty	-10518
Engaged	-10519
Wickham	-10520
William	-10521
ainable	-10522
amsgate	-10523
assable	-10524
atching	-10525
cilious	-10526
ctorily	-10527
ensible	-10528
evident	-10529
failing	-10530
grounds	-10531
inished	-10532
judiced	-10533
laiming	-10534
mediate	-10535
minster	-10536
olutely	-10537
ortment	-10538
painter	-10539
pressed	-10540
recated	-10541
rovided	-10542
service	-10543
ulating	-10544
ulously	-10545
wearied	-10546
▁Always	-10547
▁Astley	-10548
▁Beyond	-10549
▁Cannot	-10550
▁Careys	-10551
▁Carter	-10552
▁Excuse	-10553
▁Mitche	-10554
▁Myster	-10555
▁Stokes	-10556
▁Things	-10557
▁Wright	-10558
▁aching	-10559
▁aghast	-10560
▁ankles	-10561
▁ashore	-10562
▁atmosp	-10563
▁awaken	-10564
▁behold	-10565
▁biogra	-10566
▁bodily	-10567
▁bolder	-10568
▁bowing	-10569
▁bursts	-10570
▁buying	-10571
▁castle	-10572
▁cooled	-10573
▁cruise	-10574
▁deline	-10575
▁detach	-10576
▁device	-10577
▁devise	-10578
▁differ	-10579
▁dishes	-10580
▁dismal	-10581
▁divers	-10582
▁drawer	-10583
▁elated	-10584
▁enchan	-10585
▁falter	-10586
▁feeble	-10587
▁filial	-10588
▁fulfil	-10589
▁gifted	-10590
▁harder	-10591
▁heated	-10592
▁hiding	-10593
▁hoarse	-10594
▁hungry	-10595
▁hushed	-10596
▁impute	-10597
▁inured	-10598
▁issued	-10599
▁junior	-10600
▁legacy	-10601
▁linger	-10602
▁locked	-10603
▁lodged	-10604
▁lodges	-10605
▁losses	-10606
▁loudly	-10607
▁mechan	-10608
▁medium	-10609
▁merest	-10610
▁mighty	-10611
▁mouths	-10612
▁multip	-10613
▁murmur	-10614
▁nodded	-10615
▁obtrud	-10616
▁oddest	-10617
▁oldest	-10618
▁owning	-10619
▁paltry	-10620
▁passes	-10621
▁pearls	-10622
▁plaint	-10623
▁poison	-10624
▁pulled	-10625
▁purple	-10626
▁rarely	-10627
▁rector	-10628
▁refine	-10629
▁reigns	-10630
▁relish	-10631
▁remote	-10632
▁restor	-10633
▁resume	-10634
▁retort	-10635
▁richly	-10636
▁scanty	-10637
▁scarce	-10638
▁sealed	-10639
▁senior	-10640
▁sequel	-10641
▁shrubs	-10642
▁simper	-10643
▁storms	-10644
▁stormy	-10645
▁strain	-10646
▁sturdy	-10647
▁sullen	-10648
▁taller	-10649
▁tasted	-10650
▁tragic	-10651
▁uncles	-10652
▁undisc	-10653
▁undone	-10654
▁unfast	-10655
▁unfeel	-10656
▁unfelt	-10657
▁unknow	-10658
▁unprom	-10659
▁unsafe	-10660
▁unused	-10661
▁velvet	-10662
▁verses	-10663
▁wanton	-10664
▁weekly	-10665
atigable	-10666
ceptions	-10667
erfectly	-10668
ewcastle	-10669
handsome	-10670
ibraltar	-10671
ishments	-10672
isonment	-10673
laughing	-10674
mediable	-10675
probably	-10676
spirited	-10677
suadable	-10678
unctions	-10679
uousness	-10680
urnished	-10681
▁Absence	-10682
▁Antwerp	-10683
▁Baldwin	-10684
▁Clapham	-10685
▁Elliott	-10686
▁Exactly	-10687
▁Heavens	-10688
▁Suppose	-10689
▁Windsor	-10690
▁ability	-10691
▁accents	-10692
▁adviser	-10693
▁affable	-10694
▁analogy	-10695
▁annihil	-10696
▁annuity	-10697
▁aspired	-10698
▁averted	-10699
▁bedroom	-10700
▁benches	-10701
▁benefic	-10702
▁bilious	-10703
▁bounded	-10704
▁bowling	-10705
▁carving	-10706
▁chicken	-10707
▁closest	-10708
▁clothed	-10709
▁cluster	-10710
▁compact	-10711
▁complic	-10712
▁constru	-10713
▁counten	-10714
▁courses	-10715
▁dancers	-10716
▁dealing	-10717
▁defined	-10718
▁deplore	-10719
▁depreci	-10720
▁deprive	-10721
▁dessert	-10722
▁details	-10723
▁disobli	-10724
▁dowager	-10725
▁durable	-10726
▁elapsed	-10727
▁embrace	-10728
▁enemies	-10729
▁enforce	-10730
▁enraged	-10731
▁ensuing	-10732
▁envying	-10733
▁fainter	-10734
▁fairest	-10735
▁feather	-10736
▁figures	-10737
▁fitting	-10738
▁flowing	-10739
▁flushed	-10740
▁fondest	-10741
▁forbear	-10742
▁forfeit	-10743
▁forgave	-10744
▁glances	-10745
▁grudged	-10746
▁guiding	-10747
▁harshly	-10748
▁haughty	-10749
▁heavily	-10750
▁holiday	-10751
▁hopeful	-10752
▁imbibed	-10753
▁include	-10754
▁inflict	-10755
▁informs	-10756
▁inquiet	-10757
▁insight	-10758
▁irrepro	-10759
▁keenest	-10760
▁licence	-10761
▁lodging	-10762
▁lowness	-10763
▁measles	-10764
▁memento	-10765
▁mingled	-10766
▁mislead	-10767
▁monarch	-10768
▁murmurs	-10769
▁muslins	-10770
▁naivete	-10771
▁nominal	-10772
▁obviate	-10773
▁outstri	-10774
▁periods	-10775
▁pledged	-10776
▁pompous	-10777
▁precede	-10778
▁predict	-10779
▁proverb	-10780
▁pulling	-10781
▁readers	-10782
▁respons	-10783
▁ribbons	-10784
▁scenery	-10785
▁serving	-10786
▁seventy	-10787
▁shorten	-10788
▁spotted	-10789
▁springs	-10790
▁stamped	-10791
▁starved	-10792
▁stately	-10793
▁stories	-10794
▁studies	-10795
▁suffers	-10796
▁surpass	-10797
▁tallest	-10798
▁temples	-10799
▁thereby	-10800
▁tickets	-10801
▁touches	-10802
▁transpl	-10803
▁tricked	-10804
▁tyranny	-10805
▁unaware	-10806
▁unfixed	-10807
▁unfrequ	-10808
▁uninter	-10809
▁unquiet	-10810
▁victory	-10811
▁visions	-10812
▁wealthy	-10813
alrymples	-10814
meditated	-10815
mentioned	-10816
ollecting	-10817
rangement	-10818
rovidence	-10819
▁Anything	-10820
▁actuated	-10821
▁alphabet	-10822
▁anecdote	-10823
▁artifice	-10824
▁averting	-10825
▁bachelor	-10826
▁backward	-10827
▁befriend	-10828
▁believes	-10829
▁blamable	-10830
▁censured	-10831
▁chambers	-10832
▁chaplain	-10833
▁charades	-10834
▁claiming	-10835
▁clearest	-10836
▁commence	-10837
▁consumed	-10838
▁coquetry	-10839
▁corrobor	-10840
▁covering	-10841
▁dealings	-10842
▁delusion	-10843
▁deriving	-10844
▁descried	-10845
▁devoting	-10846
▁differed	-10847
▁disperse	-10848
▁disquiet	-10849
▁distaste	-10850
▁draughts	-10851
▁embraces	-10852
▁envelope	-10853
▁escorted	-10854
▁examples	-10855
▁explains	-10856
▁exterior	-10857
▁extorted	-10858
▁exulting	-10859
▁fainting	-10860
▁farmyard	-10861
▁fettered	-10862
▁flirting	-10863
▁footpath	-10864
▁hundreds	-10865
▁impelled	-10866
▁impenetr	-10867
▁imposing	-10868
▁improver	-10869
▁incensed	-10870
▁incurred	-10871
▁industri	-10872
▁injuring	-10873
▁intruder	-10874
▁lowering	-10875
▁luckiest	-10876
▁mahogany	-10877
▁measured	-10878
▁merciful	-10879
▁military	-10880
▁modestly	-10881
▁monument	-10882
▁motherly	-10883
▁nameless	-10884
▁nobility	-10885
▁northern	-10886
▁paleness	-10887
▁palpably	-10888
▁parading	-10889
▁paternal	-10890
▁pathetic	-10891
▁penitent	-10892
▁pictured	-10893
▁pondered	-10894
▁presided	-10895
▁projects	-10896
▁prompter	-10897
▁publicly	-10898
▁quickest	-10899
▁rambling	-10900
▁realised	-10901
▁recourse	-10902
▁removals	-10903
▁reserves	-10904
▁resuming	-10905
▁retiring	-10906
▁saddened	-10907
▁scheming	-10908
▁scrupled	-10909
▁shedding	-10910
▁shilling	-10911
▁simplest	-10912
▁skeleton	-10913
▁smoothly	-10914
▁soliloqu	-10915
▁sporting	-10916
▁standard	-10917
▁subduing	-10918
▁surmises	-10919
▁suspects	-10920
▁tapestry	-10921
▁terrific	-10922
▁touching	-10923
▁transfer	-10924
▁treading	-10925
▁troubles	-10926
▁twilight	-10927
▁umbrella	-10928
▁unabated	-10929
▁unbroken	-10930
▁unembarr	-10931
▁unobtrus	-10932
▁uttering	-10933
▁vanished	-10934
▁veracity	-10935
▁vigorous	-10936
▁vouchsaf	-10937
▁wainscot	-10938
▁withhold	-10939
Impossible	-10940
humouredly	-10941
iscountess	-10942
▁Excepting	-10943
▁Salisbury	-10944
▁Stornaway	-10945
▁Tunbridge	-10946
▁abatement	-10947
▁absenting	-10948
▁admission	-10949
▁agitating	-10950
▁alienated	-10951
▁allusions	-10952
▁annuities	-10953
▁attacking	-10954
▁augmented	-10955
▁backwards	-10956
▁blundered	-10957
▁brightest	-10958
▁cheerfull	-10959
▁cheerless	-10960
▁childhood	-10961
▁competent	-10962
▁consigned	-10963
▁conundrum	-10964
▁countries	-10965
▁curtailed	-10966
▁defective	-10967
▁descended	-10968
▁detailing	-10969
▁differing	-10970
▁disengage	-10971
▁dismissal	-10972
▁displease	-10973
▁diversion	-10974
▁diverting	-10975
▁duplicity	-10976
▁effectual	-10977
▁embracing	-10978
▁endurance	-10979
▁entangled	-10980
▁etiquette	-10981
▁extension	-10982
▁fatiguing	-10983
▁fluttered	-10984
▁foolishly	-10985
▁forfeited	-10986
▁fraternal	-10987
▁fruitless	-10988
▁gradation	-10989
▁harboured	-10990
▁imitation	-10991
▁impetuous	-10992
▁insidious	-10993
▁interpret	-10994
▁intimates	-10995
▁inventing	-10996
▁irregular	-10997
▁labouring	-10998
▁landscape	-10999
▁mischance	-11000
▁mountains	-11001
▁narrative	-11002
▁obscurity	-11003
▁obstacles	-11004
▁occupying	-11005
▁offspring	-11006
▁outwardly	-11007
▁overthrow	-11008
▁painfully	-11009
▁performer	-11010
▁perplexed	-11011
▁plausible	-11012
▁possessor	-11013
▁precision	-11014
▁presiding	-11015
▁presuming	-11016
▁prominent	-11017
▁publicity	-11018
▁quivering	-11019
▁reckoning	-11020
▁refrained	-11021
▁reprimand	-11022
▁resenting	-11023
▁resisting	-11024
▁resulting	-11025
▁revolving	-11026
▁staggered	-11027
▁strangely	-11028
▁surprises	-11029
▁surveying	-11030
▁tradesman	-11031
▁tremulous	-11032
▁umbrellas	-11033
▁unalloyed	-11034
▁unanimous	-11035
▁unchanged	-11036
▁unfeigned	-11037
▁unmerited	-11038
▁unthought	-11039
▁untouched	-11040
▁unvarying	-11041
▁vehemence	-11042
▁vexations	-11043
▁violation	-11044
▁welcoming	-11045
▁withstood	-11046
atisfaction	-11047
fortunately	-11048
heartedness	-11049
▁Honourable	-11050
▁Twickenham	-11051
▁Woodhouses	-11052
▁accounting	-11053
▁accurately	-11054
▁adventures	-11055
▁apologised	-11056
▁appreciate	-11057
▁associates	-11058
▁atmosphere	-11059
▁attendants	-11060
▁brightness	-11061
▁coarseness	-11062
▁commodious	-11063
▁conception	-11064
▁concession	-11065
▁conditions	-11066
▁confessing	-11067
▁consenting	-11068
▁counsellor	-11069
▁definition	-11070
▁deportment	-11071
▁deprecated	-11072
▁depression	-11073
▁descending	-11074
▁deservedly	-11075
▁disservice	-11076
▁distracted	-11077
▁distrusted	-11078
▁endowments	-11079
▁equivalent	-11080
▁estimating	-11081
▁exhibiting	-11082
▁familiarly	-11083
▁foreboding	-11084
▁generously	-11085
▁henceforth	-11086
▁illiterate	-11087
▁impassable	-11088
▁indefinite	-11089
▁internally	-11090
▁jealousies	-11091
▁midshipman	-11092
▁minuteness	-11093
▁moderately	-11094
▁overthrown	-11095
▁performing	-11096
▁pleasantry	-11097
▁possessing	-11098
▁postscript	-11099
▁precaution	-11100
▁precedence	-11101
▁prescribed	-11102
▁presenting	-11103
▁principals	-11104
▁projecting	-11105
▁quadrangle	-11106
▁reprobated	-11107
▁revolution	-11108
▁separately	-11109
▁separating	-11110
▁smoothness	-11111
▁soliciting	-11112
▁speechless	-11113
▁strengthen	-11114
▁stretching	-11115
▁studiously	-11116
▁subsisting	-11117
▁successive	-11118
▁superadded	-11119
▁superseded	-11120
▁supporting	-11121
▁surpassing	-11122
▁sympathise	-11123
▁tormenting	-11124
▁undertakes	-11125
▁undervoice	-11126
▁unfriendly	-11127
▁unpleasing	-11128
▁vigorously	-11129
▁volubility	-11130
▁whomsoever	-11131
▁Accordingly	-11132
▁Considering	-11133
▁Swisserland	-11134
▁Westminster	-11135
▁abstraction	-11136
▁accusations	-11137
▁alleviation	-11138
▁alternately	-11139
▁breakfasted	-11140
▁candlelight	-11141
▁collectedly	-11142
▁competition	-11143
▁complaining	-11144
▁consistency	-11145
▁desperately	-11146
▁desperation	-11147
▁discharging	-11148
▁discouraged	-11149
▁disinclined	-11150
▁enlargement	-11151
▁exclusively	-11152
▁fretfulness	-11153
▁grandfather	-11154
▁heightening	-11155
▁hesitations	-11156
▁incredulous	-11157
▁injudicious	-11158
▁innumerable	-11159
▁judiciously	-11160
▁necessaries	-11161
▁observances	-11162
▁occupations	-11163
▁penetrating	-11164
▁precipitate	-11165
▁professedly	-11166
▁proportions	-11167
▁quarrelsome	-11168
▁reproaching	-11169
▁respectably	-11170
▁seriousness	-11171
▁tediousness	-11172
▁temptations	-11173
▁termination	-11174
▁theatricals	-11175
▁unconvinced	-11176
▁undervalued	-11177
▁undeserving	-11178
▁undesirable	-11179
▁unfeelingly	-11180
▁unforgiving	-11181
▁unimportant	-11182
▁unknowingly	-11183
▁withdrawing	-11184
▁annihilation	-11185
▁ascertaining	-11186
▁capabilities	-11187
▁cautiousness	-11188
▁complacently	-11189
▁condemnation	-11190
▁discomposure	-11191
▁embarrassing	-11192
▁experiencing	-11193
▁imprisonment	-11194
▁inconsistent	-11195
▁individually	-11196
▁insufferably	-11197
▁intermediate	-11198
▁irremediable	-11199
▁mechanically	-11200
▁misrepresent	-11201
▁refreshments	-11202
▁relinquished	-11203
▁restlessness	-11204
▁schoolfellow	-11205
▁suitableness	-11206
▁supercilious	-11207
▁thoughtfully	-11208
▁tranquillise	-11209
▁transactions	-11210
▁unfrequently	-11211
▁Staffordshire	-11212
▁contemplating	-11213
▁corresponding	-11214
▁desirableness	-11215
▁disagreements	-11216
▁disappearance	-11217
▁forgetfulness	-11218
▁indefatigable	-11219
▁independently	-11220
▁indescribable	-11221
▁indispensably	-11222
▁interruptions	-11223
▁possibilities	-11224
▁tranquillised	-11225
▁unembarrassed	-11226
▁unpersuadable	-11227
▁discouragement	-11228
▁discrimination	-11229
▁embellishments	-11230
▁qualifications	-11231
▁reasonableness	-11232
▁satisfactorily	-11233
▁unpleasantness	-11234
▁unsuccessfully	-11235
▁instantaneously	-11236
gn	-11237
...	-11238
?'"	-11239
Hot	-11240
Imp	-11241
Say	-11242
Sto	-11243
amm	-11244
cky	-11245
emn	-11246
ioc	-11247
lad	-11248
low	-11249
oft	-11250
ror	-11251
ums	-11252
xty	-11253
Both	-11254
Stop	-11255
West	-11256
apan	-11257
apas	-11258
apes	-11259
apse	-11260
blem	-11261
boys	-11262
bser	-11263
cipl	-11264
clot	-11265
curt	-11266
desk	-11267
dock	-11268
efle	-11269
fuls	-11270
gree	-11271
greg	-11272
hili	-11273
iddy	-11274
ires	-11275
iscu	-11276
liff	-11277
made	-11278
mama	-11279
mont	-11280
ndom	-11281
nees	-11282
nets	-11283
ngry	-11284
oked	-11285
onym	-11286
papa	-11287
pray	-11288
resy	-11289
ride	-11290
scru	-11291
stru	-11292
suff	-11293
ueen	-11294
unge	-11295
ungs	-11296
upil	-11297
whis	-11298
wind	-11299
".	-11300
els	-11301
pen	-11302
six	-11303
agus	-11304
alty	-11305
aren	-11306
aunt	-11307
fare	-11308
ique	-11309
mean	-11310
nine	-11311
▁Eps	-11312
▁Inn	-11313
▁Inv	-11314
▁Mod	-11315
▁Tem	-11316
▁Wig	-11317
▁ami	-11318
▁bir	-11319
▁cip	-11320
▁cup	-11321
▁ecc	-11322
▁ens	-11323
▁liv	-11324
▁mob	-11325
▁pop	-11326
▁pug	-11327
▁ras	-11328
▁upb	-11329
▁yew	-11330
?"--"	-11331
Extra	-11332
Happy	-11333
acked	-11334
agine	-11335
agist	-11336
amily	-11337
anged	-11338
arsed	-11339
asked	-11340
ators	-11341
blood	-11342
books	-11343
cases	-11344
chool	-11345
ciety	-11346
ckets	-11347
ckled	-11348
dable	-11349
ended	-11350
erful	-11351
errys	-11352
essel	-11353
eties	-11354
going	-11355
horse	-11356
iated	-11357
imacy	-11358
inety	-11359
iress	-11360
ishop	-11361
istol	-11362
itage	-11363
joyed	-11364
lower	-11365
mency	-11366
ncour	-11367
nonym	-11368
onely	-11369
onted	-11370
orbit	-11371
orest	-11372
party	-11373
raper	-11374
rease	-11375
ribly	-11376
rophe	-11377
separ	-11378
shall	-11379
smith	-11380
terer	-11381
thers	-11382
three	-11383
trees	-11384
udder	-11385
urent	-11386
uteur	-11387
vened	-11388
whose	-11389
▁Arch	-11390
▁Bick	-11391
▁Birm	-11392
▁Cape	-11393
▁Cons	-11394
▁Heir	-11395
▁Hunt	-11396
▁Last	-11397
▁Mama	-11398
▁Shro	-11399
rs	-11400
iqu	-11401
olt	-11402
usk	-11403
asil	-11404
bill	-11405
both	-11406
done	-11407
good	-11408
hire	-11409
itic	-11410
nown	-11411
vest	-11412
wood	-11413
▁Bus	-11414
▁Mil	-11415
▁Wil	-11416
▁bra	-11417
▁cra	-11418
▁dog	-11419
▁inm	-11420
▁nod	-11421
▁unw	-11422
▁vow	-11423
Might	-11424
bread	-11425
ester	-11426
first	-11427
gyric	-11428
indul	-11429
isome	-11430
itive	-11431
meant	-11432
state	-11433
usive	-11434
▁Stay	-11435
▁adds	-11436
▁aflo	-11437
▁asks	-11438
▁awed	-11439
▁bade	-11440
▁bars	-11441
▁blot	-11442
▁broo	-11443
▁bulk	-11444
▁cash	-11445
▁cert	-11446
▁chap	-11447
▁corp	-11448
▁crav	-11449
▁cris	-11450
▁devo	-11451
▁diso	-11452
▁doat	-11453
▁doer	-11454
▁duke	-11455
▁dusk	-11456
▁eluc	-11457
▁emer	-11458
▁ends	-11459
▁enri	-11460
▁eyel	-11461
▁fram	-11462
▁frug	-11463
▁fund	-11464
▁gild	-11465
▁guns	-11466
▁haun	-11467
▁hole	-11468
▁hush	-11469
▁husw	-11470
▁idly	-11471
▁keys	-11472
▁lain	-11473
▁lame	-11474
▁lays	-11475
▁lean	-11476
▁legs	-11477
▁loin	-11478
▁milk	-11479
▁murd	-11480
▁nast	-11481
▁nett	-11482
▁nuis	-11483
▁nupt	-11484
▁oaks	-11485
▁peep	-11486
▁phoo	-11487
▁pint	-11488
▁plat	-11489
▁poem	-11490
▁poli	-11491
▁poll	-11492
▁prox	-11493
▁puts	-11494
▁reci	-11495
▁rely	-11496
▁rust	-11497
▁sash	-11498
▁sets	-11499
ST	-11500
oli	-11501
too	-11502
xed	-11503
▁Ho	-11504
!'--	-11505
cred	-11506
lete	-11507
line	-11508
llow	-11509
ppet	-11510
quir	-11511
rows	-11512
sses	-11513
take	-11514
▁Sim	-11515
▁Tet	-11516
▁dex	-11517
▁gar	-11518
▁hid	-11519
▁sem	-11520
▁tam	-11521
annel	-11522
conce	-11523
gnost	-11524
heart	-11525
ippet	-11526
irect	-11527
nexed	-11528
quire	-11529
▁Barn	-11530
▁Mist	-11531
▁Wild	-11532
▁acre	-11533
▁akin	-11534
▁exas	-11535
▁fors	-11536
▁nose	-11537
▁poul	-11538
▁rein	-11539
▁shoe	-11540
▁silk	-11541
▁sits	-11542
▁sorr	-11543
▁spri	-11544
▁stab	-11545
▁stam	-11546
▁sway	-11547
▁tray	-11548
▁trep	-11549
▁unav	-11550
▁vari	-11551
▁vows	-11552
▁whil	-11553
▁whip	-11554
▁wits	-11555
Before	-11556
Heyday	-11557
Lovers	-11558
Walter	-11559
acknow	-11560
amaria	-11561
ampled	-11562
ardens	-11563
asible	-11564
assage	-11565
branch	-11566
chever	-11567
depend	-11568
draper	-11569
enough	-11570
ensing	-11571
entary	-11572
entric	-11573
espect	-11574
estine	-11575
expect	-11576
gentle	-11577
grance	-11578
having	-11579
herent	-11580
hering	-11581
hestra	-11582
iances	-11583
iating	-11584
ienced	-11585
igrant	-11586
inting	-11587
ioners	-11588
irical	-11589
irteen	-11590
leased	-11591
mother	-11592
nesley	-11593
nhappy	-11594
nnight	-11595
nowing	-11596
olable	-11597
orians	-11598
orious	-11599
IE	-11600
eg	-11601
Men	-11602
aye	-11603
met	-11604
▁gi	-11605
Till	-11606
bags	-11607
eral	-11608
glan	-11609
illa	-11610
uled	-11611
urse	-11612
▁Ama	-11613
▁lav	-11614
▁lur	-11615
▁sup	-11616
▁thw	-11617
those	-11618
udied	-11619
unity	-11620
▁Comm	-11621
▁Isle	-11622
▁bash	-11623
▁cant	-11624
▁cust	-11625
▁dent	-11626
▁nest	-11627
▁sung	-11628
▁wave	-11629
▁whim	-11630
lement	-11631
orning	-11632
owland	-11633
ponded	-11634
pshire	-11635
rangue	-11636
ration	-11637
reeted	-11638
ricate	-11639
rimony	-11640
seemed	-11641
served	-11642
ularly	-11643
verage	-11644
worthy	-11645
▁----,	-11646
▁Basil	-11647
▁Bella	-11648
▁Belle	-11649
▁Byron	-11650
▁Compl	-11651
▁Early	-11652
▁Eight	-11653
▁Epsom	-11654
▁Human	-11655
▁Italy	-11656
▁Serle	-11657
▁Sleep	-11658
▁Stoke	-11659
▁Wight	-11660
▁accum	-11661
▁ached	-11662
▁aches	-11663
▁actor	-11664
▁amity	-11665
▁ankle	-11666
▁annum	-11667
▁apace	-11668
▁aspar	-11669
▁asper	-11670
▁await	-11671
▁barri	-11672
▁bespo	-11673
▁birds	-11674
▁biscu	-11675
▁bloss	-11676
▁blown	-11677
▁blows	-11678
▁boats	-11679
▁bount	-11680
▁brood	-11681
▁brute	-11682
▁burnt	-11683
▁caper	-11684
▁cavil	-11685
▁chasm	-11686
▁chill	-11687
▁cland	-11688
▁cliff	-11689
▁cloth	-11690
▁condu	-11691
▁cover	-11692
▁crept	-11693
▁curts	-11694
▁decay	-11695
▁demer	-11696
▁desol	-11697
▁divor	-11698
▁domin	-11699
--.	-11700
acc	-11701
pol	-11702
▁II	-11703
ents	-11704
ists	-11705
lier	-11706
orty	-11707
tery	-11708
▁awa	-11709
▁bai	-11710
▁cel	-11711
▁ice	-11712
▁shi	-11713
Mamma	-11714
erved	-11715
hilar	-11716
iliff	-11717
still	-11718
union	-11719
▁Away	-11720
▁bits	-11721
▁exce	-11722
▁gest	-11723
▁smil	-11724
ourers	-11725
resses	-11726
▁Angry	-11727
▁brace	-11728
▁drift	-11729
▁eaten	-11730
▁ebony	-11731
▁edged	-11732
▁elect	-11733
▁excel	-11734
▁expat	-11735
▁extin	-11736
▁fairy	-11737
▁fated	-11738
▁fires	-11739
▁flown	-11740
▁gayer	-11741
▁gloss	-11742
▁gramm	-11743
▁grass	-11744
▁greed	-11745
▁heavi	-11746
▁hired	-11747
▁honor	-11748
▁hurts	-11749
▁illum	-11750
▁inart	-11751
▁inner	-11752
▁intri	-11753
▁japan	-11754
▁knack	-11755
▁knave	-11756
▁kneel	-11757
▁knelt	-11758
▁laund	-11759
▁lease	-11760
▁lodge	-11761
▁loite	-11762
▁loose	-11763
▁lungs	-11764
▁malev	-11765
▁massy	-11766
▁meals	-11767
▁minor	-11768
▁motto	-11769
▁mourn	-11770
▁nasty	-11771
▁negot	-11772
▁ninth	-11773
▁opens	-11774
▁outer	-11775
▁overr	-11776
▁pales	-11777
▁paras	-11778
▁penny	-11779
▁plent	-11780
▁preem	-11781
▁proxy	-11782
▁pupil	-11783
▁rains	-11784
▁reced	-11785
▁relax	-11786
▁repet	-11787
▁repug	-11788
▁rings	-11789
▁ruins	-11790
▁salts	-11791
▁salut	-11792
▁sands	-11793
▁shady	-11794
▁shark	-11795
▁shudd	-11796
▁sighs	-11797
▁sixty	-11798
▁slack	-11799
ny	-11800
ino	-11801
Hand	-11802
acts	-11803
ersu	-11804
repe	-11805
▁Int	-11806
▁Mac	-11807
▁cat	-11808
▁cow	-11809
▁cro	-11810
▁fed	-11811
▁ham	-11812
▁hay	-11813
▁jar	-11814
erman	-11815
icest	-11816
itous	-11817
utney	-11818
▁Wilt	-11819
▁flag	-11820
▁hori	-11821
▁pens	-11822
▁unbi	-11823
▁wret	-11824
assemb	-11825
procal	-11826
▁heath	-11827
▁refer	-11828
▁slice	-11829
▁slope	-11830
▁squab	-11831
▁stern	-11832
▁stile	-11833
▁sting	-11834
▁stole	-11835
▁stupe	-11836
▁tales	-11837
▁theme	-11838
▁toils	-11839
▁tract	-11840
▁trink	-11841
▁troop	-11842
▁undue	-11843
▁until	-11844
▁usage	-11845
▁vowed	-11846
▁waits	-11847
▁wider	-11848
Believe	-11849
Suppose	-11850
Whoever	-11851
animate	-11852
ariness	-11853
armouth	-11854
ateness	-11855
atterer	-11856
balance	-11857
bathing	-11858
bearing	-11859
believe	-11860
besides	-11861
between	-11862
boarder	-11863
cations	-11864
cipline	-11865
clothes	-11866
colours	-11867
condemn	-11868
entieth	-11869
essions	-11870
exactly	-11871
finding	-11872
fitable	-11873
glasses	-11874
gressed	-11875
hanging	-11876
icament	-11877
iddling	-11878
ignedly	-11879
ionable	-11880
itative	-11881
itherto	-11882
legance	-11883
ndepend	-11884
omeness	-11885
oundrel	-11886
pending	-11887
perable	-11888
powered	-11889
rappler	-11890
ritical	-11891
rummond	-11892
stances	-11893
strange	-11894
success	-11895
thening	-11896
ushions	-11897
whisper	-11898
whoever	-11899
written	-11900
▁Behold	-11901
▁Cromer	-11902
▁Ladies	-11903
▁Master	-11904
▁Scotch	-11905
▁Smiths	-11906
▁actors	-11907
▁adjust	-11908
▁afloat	-11909
▁allude	-11910
▁amuses	-11911
▁anyhow	-11912
▁argued	-11913
▁artist	-11914
▁assign	-11915
▁atoned	-11916
▁attire	-11917
▁auspic	-11918
▁bearer	-11919
▁befell	-11920
▁beside	-11921
▁biased	-11922
▁blinds	-11923
▁bodies	-11924
▁bridge	-11925
▁cattle	-11926
▁cipher	-11927
▁clothe	-11928
▁colder	-11929
▁combat	-11930
▁comply	-11931
▁covert	-11932
▁crisis	-11933
▁crowds	-11934
▁cursed	-11935
▁decree	-11936
▁defied	-11937
▁demean	-11938
▁despic	-11939
▁devote	-11940
▁dexter	-11941
▁dispel	-11942
▁divine	-11943
▁donkey	-11944
▁dreamt	-11945
▁echoed	-11946
▁emphat	-11947
▁enrich	-11948
▁epithe	-11949
▁essent	-11950
▁execut	-11951
▁expend	-11952
▁expert	-11953
▁exuber	-11954
▁fickle	-11955
▁fields	-11956
▁finale	-11957
▁flowed	-11958
▁fruits	-11959
▁fuller	-11960
▁gainer	-11961
▁goings	-11962
▁groups	-11963
▁guinea	-11964
▁halves	-11965
▁handle	-11966
▁hatred	-11967
▁hedges	-11968
▁hollow	-11969
▁impede	-11970
▁inches	-11971
▁innate	-11972
▁inquis	-11973
▁inspir	-11974
▁instit	-11975
▁island	-11976
▁jewels	-11977
▁joking	-11978
▁judges	-11979
▁knives	-11980
▁lastly	-11981
▁laughs	-11982
▁litter	-11983
▁lonely	-11984
▁magist	-11985
▁malady	-11986
▁mature	-11987
▁maxims	-11988
▁medioc	-11989
▁millin	-11990
▁misman	-11991
▁morali	-11992
▁morals	-11993
▁mortal	-11994
▁muffin	-11995
▁neatly	-11996
▁newest	-11997
▁obtrus	-11998
▁occurs	-11999
▁owners	-12000
▁pacify	-12001
▁packet	-12002
▁parley	-12003
▁parson	-12004
▁pillow	-12005
▁piquet	-12006
▁plunge	-12007
▁policy	-12008
▁ponies	-12009
▁potent	-12010
▁proves	-12011
▁pulpit	-12012
▁purely	-12013
▁putrid	-12014
▁random	-12015
▁rascal	-12016
▁record	-12017
▁redden	-12018
▁rescue	-12019
▁reside	-12020
▁rivals	-12021
▁rustic	-12022
▁sacred	-12023
▁sailed	-12024
▁salary	-12025
▁sallow	-12026
▁saloon	-12027
▁scores	-12028
▁sedate	-12029
▁shades	-12030
▁shower	-12031
▁shrewd	-12032
▁shrunk	-12033
▁sights	-12034
▁signal	-12035
▁signed	-12036
▁softer	-12037
▁softly	-12038
▁solace	-12039
▁spleen	-12040
▁squire	-12041
▁starts	-12042
▁stimul	-12043
▁summit	-12044
▁temple	-12045
▁termed	-12046
▁theore	-12047
▁thrill	-12048
▁tippet	-12049
▁tithes	-12050
▁traces	-12051
▁trunks	-12052
▁turnpi	-12053
▁tyrann	-12054
▁unison	-12055
▁unlock	-12056
▁unrest	-12057
▁unsaid	-12058
▁vanish	-12059
▁vessel	-12060
▁waking	-12061
▁warmed	-12062
▁waters	-12063
▁whilst	-12064
▁wildly	-12065
▁worlds	-12066
Handsome	-12067
Highbury	-12068
aciously	-12069
actually	-12070
antation	-12071
artridge	-12072
asticity	-12073
blushing	-12074
entirely	-12075
ffectual	-12076
icularly	-12077
istolary	-12078
lowering	-12079
occupied	-12080
orbitant	-12081
pointing	-12082
ractised	-12083
resently	-12084
servants	-12085
shooting	-12086
ulations	-12087
urentina	-12088
▁Amongst	-12089
▁Baronet	-12090
▁Belmont	-12091
▁Camilla	-12092
▁Concert	-12093
▁Ellison	-12094
▁Hanover	-12095
▁Imagine	-12096
▁Selfish	-12097
▁Shortly	-12098
▁Sitting	-12099
▁Society	-12100
▁Tetbury	-12101
▁Thought	-12102
▁Wigmore	-12103
▁abstain	-12104
▁achieve	-12105
▁adverse	-12106
▁affords	-12107
▁agitate	-12108
▁annexed	-12109
▁arguing	-12110
▁assumed	-12111
▁authori	-12112
▁average	-12113
▁badness	-12114
▁bailiff	-12115
▁banners	-12116
▁bespoke	-12117
▁blaming	-12118
▁blended	-12119
▁briskly	-12120
▁broader	-12121
▁bystand	-12122
▁carries	-12123
▁castles	-12124
▁ceiling	-12125
▁chapter	-12126
▁chariot	-12127
▁cheated	-12128
▁cherish	-12129
▁classed	-12130
▁colours	-12131
▁combine	-12132
▁comment	-12133
▁compass	-12134
▁conduce	-12135
▁conquer	-12136
▁control	-12137
▁convent	-12138
▁convert	-12139
▁council	-12140
▁counted	-12141
▁couples	-12142
▁cravats	-12143
▁crayons	-12144
▁crimson	-12145
▁darting	-12146
▁defying	-12147
▁deigned	-12148
▁deliver	-12149
▁dentist	-12150
▁deposit	-12151
▁divorce	-12152
▁doubled	-12153
▁dreamer	-12154
▁dullest	-12155
▁dulness	-12156
▁earthly	-12157
▁edifice	-12158
▁elation	-12159
▁enliven	-12160
▁enthusi	-12161
▁errands	-12162
▁esteems	-12163
▁exclude	-12164
▁expects	-12165
▁feeding	-12166
▁flannel	-12167
▁flavour	-12168
▁flirted	-12169
▁fretted	-12170
▁frigate	-12171
▁fronted	-12172
▁fulfill	-12173
▁funeral	-12174
▁gilding	-12175
▁gladden	-12176
▁glasses	-12177
▁glories	-12178
▁grander	-12179
▁greeted	-12180
▁grieves	-12181
▁harvest	-12182
▁hateful	-12183
▁haunted	-12184
▁hauteur	-12185
▁hearted	-12186
▁heiress	-12187
▁hideous	-12188
▁humours	-12189
▁immoder	-12190
▁impover	-12191
▁influen	-12192
▁inmates	-12193
▁insepar	-12194
▁intends	-12195
▁intimid	-12196
▁intrude	-12197
▁kindred	-12198
▁labours	-12199
▁lenient	-12200
▁lifting	-12201
▁lighter	-12202
▁livings	-12203
▁lottery	-12204
▁lowered	-12205
▁lurking	-12206
▁medical	-12207
▁members	-12208
▁million	-12209
▁mindful	-12210
▁miracle	-12211
▁mortals	-12212
▁natured	-12213
▁offense	-12214
▁operate	-12215
▁orderly	-12216
▁outside	-12217
▁packing	-12218
▁paddock	-12219
▁painter	-12220
▁panting	-12221
▁parasol	-12222
▁passive	-12223
▁pelisse	-12224
▁planted	-12225
▁players	-12226
▁pleaded	-12227
▁pockets	-12228
▁precise	-12229
▁profile	-12230
▁proflig	-12231
▁puppies	-12232
▁quieter	-12233
▁rallied	-12234
▁rambles	-12235
▁ranting	-12236
▁recogni	-12237
▁rectory	-12238
▁relapse	-12239
▁relying	-12240
▁remnant	-12241
▁repeats	-12242
▁replete	-12243
▁reputed	-12244
▁resided	-12245
▁results	-12246
▁robbing	-12247
▁rushing	-12248
▁scorned	-12249
▁screams	-12250
▁secresy	-12251
▁shorter	-12252
▁showery	-12253
▁shudder	-12254
▁sloping	-12255
▁slyness	-12256
▁snowing	-12257
▁sounded	-12258
▁sparing	-12259
▁special	-12260
▁spurned	-12261
▁staring	-12262
▁stirred	-12263
▁stomach	-12264
▁subsist	-12265
▁summers	-12266
▁survive	-12267
▁sweetly	-12268
▁swiftly	-12269
▁synonym	-12270
▁thinner	-12271
▁thirdly	-12272
▁threats	-12273
▁torrent	-12274
▁trifles	-12275
▁trodden	-12276
▁twofold	-12277
▁uncouth	-12278
▁unmoved	-12279
▁unstead	-12280
▁upstart	-12281
▁utterly	-12282
▁vaulted	-12283
▁wasting	-12284
▁watches	-12285
▁western	-12286
▁whereas	-12287
▁womanly	-12288
▁workmen	-12289
▁worried	-12290
▁wronged	-12291
Excellent	-12292
arliament	-12293
assembled	-12294
believing	-12295
creatures	-12296
elightful	-12297
excepting	-12298
furnished	-12299
heartened	-12300
interpret	-12301
sometimes	-12302
▁Absolute	-12303
▁Annesley	-12304
▁Children	-12305
▁Hitherto	-12306
▁Longtown	-12307
▁Skinners	-12308
▁Somerset	-12309
▁Stanhill	-12310
▁Surprise	-12311
▁Thirteen	-12312
▁Wallises	-12313
▁Whitaker	-12314
▁abhorred	-12315
▁achieved	-12316
▁adequate	-12317
▁adhering	-12318
▁approval	-12319
▁archness	-12320
▁arrivals	-12321
▁avowedly	-12322
▁baronets	-12323
▁bedrooms	-12324
▁biscuits	-12325
▁boasting	-12326
▁bookcase	-12327
▁bursting	-12328
▁candidly	-12329
▁chatting	-12330
▁classing	-12331
▁clemency	-12332
▁cleverer	-12333
▁commands	-12334
▁comments	-12335
▁comprise	-12336
▁contract	-12337
▁coquette	-12338
▁counsels	-12339
▁creation	-12340
▁criminal	-12341
▁daylight	-12342
▁delivery	-12343
▁demerits	-12344
▁deplored	-12345
▁deranged	-12346
▁desolate	-12347
▁detailed	-12348
▁dilatory	-12349
▁dismount	-12350
▁doctrine	-12351
▁dominion	-12352
▁dullness	-12353
▁easiness	-12354
▁effected	-12355
▁emigrant	-12356
▁eminence	-12357
▁enabling	-12358
▁endanger	-12359
▁endeared	-12360
▁enormous	-12361
▁equipped	-12362
▁excepted	-12363
▁excesses	-12364
▁existing	-12365
▁failures	-12366
▁feasible	-12367
▁fidelity	-12368
▁fidgeted	-12369
▁filigree	-12370
▁finances	-12371
▁foretell	-12372
▁fullness	-12373
▁grandson	-12374
▁harangue	-12375
▁horribly	-12376
▁horsemen	-12377
▁improves	-12378
▁internal	-12379
▁interven	-12380
▁invented	-12381
▁jointure	-12382
▁junction	-12383
▁justness	-12384
▁knocking	-12385
▁latterly	-12386
▁laudable	-12387
▁lengthen	-12388
▁loitered	-12389
▁meantime	-12390
▁medicine	-12391
▁meditate	-12392
▁memorand	-12393
▁midnight	-12394
▁movement	-12395
▁musician	-12396
▁narrower	-12397
▁nothings	-12398
▁nuptials	-12399
▁offences	-12400
▁offenses	-12401
▁oftenest	-12402
▁omission	-12403
▁overhear	-12404
▁passable	-12405
▁perforce	-12406
▁petition	-12407
▁plaguing	-12408
▁populous	-12409
▁praising	-12410
▁predomin	-12411
▁proclaim	-12412
▁produces	-12413
▁prognost	-12414
▁protegee	-12415
▁receives	-12416
▁referred	-12417
▁regained	-12418
▁regulate	-12419
▁religion	-12420
▁repining	-12421
▁reproofs	-12422
▁reproved	-12423
▁repulsed	-12424
▁requited	-12425
▁reseated	-12426
▁resorted	-12427
▁resource	-12428
▁resulted	-12429
▁revolted	-12430
▁screamed	-12431
▁searched	-12432
▁seconded	-12433
▁securely	-12434
▁sixpence	-12435
▁smoothed	-12436
▁sneering	-12437
▁solidity	-12438
▁sprigged	-12439
▁steadier	-12440
▁sufficed	-12441
▁supports	-12442
▁surmount	-12443
▁sympathi	-12444
▁teachers	-12445
▁tempered	-12446
▁terribly	-12447
▁thwarted	-12448
▁toilette	-12449
▁trespass	-12450
▁tricking	-12451
▁trimming	-12452
▁troubled	-12453
▁tumbling	-12454
▁ultimate	-12455
▁unacknow	-12456
▁unawares	-12457
▁unlocked	-12458
▁unmarked	-12459
▁unseason	-12460
▁unshaken	-12461
▁unsuited	-12462
▁virtuous	-12463
▁viscount	-12464
▁westward	-12465
▁wilfully	-12466
absolutely	-12467
possession	-12468
scrupulous	-12469
▁Annamaria	-12470
▁Bickerton	-12471
▁Impatient	-12472
▁Midsummer	-12473
▁Mysteries	-12474
▁Wiltshire	-12475
▁abominate	-12476
▁accordant	-12477
▁additions	-12478
▁adoration	-12479
▁alliances	-12480
▁ambitious	-12481
▁amounting	-12482
▁anecdotes	-12483
▁arrowroot	-12484
▁asparagus	-12485
▁asserting	-12486
▁attaining	-12487
▁avoidance	-12488
▁baronetcy	-12489
▁bitterest	-12490
▁brotherly	-12491
▁causeless	-12492
▁clamorous	-12493
▁collation	-12494
▁concisely	-12495
▁conquered	-12496
▁correctly	-12497
▁countless	-12498
▁creditors	-12499
▁decisions	-12500
▁deduction	-12501
▁desertion	-12502
▁designing	-12503
▁despising	-12504
▁detaching	-12505
▁detecting	-12506
▁deviation	-12507
▁disposing	-12508
▁dissolved	-12509
▁dutifully	-12510
▁eccentric	-12511
▁ecstasies	-12512
▁effecting	-12513
▁elegantly	-12514
▁enchanted	-12515
▁enclosure	-12516
▁endearing	-12517
▁enlivened	-12518
▁esteeming	-12519
▁estimated	-12520
▁estranged	-12521
▁extending	-12522
▁eyelashes	-12523
▁faltering	-12524
▁farmhouse	-12525
▁favouring	-12526
▁flatterer	-12527
▁fragrance	-12528
▁frequency	-12529
▁frugality	-12530
▁godfather	-12531
▁governing	-12532
▁habitable	-12533
▁hackneyed	-12534
▁honouring	-12535
▁humourist	-12536
▁hundredth	-12537
▁hypocrite	-12538
▁illnesses	-12539
▁impending	-12540
▁impolitic	-12541
▁incurable	-12542
▁indecorum	-12543
▁inflicted	-12544
▁inherited	-12545
▁insulting	-12546
▁intruding	-12547
▁judgments	-12548
▁labourers	-12549
▁languages	-12550
▁leisurely	-12551
▁lightness	-12552
▁likeliest	-12553
▁literally	-12554
▁magnitude	-12555
▁malicious	-12556
▁measuring	-12557
▁miniature	-12558
▁multitude	-12559
▁northward	-12560
▁obedience	-12561
▁orchestra	-12562
▁overjoyed	-12563
▁overtures	-12564
▁panegyric	-12565
▁patiently	-12566
▁penetrate	-12567
▁penitence	-12568
▁personage	-12569
▁plaintive	-12570
▁plentiful	-12571
▁pondering	-12572
▁poulterer	-12573
▁powerless	-12574
▁practices	-12575
▁preserves	-12576
▁quartered	-12577
▁recurring	-12578
▁rehearsed	-12579
▁rejecting	-12580
▁religious	-12581
▁resigning	-12582
▁retentive	-12583
▁rheumatic	-12584
▁rheumatis	-12585
▁sarcastic	-12586
▁satirical	-12587
▁satisfies	-12588
▁scoundrel	-12589
▁sedentary	-12590
▁seduction	-12591
▁seniority	-12592
▁shivering	-12593
▁smilingly	-12594
▁softening	-12595
▁soliloquy	-12596
▁sorrowing	-12597
▁specimens	-12598
▁sportsman	-12599
▁stability	-12600
▁stiffness	-12601
▁straining	-12602
▁strangest	-12603
▁strolling	-12604
▁stupidest	-12605
▁surviving	-12606
▁sustained	-12607
▁syllables	-12608
▁tolerated	-12609
▁transport	-12610
▁treasures	-12611
▁unbending	-12612
▁unchecked	-12613
▁undeceive	-12614
▁undergone	-12615
▁undoubted	-12616
▁undressed	-12617
▁unsatisfa	-12618
▁unstudied	-12619
▁unusually	-12620
▁unwearied	-12621
▁vouchsafe	-12622
▁wearisome	-12623
▁whichever	-12624
▁witnesses	-12625
approbation	-12626
considering	-12627
isappointed	-12628
▁Birmingham	-12629
▁Laurentina	-12630
▁Shropshire	-12631
▁Wildenheim	-12632
▁alarmingly	-12633
▁anticipate	-12634
▁articulate	-12635
▁assembling	-12636
▁attainable	-12637
▁background	-12638
▁befriended	-12639
▁beginnings	-12640
▁beneficial	-12641
▁biographer	-12642
▁captivated	-12643
▁ceremonies	-12644
▁chattering	-12645
▁completing	-12646
▁compounded	-12647
▁conceiving	-12648
▁conferring	-12649
▁conformity	-12650
▁consisting	-12651
▁contention	-12652
▁courtesies	-12653
▁cultivated	-12654
▁diminished	-12655
▁discipline	-12656
▁discompose	-12657
▁discontinu	-12658
▁discussing	-12659
▁dispirited	-12660
▁economical	-12661
▁elasticity	-12662
▁encumbered	-12663
▁epistolary	-12664
▁essentials	-12665
▁exasperate	-12666
▁exceptions	-12667
▁exercising	-12668
▁exorbitant	-12669
▁experiment	-12670
▁extinction	-12671
▁exultingly	-12672
▁fickleness	-12673
▁flatteries	-12674
▁forbearing	-12675
▁forbidding	-12676
▁friendless	-12677
▁gradations	-12678
▁groundwork	-12679
▁horsewoman	-12680
▁imposition	-12681
▁indication	-12682
▁indiscreet	-12683
▁infamously	-12684
▁inquietude	-12685
▁justifying	-12686
▁methodical	-12687
▁miniatures	-12688
▁needlessly	-12689
▁nurseryman	-12690
▁obligingly	-12691
▁penetrated	-12692
▁privileges	-12693
▁production	-12694
▁profitable	-12695
▁protracted	-12696
▁provisions	-12697
▁quotations	-12698
▁regulation	-12699
▁rehearsals	-12700
▁rehearsing	-12701
▁repressing	-12702
▁sanctioned	-12703
▁shamefully	-12704
▁substitute	-12705
▁tranquilly	-12706
▁transparen	-12707
▁triumphing	-12708
▁unanswered	-12709
▁unassuming	-12710
▁unavailing	-12711
▁uncheerful	-12712
▁undervalue	-12713
▁undistingu	-12714
▁unexampled	-12715
▁uninformed	-12716
▁unworthily	-12717
▁variations	-12718
▁vouchsafed	-12719
condemnation	-12720
nfortunately	-12721
▁Compliments	-12722
▁Mainwarings	-12723
▁Willoughbys	-12724
▁absurdities	-12725
▁accountable	-12726
▁assiduities	-12727
▁authorising	-12728
▁blamelessly	-12729
▁brightening	-12730
▁circulating	-12731
▁clandestine	-12732
▁coincidence	-12733
▁complaisant	-12734
▁compunction	-12735
▁conclusions	-12736
▁confederacy	-12737
▁consolatory	-12738
▁consumption	-12739
▁contemplate	-12740
▁contraction	-12741
▁conversable	-12742
▁deliverance	-12743
▁disapproved	-12744
▁disclaiming	-12745
▁disobliging	-12746
▁diversified	-12747
▁ejaculation	-12748
▁encroaching	-12749
▁enumeration	-12750
▁essentially	-12751
▁exaggerated	-12752
▁expenditure	-12753
▁explanatory	-12754
▁extenuation	-12755
▁foolishness	-12756
▁forebodings	-12757
▁forestalled	-12758
▁gallantries	-12759
▁impartially	-12760
▁importunate	-12761
▁ineffectual	-12762
▁influencing	-12763
▁injunctions	-12764
▁insincerity	-12765
▁insuperable	-12766
▁negotiation	-12767
▁nothingness	-12768
▁ostentation	-12769
▁outstripped	-12770
▁overbearing	-12771
▁overhearing	-12772
▁peculiarity	-12773
▁persuadable	-12774
▁predicament	-12775
▁publication	-12776
▁rapturously	-12777
▁rationality	-12778
▁recognition	-12779
▁recommenced	-12780
▁regimentals	-12781
▁regulations	-12782
▁reluctantly	-12783
▁repetitions	-12784
▁resentfully	-12785
▁separations	-12786
▁sorrowfully	-12787
▁steadfastly	-12788
▁stipulation	-12789
▁strenuously	-12790
▁treacherous	-12791
▁trepidation	-12792
▁unalterable	-12793
▁unintention	-12794
▁unobtrusive	-12795
▁unpractised	-12796
▁unpromising	-12797
▁unspeakably	-12798
▁uprightness	-12799
▁Astonishment	-12800
▁apprehending	-12801
▁appropriated	-12802
▁commencement	-12803
▁commissioned	-12804
▁conciliating	-12805
▁conveniences	-12806
▁corresponded	-12807
▁countenances	-12808
▁declarations	-12809
▁deliberating	-12810
▁disheartened	-12811
▁distractedly	-12812
▁estrangement	-12813
▁exaggeration	-12814
▁henceforward	-12815
▁immoderately	-12816
▁impenetrable	-12817
▁inconsolable	-12818
▁indiscretion	-12819
▁inexperience	-12820
▁misinterpret	-12821
▁mysteriously	-12822
▁parishioners	-12823
▁passionately	-12824
▁perplexities	-12825
▁prepossessed	-12826
▁preservation	-12827
▁professional	-12828
▁solitariness	-12829
▁speculations	-12830
▁suspiciously	-12831
▁thankfulness	-12832
▁transgressed	-12833
▁unaffectedly	-12834
▁unpleasantly	-12835
▁unprejudiced	-12836
▁unprofitable	-12837
▁unrestrained	-12838
▁unsteadiness	-12839
▁administering	-12840
▁anticipations	-12841
▁authoritative	-12842
▁awkwardnesses	-12843
▁commiseration	-12844
▁conditionally	-12845
▁considerately	-12846
▁disproportion	-12847
▁dissimilarity	-12848
▁impertinently	-12849
▁inconsiderate	-12850
▁industriously	-12851
▁inexperienced	-12852
▁ingenuousness	-12853
▁introductions	-12854
▁mismanagement	-12855
▁presentiments	-12856
▁qualification	-12857
▁remonstrances	-12858
▁satisfactions	-12859
▁uninterrupted	-12860
▁advantageously	-12861
▁congratulatory	-12862
▁contemptuously	-12863
▁counterbalance	-12864
▁embarrassments	-12865
▁irreproachable	-12866
▁unacknowledged	-12867
▁understandings	-12868
▁unsatisfactory	-12869
▁dissatisfaction	-12870
▁inconsiderately	-12871
▁inconsistencies	-12872
▁straightforward	-12873
EST	-12874
ILL	-12875
cox	-12876
def	-12877
tax	-12878
--.'	-12879
ILLI	-12880
Many	-12881
argo	-12882
deem	-12883
desp	-12884
doms	-12885
erer	-12886
exam	-12887
inny	-12888
keys	-12889
mmet	-12890
olts	-12891
rewk	-12892
risy	-12893
trim	-12894
ulog	-12895
writ	-12896
▁Ayl	-12897
▁Tea	-12898
▁hug	-12899
,--'	-12900
amph	-12901
cott	-12902
gges	-12903
hung	-12904
----,	-12905
Beaut	-12906
Being	-12907
Break	-12908
Laugh	-12909
WILLI	-12910
Women	-12911
Write	-12912
achab	-12913
annah	-12914
boxes	-12915
brows	-12916
cheon	-12917
delic	-12918
efuse	-12919
egard	-12920
elope	-12921
gover	-12922
ibald	-12923
ilful	-12924
iptoe	-12925
laces	-12926
larke	-12927
lowly	-12928
mbled	-12929
ology	-12930
olsey	-12931
opher	-12932
owder	-12933
picur	-12934
ponds	-12935
ringe	-12936
roads	-12937
robes	-12938
ropic	-12939
shest	-12940
shops	-12941
trave	-12942
unned	-12943
yards	-12944
▁Alps	-12945
▁Alth	-12946
▁Alto	-12947
▁Hope	-12948
▁Sept	-12949
▁Sold	-12950
▁Wilf	-12951
▁balm	-12952
▁bids	-12953
▁caps	-12954
▁coff	-12955
▁crad	-12956
▁dash	-12957
▁dawn	-12958
▁drun	-12959
▁duck	-12960
▁eats	-12961
▁ecli	-12962
▁gape	-12963
▁gigs	-12964
▁hagg	-12965
▁hens	-12966
▁irks	-12967
▁mail	-12968
▁nail	-12969
▁omen	-12970
▁penk	-12971
▁piqu	-12972
▁publ	-12973
▁rang	-12974
▁rows	-12975
▁rung	-12976
▁rush	-12977
▁semb	-12978
▁sket	-12979
▁slam	-12980
▁sums	-12981
▁tale	-12982
▁trod	-12983
▁turf	-12984
▁veal	-12985
▁vict	-12986
▁walt	-12987
▁woke	-12988
▁wrap	-12989
Beyond	-12990
Exceed	-12991
Having	-12992
Louisa	-12993
Merely	-12994
Selina	-12995
aisirs	-12996
apital	-12997
atches	-12998
attled	-12999
voc	-13000
bacy	-13001
egit	-13002
gues	-13003
oors	-13004
soon	-13005
ydia	-13006
▁Atl	-13007
Lydia	-13008
echen	-13009
ladly	-13010
upman	-13011
xiety	-13012
▁dues	-13013
▁robe	-13014
atters	-13015
aunted	-13016
better	-13017
chosen	-13018
closet	-13019
comers	-13020
compar	-13021
concil	-13022
contro	-13023
efined	-13024
ellows	-13025
fellow	-13026
ficial	-13027
fluity	-13028
gardly	-13029
greens	-13030
hecies	-13031
holder	-13032
hounds	-13033
hropic	-13034
icians	-13035
icture	-13036
iddles	-13037
ingdon	-13038
inquir	-13039
iquity	-13040
isking	-13041
lashes	-13042
libacy	-13043
merely	-13044
mitage	-13045
mmetry	-13046
oicest	-13047
olborn	-13048
pretty	-13049
rafted	-13050
recian	-13051
render	-13052
renees	-13053
repare	-13054
ricult	-13055
rolled	-13056
rosven	-13057
rudent	-13058
runner	-13059
rusted	-13060
struck	-13061
teenth	-13062
umbers	-13063
uriant	-13064
utters	-13065
vative	-13066
within	-13067
▁Break	-13068
▁China	-13069
▁Cliff	-13070
▁Compt	-13071
▁Const	-13072
▁Crewk	-13073
▁Cruel	-13074
▁Hetty	-13075
▁Lords	-13076
▁Lucky	-13077
▁Money	-13078
▁Silly	-13079
▁Thorn	-13080
▁Whose	-13081
▁Women	-13082
▁Worse	-13083
▁annoy	-13084
▁arbit	-13085
▁audit	-13086
▁avert	-13087
▁banks	-13088
▁bells	-13089
▁bends	-13090
▁bills	-13091
▁bones	-13092
▁boots	-13093
▁brave	-13094
▁breed	-13095
▁brick	-13096
▁brook	-13097
▁calic	-13098
▁capes	-13099
Must	-13100
ecim	-13101
pler	-13102
umpl	-13103
vior	-13104
ymen	-13105
dumpl	-13106
ecimo	-13107
mptor	-13108
often	-13109
sorry	-13110
▁aust	-13111
▁barn	-13112
▁puff	-13113
▁race	-13114
▁ruff	-13115
▁text	-13116
arnish	-13117
perior	-13118
riting	-13119
stones	-13120
▁----'	-13121
▁Conce	-13122
▁Eager	-13123
▁Hymen	-13124
▁absor	-13125
▁barns	-13126
▁capri	-13127
▁clung	-13128
▁colle	-13129
▁conno	-13130
▁cooks	-13131
▁curse	-13132
▁debar	-13133
▁defra	-13134
▁demes	-13135
▁demur	-13136
▁depra	-13137
▁drily	-13138
▁dryly	-13139
▁ducks	-13140
▁dwind	-13141
▁eclip	-13142
▁embro	-13143
▁etern	-13144
▁exemp	-13145
▁fills	-13146
▁fools	-13147
▁forks	-13148
▁fraud	-13149
▁gales	-13150
▁giddy	-13151
▁gipsy	-13152
▁giver	-13153
▁gleam	-13154
▁hunts	-13155
▁inhum	-13156
▁insur	-13157
▁irrep	-13158
▁irrit	-13159
▁jaded	-13160
▁lands	-13161
▁lords	-13162
▁maxim	-13163
▁menus	-13164
▁mirac	-13165
▁monot	-13166
▁oddly	-13167
▁paced	-13168
▁palis	-13169
▁panic	-13170
▁papas	-13171
▁petty	-13172
▁pints	-13173
▁pique	-13174
▁pools	-13175
▁rants	-13176
▁reali	-13177
▁rents	-13178
▁ridge	-13179
▁rises	-13180
▁sandy	-13181
▁scrut	-13182
▁shrug	-13183
▁shuts	-13184
▁sixth	-13185
▁slyly	-13186
▁smoke	-13187
▁sneer	-13188
▁snuff	-13189
▁souls	-13190
▁stagn	-13191
▁stuck	-13192
▁stumb	-13193
▁swore	-13194
▁taxed	-13195
▁tenor	-13196
▁tires	-13197
▁trash	-13198
▁unimp	-13199
been	-13200
ixty	-13201
prec	-13202
prit	-13203
tons	-13204
avies	-13205
isery	-13206
ppery	-13207
venly	-13208
vited	-13209
▁Brit	-13210
▁clue	-13211
▁cope	-13212
▁earl	-13213
▁knit	-13214
▁refu	-13215
▁trad	-13216
before	-13217
haired	-13218
ivided	-13219
keeper	-13220
placed	-13221
ulties	-13222
wished	-13223
▁chequ	-13224
▁coast	-13225
▁fails	-13226
▁lawns	-13227
▁miser	-13228
▁petul	-13229
▁sland	-13230
▁sorts	-13231
▁stray	-13232
▁unlim	-13233
▁unmod	-13234
▁unpun	-13235
▁unsub	-13236
▁upset	-13237
▁vanqu	-13238
▁verse	-13239
▁vicar	-13240
▁vices	-13241
▁windy	-13242
▁wiped	-13243
Bertram	-13244
Bingley	-13245
Eleanor	-13246
WILLIAM	-13247
account	-13248
argaret	-13249
ashamed	-13250
assured	-13251
atorial	-13252
atterly	-13253
blooded	-13254
closets	-13255
conceit	-13256
ctually	-13257
dearest	-13258
eserved	-13259
ffended	-13260
genteel	-13261
imposed	-13262
inarily	-13263
inkling	-13264
istered	-13265
kindled	-13266
lengths	-13267
licited	-13268
luckily	-13269
married	-13270
mitting	-13271
ography	-13272
oherent	-13273
oldened	-13274
osities	-13275
present	-13276
putting	-13277
quarter	-13278
rateful	-13279
readful	-13280
remptor	-13281
romatic	-13282
rupting	-13283
sellers	-13284
shaking	-13285
sitting	-13286
suppose	-13287
trimmed	-13288
wanting	-13289
wrought	-13290
▁Affect	-13291
▁Almost	-13292
▁Bishop	-13293
▁Bridge	-13294
▁Cheaps	-13295
▁Clarke	-13296
▁Hagger	-13297
▁Hannah	-13298
▁Indian	-13299
Bath	-13300
Comp	-13301
Stay	-13302
arks	-13303
dued	-13304
farm	-13305
irls	-13306
many	-13307
mark	-13308
mely	-13309
mile	-13310
neys	-13311
orns	-13312
pany	-13313
ppos	-13314
vign	-13315
▁bla	-13316
▁voy	-13317
arkes	-13318
armth	-13319
arrys	-13320
bably	-13321
cheer	-13322
court	-13323
ircum	-13324
parks	-13325
▁Aunt	-13326
▁Shar	-13327
▁base	-13328
▁dram	-13329
achman	-13330
harged	-13331
itudes	-13332
remely	-13333
slowly	-13334
uition	-13335
vignon	-13336
▁bliss	-13337
▁deter	-13338
▁obliv	-13339
▁volun	-13340
entered	-13341
iresome	-13342
▁Circum	-13343
▁Laroll	-13344
▁School	-13345
▁Second	-13346
▁Smiles	-13347
▁Sparks	-13348
▁Temple	-13349
▁Tupman	-13350
▁Twelve	-13351
▁Warmth	-13352
▁Wilcox	-13353
▁Wolsey	-13354
▁accede	-13355
▁accrue	-13356
▁admiss	-13357
▁adored	-13358
▁agrees	-13359
▁aright	-13360
▁ascend	-13361
▁banker	-13362
▁battle	-13363
▁boyish	-13364
▁brains	-13365
▁braved	-13366
▁brideg	-13367
▁calico	-13368
▁capers	-13369
▁catast	-13370
▁caused	-13371
▁cavity	-13372
▁christ	-13373
▁clerks	-13374
▁cliffs	-13375
▁clocks	-13376
▁coffin	-13377
▁collar	-13378
▁costly	-13379
▁cotill	-13380
▁cottag	-13381
▁debate	-13382
▁deduct	-13383
▁detect	-13384
▁devoid	-13385
▁disarm	-13386
▁disput	-13387
▁divert	-13388
▁drinks	-13389
▁eighth	-13390
▁eighty	-13391
▁engrav	-13392
▁epicur	-13393
▁equity	-13394
▁extort	-13395
▁facing	-13396
▁fender	-13397
▁finely	-13398
▁flirts	-13399
loc	-13400
ufa	-13401
char	-13402
ifty	-13403
retn	-13404
▁Ext	-13405
▁Min	-13406
▁rig	-13407
Cruel	-13408
blown	-13409
enned	-13410
ffice	-13411
great	-13412
hened	-13413
plars	-13414
retna	-13415
▁foli	-13416
▁tens	-13417
▁ties	-13418
▁wick	-13419
arious	-13420
itened	-13421
ownish	-13422
rother	-13423
▁downc	-13424
▁explo	-13425
▁labor	-13426
▁lined	-13427
▁quits	-13428
▁recre	-13429
▁reins	-13430
▁stick	-13431
▁worsh	-13432
manship	-13433
uations	-13434
undance	-13435
urities	-13436
ventful	-13437
wishers	-13438
▁Matild	-13439
▁chains	-13440
▁commer	-13441
▁confer	-13442
▁ensign	-13443
▁evince	-13444
▁exempl	-13445
▁feebly	-13446
▁foible	-13447
▁framed	-13448
▁freaks	-13449
▁frolic	-13450
▁gaming	-13451
▁glossy	-13452
▁glowed	-13453
▁godson	-13454
▁grooms	-13455
▁hailed	-13456
▁harmon	-13457
▁haunch	-13458
▁headed	-13459
▁heroes	-13460
▁hotter	-13461
▁humane	-13462
▁images	-13463
▁immort	-13464
▁improv	-13465
▁inelig	-13466
▁inlaid	-13467
▁inside	-13468
▁joints	-13469
▁kisses	-13470
▁lawful	-13471
▁leaned	-13472
▁manufa	-13473
▁marble	-13474
▁medley	-13475
▁mended	-13476
▁mildly	-13477
▁miller	-13478
▁murder	-13479
▁ninety	-13480
▁orator	-13481
▁orphan	-13482
▁outrun	-13483
▁packed	-13484
▁palate	-13485
▁paling	-13486
▁pauses	-13487
▁peeped	-13488
▁penned	-13489
▁penury	-13490
▁persec	-13491
▁peruse	-13492
▁piqued	-13493
▁poking	-13494
▁poring	-13495
▁porter	-13496
▁precon	-13497
▁preval	-13498
▁prided	-13499
Any	-13500
emb	-13501
▁rh	-13502
airc	-13503
bone	-13504
eave	-13505
eged	-13506
face	-13507
pies	-13508
pson	-13509
rary	-13510
reck	-13511
rock	-13512
ursu	-13513
▁"--	-13514
▁nun	-13515
▁sci	-13516
Leave	-13517
abled	-13518
getic	-13519
leave	-13520
plete	-13521
water	-13522
▁Ives	-13523
▁Scho	-13524
▁arre	-13525
▁begs	-13526
▁deci	-13527
▁fits	-13528
▁flur	-13529
▁glim	-13530
▁gras	-13531
▁lust	-13532
bserve	-13533
inated	-13534
lights	-13535
▁Brock	-13536
▁Mount	-13537
▁dates	-13538
▁lasts	-13539
▁roomy	-13540
▁speck	-13541
▁usher	-13542
▁wears	-13543
ergetic	-13544
▁Encour	-13545
▁arches	-13546
▁arrear	-13547
▁dagger	-13548
▁dashed	-13549
▁define	-13550
▁expost	-13551
▁hunter	-13552
▁immove	-13553
▁incong	-13554
▁infall	-13555
▁looker	-13556
▁ragged	-13557
▁rating	-13558
▁reanim	-13559
▁refuge	-13560
▁renown	-13561
▁renter	-13562
▁repugn	-13563
▁requis	-13564
▁revolt	-13565
▁ridden	-13566
▁rivers	-13567
▁roared	-13568
▁robust	-13569
▁rooted	-13570
▁rubbed	-13571
▁rugged	-13572
▁sample	-13573
▁sashes	-13574
▁shaded	-13575
▁shaped	-13576
▁shares	-13577
▁singly	-13578
▁sinned	-13579
▁smells	-13580
▁snowed	-13581
▁sorely	-13582
▁specks	-13583
▁spends	-13584
▁stains	-13585
▁states	-13586
▁stocks	-13587
▁stores	-13588
▁strang	-13589
▁straws	-13590
▁supern	-13591
▁surest	-13592
▁thrive	-13593
▁tiptoe	-13594
▁tossed	-13595
▁tumble	-13596
▁unacqu	-13597
▁values	-13598
▁verand	-13599
nu	-13600
Add	-13601
ipe	-13602
isp	-13603
lac	-13604
nui	-13605
▁Me	-13606
ersi	-13607
lesh	-13608
list	-13609
lose	-13610
olls	-13611
olly	-13612
rier	-13613
▁gum	-13614
adeir	-13615
among	-13616
fated	-13617
leful	-13618
ppice	-13619
▁Call	-13620
▁Cass	-13621
▁Coxe	-13622
▁Hers	-13623
▁List	-13624
▁Mark	-13625
▁appl	-13626
▁assu	-13627
▁deem	-13628
▁defe	-13629
▁dorm	-13630
▁infl	-13631
▁loit	-13632
adeira	-13633
inkles	-13634
▁Honit	-13635
▁Woman	-13636
▁bulky	-13637
▁ennui	-13638
▁evade	-13639
▁flesh	-13640
▁imper	-13641
▁kinds	-13642
▁spars	-13643
▁stars	-13644
▁unpol	-13645
▁wrist	-13646
icholls	-13647
letcher	-13648
oulding	-13649
picuous	-13650
umerary	-13651
▁illust	-13652
▁simile	-13653
▁swayed	-13654
▁verbal	-13655
▁verily	-13656
▁viciss	-13657
▁vindic	-13658
▁voyage	-13659
▁wedded	-13660
▁wiping	-13661
▁wittic	-13662
▁woeful	-13663
▁wonted	-13664
▁wretch	-13665
▁wrongs	-13666
Hunsford	-13667
Margaret	-13668
Westgate	-13669
Whenever	-13670
accident	-13671
allowing	-13672
amphlets	-13673
apparent	-13674
arnished	-13675
arranged	-13676
assioned	-13677
charming	-13678
checking	-13679
curtains	-13680
daughter	-13681
ealously	-13682
elighted	-13683
ensively	-13684
eturning	-13685
expected	-13686
ferences	-13687
fluenced	-13688
glancing	-13689
iggardly	-13690
isements	-13691
issement	-13692
ivocally	-13693
jealousy	-13694
licitous	-13695
pectator	-13696
pleasant	-13697
prieties	-13698
provided	-13699
'?"	-13700
eem	-13701
tes	-13702
▁LI	-13703
▁ah	-13704
eous	-13705
lude	-13706
none	-13707
rost	-13708
talk	-13709
▁Ble	-13710
▁Ent	-13711
▁Lie	-13712
▁obv	-13713
▁ven	-13714
again	-13715
althy	-13716
amper	-13717
ccept	-13718
early	-13719
ettle	-13720
ingsw	-13721
lible	-13722
olved	-13723
stone	-13724
▁Hear	-13725
▁bide	-13726
▁cell	-13727
▁jarg	-13728
▁spas	-13729
▁spur	-13730
▁unut	-13731
ersons	-13732
iguous	-13733
itness	-13734
limity	-13735
qually	-13736
rified	-13737
settle	-13738
urally	-13739
▁Blest	-13740
▁brink	-13741
▁canal	-13742
▁scraw	-13743
▁smell	-13744
▁tenth	-13745
arrived	-13746
issions	-13747
▁Accept	-13748
▁garret	-13749
▁jargon	-13750
▁lights	-13751
▁repast	-13752
▁tremor	-13753
▁vainly	-13754
ingswest	-13755
ouldings	-13756
ractions	-13757
randison	-13758
remember	-13759
repeated	-13760
ressible	-13761
resuming	-13762
rivalled	-13763
rosvenor	-13764
strained	-13765
superior	-13766
thinking	-13767
ustrious	-13768
vertence	-13769
▁Against	-13770
▁Anxiety	-13771
▁Anybody	-13772
▁Avignon	-13773
▁Aylmers	-13774
▁Bragges	-13775
▁Clarkes	-13776
▁Convers	-13777
▁Elegant	-13778
▁Equally	-13779
▁Harding	-13780
▁Honiton	-13781
▁Madeira	-13782
▁Manners	-13783
▁Matilda	-13784
▁Matlock	-13785
▁Militia	-13786
▁Modesty	-13787
▁Secrecy	-13788
▁Sixteen	-13789
▁Sundays	-13790
▁Witness	-13791
▁abridge	-13792
▁abusive	-13793
▁acquitt	-13794
▁affixed	-13795
▁aggrand	-13796
▁ailment	-13797
▁allayed	-13798
▁alleged	-13799
dy	-13800
Make	-13801
cost	-13802
hent	-13803
last	-13804
lora	-13805
mion	-13806
ongs	-13807
roar	-13808
▁Law	-13809
▁Wel	-13810
▁apo	-13811
▁jil	-13812
.'--'	-13813
antry	-13814
athom	-13815
clean	-13816
dison	-13817
lical	-13818
oving	-13819
thank	-13820
treat	-13821
wness	-13822
▁Send	-13823
▁evin	-13824
▁link	-13825
▁mite	-13826
▁reel	-13827
▁vine	-13828
edford	-13829
hentic	-13830
ivance	-13831
▁Adela	-13832
▁Tease	-13833
▁Welch	-13834
▁beams	-13835
▁carts	-13836
▁drain	-13837
▁loser	-13838
▁penkn	-13839
▁shine	-13840
▁timed	-13841
another	-13842
cleaned	-13843
inently	-13844
throats	-13845
▁finess	-13846
▁flakes	-13847
▁hunted	-13848
▁linked	-13849
▁minded	-13850
▁stares	-13851
▁unwise	-13852
▁uproar	-13853
ensation	-13854
estation	-13855
▁Bedford	-13856
▁Beechen	-13857
▁antagon	-13858
▁appease	-13859
▁assuage	-13860
▁attends	-13861
▁authors	-13862
▁avenues	-13863
▁awaited	-13864
▁balance	-13865
▁bashful	-13866
▁beating	-13867
▁behaves	-13868
▁bending	-13869
▁bequest	-13870
▁blasted	-13871
▁boarder	-13872
▁boister	-13873
▁borders	-13874
▁brisker	-13875
▁burying	-13876
▁bustles	-13877
▁canvass	-13878
▁casting	-13879
▁century	-13880
▁chained	-13881
▁challen	-13882
▁charges	-13883
▁chatter	-13884
▁coarser	-13885
▁college	-13886
▁condole	-13887
▁confuse	-13888
▁congreg	-13889
▁conjure	-13890
▁contact	-13891
▁coppice	-13892
▁copying	-13893
▁craving	-13894
▁cricket	-13895
▁crooked	-13896
▁crowned	-13897
▁culture	-13898
▁current	-13899
usc	-13900
▁Ce	-13901
Ever	-13902
Want	-13903
dest	-13904
oped	-13905
tend	-13906
worn	-13907
iters	-13908
neath	-13909
nment	-13910
ousin	-13911
penny	-13912
▁Holl	-13913
▁mach	-13914
▁pick	-13915
▁reap	-13916
▁seal	-13917
▁stan	-13918
▁tard	-13919
▁unad	-13920
▁unam	-13921
Almost	-13922
alment	-13923
areful	-13924
atable	-13925
omance	-13926
thinks	-13927
vously	-13928
▁amore	-13929
▁cabin	-13930
▁denom	-13931
▁fable	-13932
▁flock	-13933
▁nicer	-13934
▁relic	-13935
▁sandw	-13936
▁sheep	-13937
▁shirt	-13938
entment	-13939
tically	-13940
▁Invite	-13941
▁comfor	-13942
▁endear	-13943
▁genial	-13944
▁kicked	-13945
▁licent	-13946
▁pinned	-13947
▁reduce	-13948
▁worded	-13949
Charming	-13950
▁Skinner	-13951
▁dawdled	-13952
▁debated	-13953
▁	-13954
e	-13955
t	-13956
a	-13957
o	-13958
n	-13959
i	-13960
h	-13961
s	-13962
r	-13963
d	-13964
l	-13965
u	-13966
m	-13967
c	-13968
f	-13969
w	-13970
y	-13971
g	-13972
,	-13973
p	-13974
b	-13975
v	-13976
.	-13977
k	-13978
"	-13979
I	-13980
-	-13981
;	-13982
M	-13983
T	-13984
x	-13985
'	-13986
H	-13987
S	-13988
E	-13989
W	-13990
q	-13991
C	-13992
B	-13993
A	-13994
!	-13995
j	-13996
?	-13997
L	-13998
