<unk>	0
▁t	-0
he	-1
▁a	-2
in	-3
▁s	-4
▁w	-5
re	-6
▁o	-7
ou	-8
ha	-9
▁the	-10
er	-11
nd	-12
▁b	-13
▁m	-14
it	-15
▁to	-16
en	-17
is	-18
on	-19
ed	-20
▁c	-21
▁f	-22
ing	-23
▁he	-24
▁of	-25
▁and	-26
or	-27
▁n	-28
▁d	-29
▁be	-30
ll	-31
as	-32
▁ha	-33
ar	-34
▁in	-35
▁p	-36
▁h	-37
an	-38
le	-39
at	-40
ot	-41
▁her	-42
om	-43
es	-44
▁I	-45
▁e	-46
ld	-47
▁was	-48
ly	-49
hat	-50
▁y	-51
ver	-52
ve	-53
▁l	-54
▁g	-55
st	-56
▁not	-57
ion	-58
ce	-59
▁you	-60
se	-61
▁M	-62
ent	-63
ch	-64
ut	-65
▁it	-66
im	-67
▁re	-68
gh	-69
ow	-70
▁"	-71
▁th	-72
ould	-73
▁she	-74
▁as	-75
▁for	-76
▁that	-77
ith	-78
id	-79
ay	-80
▁on	-81
ir	-82
et	-83
▁had	-84
her	-85
▁with	-86
ct	-87
▁an	-88
▁wh	-89
▁su	-90
al	-91
▁we	-92
▁u	-93
▁at	-94
ght	-95
ri	-96
▁his	-97
very	-98
▁so	-99
▁Mr	-100
▁have	-101
ter	-102
--	-103
ad	-104
ill	-105
ro	-106
▁T	-107
▁is	-108
."	-109
ain	-110
li	-111
▁con	-112
▁him	-113
pe	-114
oo	-115
▁H	-116
▁all	-117
▁mu	-118
▁E	-119
▁S	-120
ore	-121
▁se	-122
▁but	-123
ab	-124
ur	-125
▁me	-126
qu	-127
am	-128
if	-129
▁de	-130
ation	-131
lf	-132
▁very	-133
pp	-134
▁k	-135
▁whi	-136
▁could	-137
▁C	-138
ess	-139
▁by	-140
ss	-141
▁ne	-142
▁st	-143
our	-144
▁W	-145
▁com	-146
▁my	-147
ak	-148
▁been	-149
▁would	-150
▁B	-151
▁ex	-152
rom	-153
red	-154
art	-155
▁which	-156
▁do	-157
ort	-158
ne	-159
▁no	-160
ra	-161
▁fe	-162
▁le	-163
▁were	-164
all	-165
▁sa	-166
ge	-167
self	-168
ic	-169
ul	-170
▁A	-171
▁from	-172
▁The	-173
ant	-174
han	-175
hing	-176
▁any	-177
ome	-178
est	-179
ect	-180
ight	-181
ard	-182
ood	-183
▁sh	-184
▁them	-185
▁am	-186
te	-187
▁whe	-188
▁Mrs	-189
▁or	-190
ough	-191
▁they	-192
and	-193
▁al	-194
able	-195
now	-196
▁will	-197
▁dis	-198
▁more	-199
ann	-200
ure	-201
out	-202
ind	-203
▁see	-204
▁your	-205
us	-206
▁what	-207
ate	-208
ous	-209
▁who	-210
▁must	-211
ment	-212
▁un	-213
▁than	-214
▁af	-215
▁F	-216
iss	-217
▁this	-218
▁there	-219
▁L	-220
▁their	-221
,"	-222
▁ag	-223
ance	-224
il	-225
▁She	-226
▁know	-227
▁said	-228
ong	-229
▁such	-230
▁pre	-231
▁v	-232
▁per	-233
ive	-234
▁much	-235
end	-236
▁ab	-237
▁pro	-238
ather	-239
itt	-240
▁im	-241
el	-242
iv	-243
reat	-244
ity	-245
ost	-246
ther	-247
wn	-248
▁en	-249
ink	-250
other	-251
▁every	-252
▁qu	-253
▁one	-254
▁Miss	-255
nt	-256
ord	-257
ry	-258
pt	-259
▁are	-260
▁ac	-261
▁j	-262
▁think	-263
po	-264
ence	-265
▁how	-266
ert	-267
ast	-268
ke	-269
▁part	-270
▁r	-271
▁when	-272
age	-273
▁only	-274
ite	-275
ook	-276
fore	-277
▁man	-278
▁ad	-279
▁should	-280
ond	-281
way	-282
ake	-283
ine	-284
ame	-285
▁other	-286
ady	-287
▁He	-288
▁if	-289
▁tim	-290
▁ev	-291
ol	-292
one	-293
▁J	-294
▁being	-295
ally	-296
▁own	-297
▁D	-298
▁up	-299
▁did	-300
ought	-301
alk	-302
med	-303
▁li	-304
ac	-305
ness	-306
ings	-307
are	-308
▁good	-309
▁might	-310
▁herself	-311
▁great	-312
▁po	-313
▁say	-314
▁some	-315
▁too	-316
ell	-317
▁int	-318
od	-319
▁time	-320
▁never	-321
▁now	-322
ved	-323
ittle	-324
▁ob	-325
▁little	-326
▁again	-327
arri	-328
au	-329
▁comp	-330
ag	-331
▁look	-332
▁It	-333
▁well	-334
leas	-335
▁go	-336
▁feel	-337
ru	-338
▁fri	-339
tter	-340
▁ind	-341
▁happ	-342
▁pl	-343
ire	-344
fect	-345
▁can	-346
▁before	-347
ble	-348
▁sha	-349
pect	-350
ide	-351
ound	-352
?"	-353
ress	-354
hed	-355
ving	-356
▁sp	-357
urn	-358
ng	-359
ily	-360
ward	-361
▁friend	-362
ie	-363
▁br	-364
▁soon	-365
▁has	-366
ister	-367
ouse	-368
▁wis	-369
▁ju	-370
▁sister	-371
▁But	-372
lt	-373
ful	-374
sed	-375
You	-376
▁tw	-377
▁pleas	-378
▁nothing	-379
ree	-380
ice	-381
▁most	-382
▁ho	-383
▁res	-384
ist	-385
▁N	-386
▁long	-387
▁after	-388
▁thought	-389
fe	-390
per	-391
um	-392
▁cons	-393
▁even	-394
▁without	-395
▁lo	-396
ions	-397
▁fir	-398
cy	-399
ject	-400
▁out	-401
ade	-402
▁day	-403
▁Mar	-404
▁though	-405
ious	-406
ies	-407
lin	-408
▁Th	-409
▁att	-410
ma	-411
anny	-412
▁like	-413
▁first	-414
▁may	-415
▁fa	-416
ise	-417
▁P	-418
ose	-419
th	-420
▁Fanny	-421
ever	-422
▁und	-423
▁about	-424
room	-425
ach	-426
▁spe	-427
ford	-428
ig	-429
ible	-430
raw	-431
▁rem	-432
ers	-433
▁rep	-434
oll	-435
▁young	-436
▁wor	-437
mma	-438
▁two	-439
▁into	-440
lie	-441
▁imp	-442
▁quite	-443
▁ch	-444
▁made	-445
ars	-446
▁ever	-447
▁shall	-448
su	-449
▁over	-450
ways	-451
▁R	-452
▁Emma	-453
ley	-454
ple	-455
▁make	-456
▁off	-457
▁always	-458
▁supp	-459
▁ent	-460
▁dear	-461
▁cha	-462
ody	-463
un	-464
we	-465
ount	-466
▁ar	-467
▁des	-468
ck	-469
eth	-470
▁under	-471
▁sure	-472
▁thing	-473
liz	-474
▁just	-475
led	-476
▁inc	-477
ertain	-478
▁op	-479
▁Eliz	-480
fort	-481
▁cont	-482
own	-483
iness	-484
int	-485
ced	-486
▁house	-487
▁beg	-488
abeth	-489
▁then	-490
ning	-491
▁Elizabeth	-492
em	-493
▁ret	-494
ave	-495
omet	-496
▁ap	-497
▁belie	-498
▁talk	-499
▁want	-500
▁father	-501
▁mother	-502
▁sm	-503
ps	-504
▁Mari	-505
▁himself	-506
fere	-507
▁away	-508
▁inde	-509
ace	-510
thing	-511
icul	-512
orth	-513
.--	-514
sent	-515
▁last	-516
▁Ed	-517
ran	-518
▁mom	-519
▁moment	-520
▁exp	-521
▁fam	-522
linor	-523
▁however	-524
▁acc	-525
ged	-526
ci	-527
▁You	-528
▁way	-529
ction	-530
▁Elinor	-531
cc	-532
▁give	-533
ener	-534
▁kind	-535
▁walk	-536
▁sub	-537
▁its	-538
ated	-539
▁somet	-540
get	-541
▁inte	-542
▁gr	-543
▁Sir	-544
aint	-545
▁dif	-546
ane	-547
▁room	-548
ife	-549
ary	-550
▁sat	-551
▁sc	-552
▁better	-553
▁appe	-554
▁hope	-555
▁mean	-556
xt	-557
ud	-558
▁rec	-559
▁us	-560
ty	-561
▁mann	-562
▁having	-563
ick	-564
▁An	-565
ared	-566
▁G	-567
!"	-568
lo	-569
ied	-570
▁felt	-571
und	-572
▁many	-573
▁Lady	-574
▁enough	-575
▁Craw	-576
▁Crawford	-577
annot	-578
atherine	-579
ention	-580
▁Catherine	-581
ens	-582
igh	-583
▁cannot	-584
ft	-585
▁return	-586
fa	-587
light	-588
▁hand	-589
▁K	-590
▁mind	-591
▁family	-592
▁speak	-593
enn	-594
▁dist	-595
▁heart	-596
ried	-597
ither	-598
▁letter	-599
▁end	-600
▁pas	-601
▁giv	-602
▁set	-603
▁acqu	-604
▁gener	-605
▁done	-606
▁Jane	-607
▁And	-608
▁come	-609
anne	-610
▁wom	-611
▁har	-612
▁indeed	-613
▁wr	-614
▁reg	-615
aught	-616
▁wish	-617
▁seemed	-618
ild	-619
▁They	-620
▁certain	-621
les	-622
▁add	-623
▁Marianne	-624
▁home	-625
ssible	-626
ber	-627
▁affect	-628
ull	-629
▁upon	-630
ations	-631
▁brother	-632
▁app	-633
Oh	-634
most	-635
▁ass	-636
▁love	-637
▁feelings	-638
ish	-639
▁mor	-640
ately	-641
its	-642
ened	-643
▁hear	-644
▁still	-645
▁pr	-646
▁mat	-647
hen	-648
▁here	-649
▁present	-650
bt	-651
▁saw	-652
sh	-653
▁same	-654
body	-655
wards	-656
arly	-657
▁occ	-658
but	-659
ack	-660
▁inf	-661
▁dec	-662
▁happy	-663
▁came	-664
▁eng	-665
▁pleasure	-666
▁ser	-667
▁pe	-668
▁Anne	-669
gether	-670
▁word	-671
▁really	-672
hw	-673
night	-674
arriet	-675
ves	-676
▁found	-677
▁ri	-678
▁bec	-679
▁comm	-680
▁expect	-681
ined	-682
▁vis	-683
▁hour	-684
▁comfort	-685
haps	-686
ived	-687
▁our	-688
less	-689
▁Her	-690
ser	-691
▁something	-692
lic	-693
▁half	-694
▁ye	-695
ces	-696
▁less	-697
lied	-698
▁subject	-699
▁acquaint	-700
▁Harriet	-701
▁few	-702
▁down	-703
ield	-704
ince	-705
▁call	-706
▁while	-707
▁conf	-708
ract	-709
orr	-710
of	-711
▁heard	-712
ret	-713
▁Will	-714
▁till	-715
ten	-716
ause	-717
oubt	-718
▁West	-719
ider	-720
▁morning	-721
▁adv	-722
▁ey	-723
▁gl	-724
▁going	-725
ep	-726
rest	-727
▁almost	-728
arriage	-729
▁rather	-730
ably	-731
▁woman	-732
cept	-733
▁spir	-734
▁underst	-735
▁gent	-736
▁take	-737
▁where	-738
▁exc	-739
oy	-740
ety	-741
▁place	-742
ason	-743
▁inst	-744
▁myself	-745
!--	-746
▁unc	-747
os	-748
arm	-749
▁sur	-750
▁yet	-751
▁sec	-752
▁Weston	-753
▁tell	-754
▁satis	-755
▁particul	-756
nce	-757
▁world	-758
▁find	-759
▁rest	-760
vour	-761
▁adm	-762
▁ans	-763
▁another	-764
▁believe	-765
ign	-766
▁visit	-767
▁turn	-768
son	-769
▁hard	-770
oth	-771
new	-772
▁thr	-773
ark	-774
▁cl	-775
▁nat	-776
▁daught	-777
▁atte	-778
▁bet	-779
medi	-780
▁rece	-781
me	-782
ase	-783
field	-784
▁consider	-785
▁sit	-786
ctly	-787
▁obli	-788
air	-789
arcy	-790
▁Darcy	-791
▁together	-792
▁conc	-793
▁general	-794
▁immedi	-795
mund	-796
▁tak	-797
▁doubt	-798
unt	-799
inu	-800
▁left	-801
▁looked	-802
▁Edmund	-803
▁delight	-804
lton	-805
ition	-806
▁Elton	-807
▁perfect	-808
▁ask	-809
▁det	-810
▁does	-811
▁get	-812
▁chan	-813
▁opin	-814
▁cried	-815
▁conv	-816
▁since	-817
▁cour	-818
▁evening	-819
▁O	-820
ern	-821
ered	-822
▁least	-823
▁object	-824
▁differe	-825
▁interest	-826
ained	-827
▁manner	-828
nightley	-829
▁count	-830
▁ill	-831
▁best	-832
▁gentle	-833
▁seen	-834
▁those	-835
▁Knightley	-836
▁affection	-837
ath	-838
▁inv	-839
▁whom	-840
▁continu	-841
ix	-842
ween	-843
▁read	-844
▁replied	-845
owed	-846
ney	-847
arry	-848
▁disc	-849
▁appear	-850
apt	-851
▁anything	-852
▁spo	-853
ility	-854
erm	-855
▁act	-856
▁obser	-857
▁perhaps	-858
▁ide	-859
▁fort	-860
ile	-861
▁min	-862
▁knew	-863
▁There	-864
▁child	-865
▁reason	-866
▁In	-867
▁tru	-868
▁both	-869
▁often	-870
▁between	-871
Yes	-872
mer	-873
▁bl	-874
ense	-875
▁person	-876
▁happiness	-877
ople	-878
▁foll	-879
▁Rus	-880
▁three	-881
▁once	-882
▁short	-883
ip	-884
har	-885
ins	-886
irl	-887
▁ke	-888
▁minut	-889
▁whole	-890
▁certainly	-891
ceed	-892
vers	-893
irc	-894
ised	-895
▁nor	-896
▁back	-897
▁surp	-898
du	-899
ught	-900
man	-901
▁girl	-902
▁lady	-903
▁right	-904
▁understand	-905
▁equ	-906
▁circ	-907
▁gone	-908
▁party	-909
▁people	-910
▁therefore	-911
rove	-912
▁life	-913
ff	-914
▁far	-915
▁new	-916
pos	-917
here	-918
▁dire	-919
▁tr	-920
▁el	-921
▁em	-922
ired	-923
▁ref	-924
▁compan	-925
land	-926
oice	-927
▁Hen	-928
▁care	-929
aptain	-930
▁ext	-931
▁told	-932
▁agree	-933
▁ought	-934
▁express	-935
urch	-936
house	-937
▁given	-938
ek	-939
▁opinion	-940
▁Ch	-941
▁side	-942
▁wond	-943
▁point	-944
use	-945
▁Thom	-946
▁spirits	-947
ap	-948
ited	-949
▁Thomas	-950
▁Wood	-951
▁possible	-952
▁dan	-953
▁respect	-954
pend	-955
ennet	-956
▁Bennet	-957
oh	-958
aut	-959
cess	-960
▁each	-961
▁others	-962
▁Captain	-963
▁This	-964
▁prev	-965
▁suppose	-966
▁acquaintance	-967
sel	-968
▁immediately	-969
ude	-970
▁friends	-971
ery	-972
iment	-973
▁hardly	-974
ger	-975
▁began	-976
ial	-977
▁next	-978
ram	-979
▁else	-980
▁sett	-981
ue	-982
▁co	-983
ower	-984
▁His	-985
▁prom	-986
lli	-987
▁meet	-988
day	-989
▁poor	-990
agement	-991
▁mis	-992
ohn	-993
▁known	-994
▁charact	-995
▁hands	-996
wer	-997
▁deal	-998
▁passed	-999
hes	-1000
▁sil	-1001
▁resol	-1002
▁through	-1003
▁towards	-1004
▁John	-1005
▁favour	-1006
▁hop	-1007
▁old	-1008
▁able	-1009
▁aunt	-1010
▁imag	-1011
ingley	-1012
ven	-1013
▁opp	-1014
▁eyes	-1015
▁idea	-1016
▁leave	-1017
▁Bingley	-1018
by	-1019
▁We	-1020
▁put	-1021
ished	-1022
▁Char	-1023
▁Woodhouse	-1024
for	-1025
olon	-1026
ertram	-1027
▁inter	-1028
▁account	-1029
▁pret	-1030
▁against	-1031
▁If	-1032
olonel	-1033
▁Bertram	-1034
▁sus	-1035
asion	-1036
▁week	-1037
▁these	-1038
▁answer	-1039
▁bus	-1040
▁str	-1041
▁sort	-1042
▁marry	-1043
▁che	-1044
▁jud	-1045
▁daughter	-1046
ner	-1047
selves	-1048
But	-1049
ove	-1050
▁gu	-1051
lliot	-1052
▁went	-1053
▁attention	-1054
ult	-1055
▁Elliot	-1056
▁coming	-1057
It	-1058
▁seeing	-1059
app	-1060
No	-1061
ighb	-1062
▁stay	-1063
itation	-1064
▁longer	-1065
ham	-1066
ided	-1067
▁gave	-1068
▁years	-1069
▁hon	-1070
▁rel	-1071
ingly	-1072
▁wonder	-1073
▁anx	-1074
▁door	-1075
▁situ	-1076
ollect	-1077
And	-1078
ashw	-1079
▁Dashw	-1080
▁Dashwood	-1081
▁cous	-1082
▁glad	-1083
▁circum	-1084
▁Colonel	-1085
▁brought	-1086
▁obliged	-1087
ient	-1088
▁pur	-1089
▁character	-1090
▁seem	-1091
▁either	-1092
▁(	-1093
▁How	-1094
▁What	-1095
▁char	-1096
▁compl	-1097
▁strong	-1098
▁Is	-1099
▁My	-1100
▁Church	-1101
ton	-1102
▁gra	-1103
▁use	-1104
▁open	-1105
▁sent	-1106
▁determ	-1107
▁circumst	-1108
riv	-1109
▁cond	-1110
▁pain	-1111
▁wife	-1112
▁course	-1113
▁Lu	-1114
▁surpr	-1115
be	-1116
▁small	-1117
omm	-1118
ates	-1119
ances	-1120
▁Edward	-1121
▁necess	-1122
▁everything	-1123
yond	-1124
itude	-1125
▁Henry	-1126
▁minutes	-1127
text	-1128
<|	-1129
|>	-1130
▁<|	-1131
▁dre	-1132
▁tem	-1133
endof	-1134
▁list	-1135
endoftext	-1136
▁perfectly	-1137
arn	-1138
iam	-1139
iving	-1140
arried	-1141
ib	-1142
aged	-1143
▁sens	-1144
▁abs	-1145
▁eas	-1146
▁pass	-1147
▁convers	-1148
to	-1149
▁Y	-1150
▁To	-1151
▁ra	-1152
▁mak	-1153
▁persu	-1154
nded	-1155
▁beyond	-1156
▁satisf	-1157
ully	-1158
▁body	-1159
▁matter	-1160
▁different	-1161
ren	-1162
▁jo	-1163
iting	-1164
▁beha	-1165
▁prob	-1166
▁head	-1167
ust	-1168
▁fl	-1169
▁est	-1170
posed	-1171
▁town	-1172
▁regard	-1173
▁aw	-1174
▁wa	-1175
▁din	-1176
worth	-1177
▁took	-1178
▁because	-1179
▁occasion	-1180
▁te	-1181
▁suff	-1182
dd	-1183
▁warm	-1184
▁means	-1185
mpt	-1186
▁diff	-1187
▁quest	-1188
▁whether	-1189
▁received	-1190
▁agreeable	-1191
▁situation	-1192
ager	-1193
eness	-1194
aim	-1195
--"	-1196
ting	-1197
▁let	-1198
▁feeling	-1199
une	-1200
▁All	-1201
▁When	-1202
▁impo	-1203
▁wished	-1204
▁business	-1205
ons	-1206
oint	-1207
▁Mary	-1208
▁natur	-1209
▁whose	-1210
▁talked	-1211
▁days	-1212
▁serv	-1213
▁beaut	-1214
▁disapp	-1215
▁added	-1216
▁yourself	-1217
?--	-1218
ans	-1219
iew	-1220
sequ	-1221
▁draw	-1222
▁power	-1223
▁attach	-1224
▁within	-1225
ilney	-1226
▁play	-1227
▁conversation	-1228
fax	-1229
ory	-1230
▁fan	-1231
▁Fair	-1232
▁Tilney	-1233
▁Fairfax	-1234
▁pretty	-1235
iz	-1236
ross	-1237
▁remem	-1238
▁Churchill	-1239
rank	-1240
ondon	-1241
▁uncle	-1242
▁London	-1243
▁wanted	-1244
▁Ly	-1245
onth	-1246
adies	-1247
owing	-1248
▁Jenn	-1249
▁begin	-1250
▁walked	-1251
▁Jennings	-1252
▁'	-1253
err	-1254
▁carriage	-1255
ior	-1256
▁hel	-1257
▁mist	-1258
ured	-1259
ently	-1260
▁ladies	-1261
▁looking	-1262
▁manners	-1263
uct	-1264
uth	-1265
▁high	-1266
▁name	-1267
pl	-1268
▁hus	-1269
▁grat	-1270
▁spoke	-1271
▁taken	-1272
▁entire	-1273
cri	-1274
nding	-1275
▁called	-1276
▁concern	-1277
▁continued	-1278
ments	-1279
ating	-1280
▁conne	-1281
ella	-1282
ached	-1283
▁state	-1284
▁William	-1285
▁mention	-1286
▁marriage	-1287
▁As	-1288
▁among	-1289
▁themselves	-1290
ass	-1291
orry	-1292
▁returned	-1293
par	-1294
▁No	-1295
that	-1296
cious	-1297
▁near	-1298
▁ready	-1299
band	-1300
ship	-1301
▁dare	-1302
abella	-1303
hworth	-1304
▁voice	-1305
▁distress	-1306
▁engagement	-1307
pose	-1308
▁hum	-1309
▁sorry	-1310
▁comple	-1311
▁Rushworth	-1312
cour	-1313
reet	-1314
▁eager	-1315
▁things	-1316
▁husband	-1317
▁gentleman	-1318
The	-1319
ready	-1320
▁Bath	-1321
▁fine	-1322
▁help	-1323
▁consequ	-1324
know	-1325
▁tri	-1326
ively	-1327
oughby	-1328
entworth	-1329
▁serious	-1330
▁children	-1331
▁determined	-1332
My	-1333
▁Willoughby	-1334
▁es	-1335
▁cle	-1336
ering	-1337
itting	-1338
▁Isabella	-1339
▁Wentworth	-1340
▁already	-1341
▁sisters	-1342
▁impossible	-1343
joy	-1344
▁advant	-1345
▁ins	-1346
▁view	-1347
lu	-1348
ute	-1349
▁settled	-1350
ched	-1351
cing	-1352
ston	-1353
▁fre	-1354
antly	-1355
▁enjoy	-1356
ference	-1357
▁difficul	-1358
▁entirely	-1359
ia	-1360
;--	-1361
▁exa	-1362
ience	-1363
orris	-1364
▁change	-1365
▁saying	-1366
▁married	-1367
▁disappoint	-1368
vi	-1369
uli	-1370
▁civ	-1371
▁usu	-1372
▁poss	-1373
▁Norris	-1374
▁real	-1375
▁self	-1376
arce	-1377
raid	-1378
▁bre	-1379
▁sense	-1380
▁words	-1381
iet	-1382
▁requ	-1383
▁night	-1384
▁country	-1385
iled	-1386
ledge	-1387
aid	-1388
▁doing	-1389
▁deg	-1390
▁son	-1391
▁appro	-1392
▁equal	-1393
▁afraid	-1394
vo	-1395
▁need	-1396
▁kindness	-1397
▁hor	-1398
▁yes	-1399
▁keep	-1400
▁Frank	-1401
▁honour	-1402
itted	-1403
▁full	-1404
▁month	-1405
▁proper	-1406
▁Sm	-1407
▁ef	-1408
orland	-1409
▁allow	-1410
▁appeared	-1411
▁satisfied	-1412
▁ten	-1413
▁bring	-1414
▁expected	-1415
▁ro	-1416
fter	-1417
▁accept	-1418
▁prevent	-1419
▁recollect	-1420
▁hur	-1421
▁ste	-1422
▁decl	-1423
▁talking	-1424
acy	-1425
▁men	-1426
▁met	-1427
▁depend	-1428
▁directly	-1429
up	-1430
like	-1431
▁lau	-1432
▁inqu	-1433
ickham	-1434
▁worth	-1435
▁assure	-1436
▁believed	-1437
▁thinking	-1438
ging	-1439
imes	-1440
▁giving	-1441
▁making	-1442
▁Charles	-1443
idd	-1444
▁St	-1445
▁air	-1446
▁expl	-1447
▁thank	-1448
▁common	-1449
▁fortune	-1450
▁afterwards	-1451
orrow	-1452
▁work	-1453
▁exactly	-1454
ken	-1455
atch	-1456
▁lar	-1457
▁That	-1458
▁likely	-1459
▁Wickham	-1460
▁attachment	-1461
orm	-1462
▁une	-1463
▁engaged	-1464
▁forward	-1465
fully	-1466
▁Smith	-1467
▁early	-1468
▁V	-1469
Well	-1470
cted	-1471
▁four	-1472
▁usual	-1473
▁turned	-1474
gu	-1475
▁Lucy	-1476
▁year	-1477
▁hours	-1478
▁super	-1479
▁cousin	-1480
▁former	-1481
▁pleased	-1482
▁anxious	-1483
▁handsome	-1484
▁particular	-1485
rant	-1486
▁Coll	-1487
▁forg	-1488
▁import	-1489
▁Collins	-1490
▁satisfa	-1491
▁Wh	-1492
▁dinner	-1493
rely	-1494
will	-1495
▁got	-1496
viour	-1497
▁fart	-1498
▁question	-1499
▁behaviour	-1500
aw	-1501
uri	-1502
▁Mans	-1503
▁bear	-1504
▁true	-1505
▁wind	-1506
arcely	-1507
▁conduct	-1508
He	-1509
▁U	-1510
▁ele	-1511
▁fix	-1512
▁try	-1513
▁alone	-1514
▁asked	-1515
▁company	-1516
▁neither	-1517
▁particularly	-1518
ury	-1519
iety	-1520
rand	-1521
▁convin	-1522
▁inclin	-1523
▁regret	-1524
ling	-1525
▁tend	-1526
▁used	-1527
▁natural	-1528
▁advantage	-1529
▁appearance	-1530
so	-1531
osed	-1532
▁Thor	-1533
▁nature	-1534
lay	-1535
come	-1536
▁bad	-1537
atter	-1538
▁acknow	-1539
▁Mansfield	-1540
ities	-1541
▁incre	-1542
ighbour	-1543
▁farther	-1544
▁neighbour	-1545
Mr	-1546
▁form	-1547
▁creat	-1548
▁dread	-1549
uch	-1550
used	-1551
▁Mus	-1552
▁aston	-1553
▁scarcely	-1554
▁five	-1555
▁fancy	-1556
▁degree	-1557
▁address	-1558
▁entered	-1559
alth	-1560
ures	-1561
range	-1562
▁Musg	-1563
▁repe	-1564
▁quiet	-1565
▁greater	-1566
▁sometimes	-1567
dia	-1568
▁smile	-1569
▁prop	-1570
▁hoped	-1571
▁attent	-1572
av	-1573
▁At	-1574
▁Do	-1575
iece	-1576
▁evil	-1577
▁Lydia	-1578
▁cheer	-1579
▁encour	-1580
▁attempt	-1581
▁convinced	-1582
wise	-1583
▁soci	-1584
enance	-1585
▁speaking	-1586
▁swe	-1587
ified	-1588
▁With	-1589
▁cold	-1590
▁fear	-1591
▁admir	-1592
▁compliment	-1593
▁sto	-1594
ounds	-1595
uring	-1596
▁fond	-1597
▁conce	-1598
▁round	-1599
▁necessary	-1600
She	-1601
ool	-1602
the	-1603
rodu	-1604
well	-1605
▁cal	-1606
▁ord	-1607
ually	-1608
▁charm	-1609
▁intim	-1610
▁temper	-1611
▁consequence	-1612
aste	-1613
iddle	-1614
ident	-1615
usion	-1616
▁Hart	-1617
▁earn	-1618
▁break	-1619
▁extre	-1620
▁stand	-1621
▁second	-1622
oud	-1623
shire	-1624
▁case	-1625
▁prof	-1626
▁drawing	-1627
▁introdu	-1628
▁ball	-1629
idence	-1630
▁Grant	-1631
ott	-1632
position	-1633
▁Hartfield	-1634
erc	-1635
▁fin	-1636
▁taste	-1637
▁remain	-1638
dden	-1639
▁lik	-1640
oured	-1641
▁Allen	-1642
▁assist	-1643
▁pleasant	-1644
▁supposed	-1645
ene	-1646
pic	-1647
▁sir	-1648
▁ende	-1649
▁truth	-1650
▁except	-1651
▁notice	-1652
enty	-1653
▁sho	-1654
iable	-1655
ouble	-1656
▁fair	-1657
▁After	-1658
▁meant	-1659
ishment	-1660
▁danger	-1661
▁surprise	-1662
ler	-1663
sell	-1664
ying	-1665
▁For	-1666
▁val	-1667
▁const	-1668
▁indif	-1669
▁large	-1670
How	-1671
▁Bates	-1672
▁event	-1673
▁effect	-1674
▁recomm	-1675
▁imagine	-1676
▁society	-1677
▁superior	-1678
▁ce	-1679
ortun	-1680
▁curi	-1681
▁influ	-1682
▁extreme	-1683
,--	-1684
osity	-1685
ution	-1686
▁stru	-1687
▁produ	-1688
▁sudden	-1689
▁earnest	-1690
▁meeting	-1691
▁circumstances	-1692
ames	-1693
inci	-1694
▁eye	-1695
alter	-1696
ising	-1697
▁taking	-1698
▁pi	-1699
cell	-1700
iles	-1701
▁pra	-1702
▁face	-1703
ession	-1704
▁Maria	-1705
▁occur	-1706
▁quick	-1707
▁months	-1708
▁thoughts	-1709
▁recommend	-1710
bert	-1711
over	-1712
▁emp	-1713
▁mod	-1714
▁spite	-1715
▁Russell	-1716
▁satisfaction	-1717
What	-1718
gment	-1719
▁nobody	-1720
▁remember	-1721
▁Not	-1722
▁sim	-1723
▁Your	-1724
▁table	-1725
▁write	-1726
▁walking	-1727
▁complete	-1728
▁greatest	-1729
▁knowledge	-1730
▁countenance	-1731
rie	-1732
▁def	-1733
▁refle	-1734
▁Morland	-1735
▁servant	-1736
▁sitting	-1737
▁opportun	-1738
▁probably	-1739
▁bo	-1740
ased	-1741
▁Sus	-1742
▁dut	-1743
▁remo	-1744
randon	-1745
▁claim	-1746
▁beginning	-1747
eng	-1748
ual	-1749
▁alarm	-1750
▁princi	-1751
▁Brandon	-1752
▁hearing	-1753
wh	-1754
▁news	-1755
▁sweet	-1756
▁wrong	-1757
no	-1758
▁Thorpe	-1759
▁unp	-1760
▁deser	-1761
▁allowed	-1762
▁proceed	-1763
mb	-1764
arr	-1765
aded	-1766
▁lea	-1767
▁eleg	-1768
ousand	-1769
▁excell	-1770
▁listen	-1771
▁silence	-1772
▁thousand	-1773
gg	-1774
oun	-1775
▁dress	-1776
▁impro	-1777
▁Street	-1778
▁Walter	-1779
▁beauty	-1780
▁decided	-1781
▁followed	-1782
loy	-1783
rice	-1784
fered	-1785
▁live	-1786
▁wishes	-1787
▁acquainted	-1788
amp	-1789
men	-1790
ulia	-1791
▁descri	-1792
▁slight	-1793
ub	-1794
▁Per	-1795
▁avo	-1796
▁why	-1797
▁quar	-1798
▁trouble	-1799
▁delighted	-1800
rud	-1801
▁Oh	-1802
ific	-1803
▁plac	-1804
▁forget	-1805
▁tender	-1806
▁purpose	-1807
▁cheerful	-1808
oor	-1809
val	-1810
aken	-1811
hood	-1812
wered	-1813
▁book	-1814
▁easy	-1815
▁hast	-1816
idered	-1817
▁Julia	-1818
▁Susan	-1819
ibility	-1820
▁everybody	-1821
outh	-1822
olute	-1823
▁sight	-1824
▁window	-1825
▁suspect	-1826
▁curiosity	-1827
▁considered	-1828
▁difference	-1829
▁opportunity	-1830
gr	-1831
▁ago	-1832
▁worse	-1833
▁employ	-1834
▁inform	-1835
▁living	-1836
▁comfortable	-1837
ray	-1838
ages	-1839
▁dri	-1840
iling	-1841
▁Every	-1842
ination	-1843
▁inquir	-1844
▁Musgrove	-1845
▁answered	-1846
ead	-1847
res	-1848
ted	-1849
uck	-1850
▁On	-1851
fast	-1852
unic	-1853
▁cap	-1854
▁eld	-1855
redit	-1856
▁late	-1857
errars	-1858
▁perce	-1859
▁silent	-1860
▁communic	-1861
▁sensible	-1862
▁delightful	-1863
ief	-1864
▁hab	-1865
▁par	-1866
rance	-1867
rival	-1868
▁sake	-1869
▁sche	-1870
morrow	-1871
▁aware	-1872
▁trust	-1873
▁Ferrars	-1874
▁arrival	-1875
▁equally	-1876
▁whatever	-1877
▁daughters	-1878
▁fell	-1879
▁priv	-1880
▁tran	-1881
▁contr	-1882
▁looks	-1883
▁times	-1884
▁health	-1885
▁intell	-1886
▁creature	-1887
▁instantly	-1888
▁cor	-1889
aring	-1890
rived	-1891
▁fore	-1892
ctions	-1893
▁dance	-1894
▁praise	-1895
▁companion	-1896
▁influence	-1897
ze	-1898
▁mer	-1899
▁mus	-1900
tered	-1901
▁plan	-1902
▁pros	-1903
▁concl	-1904
▁indul	-1905
▁loved	-1906
▁repeated	-1907
▁admiration	-1908
▁disposition	-1909
▁So	-1910
▁ve	-1911
▁sum	-1912
▁jour	-1913
▁past	-1914
▁accom	-1915
▁girls	-1916
▁laugh	-1917
▁remark	-1918
▁amiable	-1919
▁resolved	-1920
alls	-1921
▁joy	-1922
▁mot	-1923
arest	-1924
▁safe	-1925
▁fixed	-1926
▁spent	-1927
▁exceed	-1928
▁observ	-1929
▁remained	-1930
▁invitation	-1931
▁circumstance	-1932
ony	-1933
ote	-1934
▁toler	-1935
▁conscious	-1936
▁extremely	-1937
If	-1938
ili	-1939
nde	-1940
▁pay	-1941
▁excl	-1942
▁lost	-1943
▁Their	-1944
▁light	-1945
▁Middle	-1946
▁Middleton	-1947
gy	-1948
she	-1949
oney	-1950
▁inj	-1951
never	-1952
▁became	-1953
▁credit	-1954
ses	-1955
▁sy	-1956
ides	-1957
sured	-1958
▁grie	-1959
▁anybody	-1960
▁absolute	-1961
▁understanding	-1962
Th	-1963
That	-1964
ouis	-1965
▁Long	-1966
▁hint	-1967
▁Price	-1968
▁match	-1969
ighbury	-1970
▁knowing	-1971
▁judgment	-1972
▁observed	-1973
▁acknowled	-1974
▁beh	-1975
ouisa	-1976
▁happened	-1977
abl	-1978
pped	-1979
inary	-1980
▁shew	-1981
icient	-1982
▁James	-1983
▁desire	-1984
▁merely	-1985
▁spoken	-1986
▁entreat	-1987
▁letters	-1988
▁intellig	-1989
▁breakfast	-1990
▁excellent	-1991
▁persuaded	-1992
you	-1993
▁pa	-1994
▁ut	-1995
peci	-1996
▁stri	-1997
▁delic	-1998
▁pride	-1999
▁relie	-2000
▁seems	-2001
▁weeks	-2002
▁Louisa	-2003
▁spirit	-2004
▁journey	-2005
▁Highbury	-2006
▁difficult	-2007
▁gratitude	-2008
▁ir	-2009
rupt	-2010
▁ran	-2011
▁var	-2012
right	-2013
▁amuse	-2014
▁inclination	-2015
lot	-2016
▁six	-2017
arent	-2018
where	-2019
▁Such	-2020
▁exert	-2021
▁tried	-2022
▁easily	-2023
pecially	-2024
gin	-2025
▁Ad	-2026
▁Re	-2027
angu	-2028
hens	-2029
iful	-2030
▁sty	-2031
avour	-2032
iction	-2033
rehens	-2034
▁fault	-2035
▁hopes	-2036
▁attentions	-2037
▁mo	-2038
▁low	-2039
▁join	-2040
▁kept	-2041
▁spee	-2042
▁money	-2043
▁repro	-2044
▁forgot	-2045
▁absence	-2046
▁leaving	-2047
▁meaning	-2048
▁surprised	-2049
ency	-2050
fair	-2051
▁wel	-2052
lotte	-2053
▁calm	-2054
▁fall	-2055
▁avoid	-2056
▁highly	-2057
▁support	-2058
▁Charlotte	-2059
▁mentioned	-2060
rew	-2061
▁Co	-2062
king	-2063
▁Har	-2064
▁tre	-2065
▁vain	-2066
orough	-2067
▁extra	-2068
▁frequ	-2069
▁suspic	-2070
▁mistaken	-2071
▁endeavour	-2072
▁ma	-2073
bour	-2074
▁bel	-2075
▁pat	-2076
▁pol	-2077
▁sing	-2078
▁style	-2079
▁behind	-2080
▁weather	-2081
▁esc	-2082
▁tra	-2083
▁duty	-2084
▁delay	-2085
▁share	-2086
▁struck	-2087
▁instead	-2088
▁enjoyment	-2089
▁also	-2090
▁none	-2091
▁impat	-2092
▁solic	-2093
▁women	-2094
▁favourite	-2095
▁friendship	-2096
▁disappointment	-2097
ors	-2098
▁fut	-2099
▁Mart	-2100
▁incon	-2101
▁offer	-2102
▁chance	-2103
▁assured	-2104
▁especially	-2105
Do	-2106
▁age	-2107
▁emb	-2108
aster	-2109
reder	-2110
▁leng	-2111
▁loss	-2112
▁mort	-2113
▁pres	-2114
▁close	-2115
▁plain	-2116
▁reply	-2117
retched	-2118
▁afford	-2119
▁future	-2120
▁improve	-2121
▁conviction	-2122
▁resolution	-2123
old	-2124
what	-2125
hamed	-2126
unate	-2127
▁Gard	-2128
▁tone	-2129
▁lived	-2130
▁Freder	-2131
▁attend	-2132
ph	-2133
look	-2134
rehe	-2135
▁dep	-2136
▁run	-2137
▁vex	-2138
▁judge	-2139
▁separ	-2140
▁information	-2141
.'	-2142
▁bu	-2143
edly	-2144
▁ang	-2145
▁led	-2146
▁luck	-2147
▁wait	-2148
ottage	-2149
▁desir	-2150
▁watch	-2151
▁trying	-2152
▁cousins	-2153
▁finding	-2154
▁sentiment	-2155
zy	-2156
▁aff	-2157
▁disp	-2158
▁ease	-2159
▁thus	-2160
▁above	-2161
▁treat	-2162
▁Gardin	-2163
▁ashamed	-2164
▁conceal	-2165
▁reached	-2166
▁smallest	-2167
▁gentlemen	-2168
▁otherwise	-2169
▁exceedingly	-2170
mir	-2171
sit	-2172
happ	-2173
▁neg	-2174
▁suc	-2175
▁tea	-2176
▁hurry	-2177
▁forced	-2178
▁anxiety	-2179
▁succeed	-2180
▁confidence	-2181
▁understood	-2182
reed	-2183
▁God	-2184
▁clo	-2185
miral	-2186
▁exam	-2187
▁fact	-2188
▁chief	-2189
▁horse	-2190
▁niece	-2191
▁affair	-2192
▁dancing	-2193
▁distance	-2194
▁listened	-2195
▁interesting	-2196
We	-2197
ash	-2198
▁Ro	-2199
▁ed	-2200
▁ur	-2201
airs	-2202
ring	-2203
▁bed	-2204
▁says	-2205
▁thir	-2206
▁civil	-2207
▁press	-2208
▁yester	-2209
▁Admiral	-2210
▁agitation	-2211
▁consideration	-2212
uc	-2213
▁De	-2214
▁One	-2215
There	-2216
arted	-2217
ccess	-2218
itten	-2219
▁deep	-2220
▁stre	-2221
licity	-2222
▁bless	-2223
▁occup	-2224
▁joined	-2225
▁promise	-2226
▁charming	-2227
▁marrying	-2228
▁thorough	-2229
▁yesterday	-2230
▁difficulty	-2231
nat	-2232
row	-2233
ives	-2234
izzy	-2235
urst	-2236
xion	-2237
▁art	-2238
anity	-2239
▁Here	-2240
▁blus	-2241
▁dece	-2242
▁angry	-2243
ability	-2244
▁itself	-2245
▁useful	-2246
together	-2247
▁turning	-2248
▁waiting	-2249
▁civility	-2250
▁promised	-2251
▁wretched	-2252
▁generally	-2253
▁absolutely	-2254
▁importance	-2255
ont	-2256
vill	-2257
ndeed	-2258
▁Bart	-2259
▁mine	-2260
▁prep	-2261
▁cause	-2262
▁music	-2263
▁proof	-2264
▁scheme	-2265
▁wishing	-2266
▁Gardiner	-2267
▁neighbourhood	-2268
com	-2269
ify	-2270
This	-2271
cked	-2272
▁bro	-2273
▁Well	-2274
▁pity	-2275
▁send	-2276
bation	-2277
erable	-2278
▁disag	-2279
▁resent	-2280
▁twenty	-2281
▁unhapp	-2282
▁Harvill	-2283
▁attended	-2284
▁altogether	-2285
uded	-2286
onage	-2287
▁miles	-2288
▁eldest	-2289
▁arrived	-2290
▁wanting	-2291
▁written	-2292
▁disposed	-2293
▁prospect	-2294
▁Tom	-2295
▁den	-2296
▁disg	-2297
▁Martin	-2298
▁perfor	-2299
▁justice	-2300
▁disagree	-2301
▁pleasing	-2302
▁whenever	-2303
▁affectionate	-2304
bed	-2305
▁div	-2306
▁bene	-2307
▁rememb	-2308
▁confess	-2309
▁consent	-2310
▁dearest	-2311
▁intended	-2312
▁occurred	-2313
Not	-2314
cas	-2315
▁Upp	-2316
▁boy	-2317
▁rid	-2318
▁suf	-2319
▁tot	-2320
▁wit	-2321
▁fire	-2322
▁pict	-2323
▁guess	-2324
▁oppos	-2325
▁Barton	-2326
▁belong	-2327
▁excess	-2328
▁length	-2329
▁please	-2330
▁pounds	-2331
lly	-2332
▁Now	-2333
▁arm	-2334
▁cur	-2335
bourn	-2336
▁term	-2337
▁grave	-2338
▁pause	-2339
▁excuse	-2340
▁secret	-2341
▁suffer	-2342
▁Longbourn	-2343
▁expressed	-2344
ett	-2345
▁ru	-2346
bell	-2347
▁Had	-2348
▁Pal	-2349
▁due	-2350
inter	-2351
▁Rand	-2352
▁vent	-2353
itable	-2354
▁during	-2355
▁collect	-2356
▁command	-2357
▁success	-2358
Wh	-2359
not	-2360
Very	-2361
wick	-2362
▁ear	-2363
▁pub	-2364
▁sad	-2365
▁anim	-2366
▁lead	-2367
▁pref	-2368
▁happi	-2369
▁learn	-2370
▁admire	-2371
▁formed	-2372
▁latter	-2373
▁quarter	-2374
▁receive	-2375
▁welcome	-2376
▁Randalls	-2377
▁fortnight	-2378
▁expectation	-2379
orn	-2380
ows	-2381
ingu	-2382
ison	-2383
lean	-2384
▁ign	-2385
▁wat	-2386
▁Park	-2387
▁card	-2388
▁ignor	-2389
▁offic	-2390
▁misery	-2391
arsonage	-2392
▁comprehe	-2393
▁independ	-2394
ibly	-2395
mber	-2396
semb	-2397
▁gall	-2398
▁hold	-2399
▁subm	-2400
aining	-2401
ateful	-2402
resent	-2403
▁Lizzy	-2404
▁Lucas	-2405
▁caught	-2406
▁compar	-2407
▁strange	-2408
▁attached	-2409
▁produced	-2410
▁immediate	-2411
ich	-2412
roft	-2413
▁bes	-2414
▁hig	-2415
alous	-2416
ament	-2417
mouth	-2418
riety	-2419
▁trif	-2420
▁assur	-2421
▁regul	-2422
▁sever	-2423
▁tempt	-2424
▁uneas	-2425
▁choice	-2426
▁prepar	-2427
▁streng	-2428
ordinary	-2429
▁interrupt	-2430
▁necessity	-2431
▁indifference	-2432
▁vi	-2433
▁ama	-2434
▁odd	-2435
▁rej	-2436
▁vol	-2437
▁Camp	-2438
▁educ	-2439
▁Croft	-2440
▁langu	-2441
▁value	-2442
▁income	-2443
▁speech	-2444
▁cottage	-2445
▁service	-2446
▁Campbell	-2447
▁objection	-2448
▁prevented	-2449
▁particulars	-2450
▁astonishment	-2451
iod	-2452
irt	-2453
law	-2454
arer	-2455
polo	-2456
▁seat	-2457
iously	-2458
▁Perry	-2459
▁knows	-2460
▁mater	-2461
▁pursu	-2462
▁agreed	-2463
▁fright	-2464
▁period	-2465
▁proved	-2466
▁reading	-2467
▁following	-2468
▁relations	-2469
▁observation	-2470
▁consciousness	-2471
▁extraordinary	-2472
pon	-2473
elly	-2474
iced	-2475
▁col	-2476
▁hers	-2477
▁miss	-2478
▁note	-2479
▁scru	-2480
leanor	-2481
▁comes	-2482
▁instru	-2483
▁minute	-2484
▁exclaim	-2485
▁dreadful	-2486
▁persuade	-2487
▁acknowledged	-2488
mp	-2489
how	-2490
vey	-2491
hill	-2492
▁Let	-2493
ardon	-2494
▁prot	-2495
▁rich	-2496
assion	-2497
▁alter	-2498
▁apolo	-2499
▁conte	-2500
▁explan	-2501
▁writing	-2502
▁inconven	-2503
▁suffered	-2504
▁beautiful	-2505
▁returning	-2506
,'	-2507
▁fo	-2508
itty	-2509
▁num	-2510
▁sol	-2511
isure	-2512
undred	-2513
▁famili	-2514
▁horses	-2515
▁public	-2516
▁Eleanor	-2517
▁arrange	-2518
▁getting	-2519
▁leisure	-2520
teen	-2521
▁Eng	-2522
▁Poor	-2523
▁prov	-2524
ission	-2525
▁eight	-2526
▁folly	-2527
ercross	-2528
▁Palmer	-2529
▁happen	-2530
▁simple	-2531
▁capable	-2532
▁hundred	-2533
▁moments	-2534
▁partial	-2535
▁princip	-2536
▁staying	-2537
▁concerned	-2538
▁expression	-2539
▁sl	-2540
▁pec	-2541
ative	-2542
ggest	-2543
▁soft	-2544
▁fears	-2545
▁liked	-2546
▁stood	-2547
▁terms	-2548
▁consol	-2549
▁design	-2550
▁secure	-2551
▁smiling	-2552
▁suggest	-2553
▁important	-2554
▁Uppercross	-2555
▁compassion	-2556
▁completely	-2557
▁intelligence	-2558
atul	-2559
ples	-2560
posal	-2561
▁viol	-2562
gratul	-2563
▁tears	-2564
▁yours	-2565
▁advice	-2566
▁lately	-2567
▁vanity	-2568
▁dislike	-2569
▁Harville	-2570
▁distingu	-2571
▁required	-2572
▁amusement	-2573
▁entertain	-2574
▁sufficient	-2575
To	-2576
eper	-2577
etta	-2578
asing	-2579
otion	-2580
▁auth	-2581
▁meas	-2582
▁whis	-2583
aching	-2584
rietta	-2585
▁fresh	-2586
▁spend	-2587
▁establ	-2588
▁nearly	-2589
▁placed	-2590
▁surpri	-2591
▁unwill	-2592
▁calling	-2593
▁painful	-2594
▁unhappy	-2595
▁intimacy	-2596
▁Henrietta	-2597
▁forgotten	-2598
▁receiving	-2599
▁represent	-2600
▁suffering	-2601
nch	-2602
▁Dr	-2603
▁Net	-2604
▁caut	-2605
▁seve	-2606
itated	-2607
▁death	-2608
▁infer	-2609
▁reser	-2610
▁Nether	-2611
▁fellow	-2612
▁several	-2613
▁actually	-2614
▁ladyship	-2615
▁congratul	-2616
▁Netherfield	-2617
▁respectable	-2618
▁difficulties	-2619
▁disappointed	-2620
▁encouragement	-2621
bey	-2622
ches	-2623
elve	-2624
ergy	-2625
▁ine	-2626
▁sun	-2627
ision	-2628
▁From	-2629
▁park	-2630
▁road	-2631
ferent	-2632
▁Kelly	-2633
▁makes	-2634
▁sound	-2635
▁trave	-2636
▁wrote	-2637
▁author	-2638
▁clever	-2639
▁embarr	-2640
▁lively	-2641
▁opened	-2642
▁parted	-2643
▁accompl	-2644
▁besides	-2645
▁flatter	-2646
▁parties	-2647
▁selfish	-2648
▁Kellynch	-2649
▁declared	-2650
▁standing	-2651
▁considering	-2652
),	-2653
ye	-2654
rawn	-2655
ster	-2656
▁Ste	-2657
▁ann	-2658
▁fat	-2659
ality	-2660
ember	-2661
gence	-2662
▁dest	-2663
▁furn	-2664
▁indu	-2665
▁lear	-2666
▁post	-2667
▁valu	-2668
overed	-2669
▁Kitty	-2670
▁catch	-2671
▁clear	-2672
▁habit	-2673
▁preva	-2674
▁claims	-2675
▁ground	-2676
▁humour	-2677
▁winter	-2678
▁constant	-2679
▁delicacy	-2680
▁increased	-2681
▁reasonable	-2682
▁reflection	-2683
▁indifferent	-2684
ON	-2685
avy	-2686
hum	-2687
rim	-2688
Your	-2689
▁Ben	-2690
omest	-2691
ption	-2692
using	-2693
▁gard	-2694
▁harm	-2695
▁sole	-2696
Indeed	-2697
▁carry	-2698
▁rooms	-2699
▁tired	-2700
▁peculi	-2701
▁wholly	-2702
▁Benwick	-2703
▁declare	-2704
▁observe	-2705
▁passing	-2706
▁unpleas	-2707
▁education	-2708
ug	-2709
▁By	-2710
▁mad	-2711
▁pen	-2712
arily	-2713
esday	-2714
▁dine	-2715
▁drew	-2716
▁lose	-2717
▁nice	-2718
▁ideas	-2719
▁views	-2720
▁libert	-2721
▁smiled	-2722
▁tranqu	-2723
▁twelve	-2724
▁unfort	-2725
ification	-2726
▁addition	-2727
▁disagreeable	-2728
Ah	-2729
▁Be	-2730
orts	-2731
▁cou	-2732
aging	-2733
▁Stee	-2734
▁horr	-2735
▁sign	-2736
posure	-2737
▁cross	-2738
▁exerc	-2739
ception	-2740
▁acting	-2741
▁become	-2742
▁convey	-2743
▁master	-2744
▁prefer	-2745
▁suppos	-2746
▁Nothing	-2747
▁private	-2748
▁thoroughly	-2749
ape	-2750
cho	-2751
ize	-2752
▁je	-2753
ines	-2754
lace	-2755
▁Clay	-2756
▁Lyme	-2757
▁este	-2758
▁fool	-2759
▁sick	-2760
▁Robert	-2761
▁summer	-2762
▁content	-2763
▁elegant	-2764
▁picture	-2765
▁affected	-2766
▁prepared	-2767
▁solicitude	-2768
▁recollection	-2769
ald	-2770
ilt	-2771
▁Don	-2772
▁bar	-2773
▁dev	-2774
ribut	-2775
▁proc	-2776
▁Yates	-2777
▁polit	-2778
▁eagerly	-2779
▁impress	-2780
▁invited	-2781
▁partner	-2782
▁naturally	-2783
▁suspicion	-2784
▁introduced	-2785
▁tenderness	-2786
▁explanation	-2787
▁considerable	-2788
Miss	-2789
race	-2790
some	-2791
▁Why	-2792
inite	-2793
▁desp	-2794
▁foot	-2795
▁rain	-2796
▁shame	-2797
looking	-2798
▁estate	-2799
▁ration	-2800
▁relief	-2801
▁warmth	-2802
▁greatly	-2803
▁younger	-2804
▁grateful	-2805
ER	-2806
▁ga	-2807
rist	-2808
▁fif	-2809
▁sle	-2810
▁mark	-2811
▁unex	-2812
▁unre	-2813
▁negle	-2814
▁scene	-2815
▁conven	-2816
▁distin	-2817
▁thrown	-2818
▁warmly	-2819
▁matters	-2820
▁profess	-2821
▁removed	-2822
▁stopped	-2823
▁elegance	-2824
▁felicity	-2825
▁obliging	-2826
▁opinions	-2827
▁strength	-2828
▁Parsonage	-2829
▁attending	-2830
▁impatient	-2831
▁ourselves	-2832
▁proceeded	-2833
▁unwilling	-2834
▁favourable	-2835
de	-2836
ian	-2837
lan	-2838
ancy	-2839
crif	-2840
ghed	-2841
lour	-2842
ruel	-2843
▁fur	-2844
▁lay	-2845
ously	-2846
▁paid	-2847
▁sigh	-2848
▁begun	-2849
▁exist	-2850
▁peace	-2851
▁accord	-2852
▁feared	-2853
▁sacrif	-2854
▁sooner	-2855
▁consult	-2856
▁laughed	-2857
▁likewise	-2858
▁servants	-2859
▁suddenly	-2860
▁seriously	-2861
▁astonished	-2862
▁unpleasant	-2863
▁possibility	-2864
lock	-2865
▁cut	-2866
▁rap	-2867
▁rev	-2868
▁sou	-2869
▁unf	-2870
▁suit	-2871
▁books	-2872
▁chair	-2873
▁earli	-2874
▁proud	-2875
▁restr	-2876
▁youth	-2877
▁couple	-2878
▁single	-2879
▁evident	-2880
▁jealous	-2881
▁totally	-2882
▁exercise	-2883
▁inferior	-2884
▁properly	-2885
▁desirable	-2886
▁miserable	-2887
cul	-2888
▁Ab	-2889
read	-2890
▁bit	-2891
▁Cole	-2892
▁Nort	-2893
▁fast	-2894
▁hist	-2895
▁move	-2896
ashion	-2897
ishing	-2898
▁becom	-2899
▁blame	-2900
▁blind	-2901
▁fatig	-2902
▁fully	-2903
▁guard	-2904
▁story	-2905
▁offend	-2906
▁street	-2907
▁conject	-2908
▁further	-2909
▁liberty	-2910
▁request	-2911
rehension	-2912
▁bringing	-2913
▁displeas	-2914
▁intimate	-2915
▁proposal	-2916
▁earnestly	-2917
▁profession	-2918
:--	-2919
phe	-2920
uss	-2921
▁fit	-2922
▁ner	-2923
ining	-2924
▁dign	-2925
▁line	-2926
ifying	-2927
▁along	-2928
▁drive	-2929
▁imprud	-2930
▁parent	-2931
▁inquiry	-2932
▁accepted	-2933
▁infinite	-2934
▁confusion	-2935
▁assistance	-2936
▁comprehend	-2937
▁improvement	-2938
ns	-2939
ica	-2940
dard	-2941
ises	-2942
with	-2943
▁mut	-2944
▁tou	-2945
enced	-2946
owers	-2947
there	-2948
▁choo	-2949
▁pray	-2950
▁vill	-2951
▁weak	-2952
ginald	-2953
▁burst	-2954
▁doors	-2955
▁drawn	-2956
▁invol	-2957
▁dining	-2958
▁thinks	-2959
▁utmost	-2960
▁Goddard	-2961
▁perform	-2962
▁Reginald	-2963
▁observing	-2964
▁tolerably	-2965
▁imagination	-2966
lor	-2967
zed	-2968
illy	-2969
▁awk	-2970
▁sch	-2971
choly	-2972
▁Lord	-2973
▁cord	-2974
▁apart	-2975
▁ended	-2976
▁grand	-2977
▁melan	-2978
▁order	-2979
▁paper	-2980
▁trans	-2981
▁twice	-2982
ilities	-2983
▁charge	-2984
▁confir	-2985
▁severe	-2986
▁spring	-2987
▁awkward	-2988
▁opening	-2989
▁parting	-2990
▁removal	-2991
▁travell	-2992
▁material	-2993
▁subjects	-2994
▁Frederica	-2995
▁composure	-2996
▁propriety	-2997
▁melancholy	-2998
▁acknowledge	-2999
▁approbation	-3000
▁probability	-3001
een	-3002
lig	-3003
pan	-3004
▁id	-3005
loom	-3006
▁Yes	-3007
▁dem	-3008
▁med	-3009
▁pun	-3010
▁Mery	-3011
▁coun	-3012
▁mere	-3013
▁mess	-3014
▁pract	-3015
▁colour	-3016
▁escape	-3017
▁follow	-3018
▁supply	-3019
▁England	-3020
▁Meryton	-3021
▁gallant	-3022
▁instant	-3023
▁telling	-3024
▁admitted	-3025
▁contrary	-3026
▁exertion	-3027
▁mistress	-3028
▁intention	-3029
▁connection	-3030
▁resentment	-3031
ey	-3032
inc	-3033
jud	-3034
wel	-3035
phew	-3036
▁fig	-3037
▁mem	-3038
cking	-3039
▁grad	-3040
▁shut	-3041
leness	-3042
ounded	-3043
▁trium	-3044
▁around	-3045
▁gained	-3046
▁indign	-3047
▁motive	-3048
▁nephew	-3049
▁resist	-3050
▁deserve	-3051
▁imagined	-3052
▁increase	-3053
▁language	-3054
▁overcome	-3055
▁interested	-3056
▁consolation	-3057
De	-3058
So	-3059
ips	-3060
▁feat	-3061
▁wild	-3062
ortion	-3063
ressed	-3064
▁merit	-3065
▁prete	-3066
▁rapid	-3067
▁renew	-3068
onsense	-3069
▁absent	-3070
▁consci	-3071
▁glance	-3072
▁settle	-3073
▁sorrow	-3074
▁houseke	-3075
▁satisfy	-3076
▁willing	-3077
▁entrance	-3078
▁exclaimed	-3079
▁listening	-3080
▁comparison	-3081
▁frequently	-3082
▁politeness	-3083
br	-3084
rem	-3085
They	-3086
aven	-3087
erty	-3088
ldom	-3089
▁nur	-3090
▁pit	-3091
alent	-3092
overy	-3093
▁Vern	-3094
▁grew	-3095
▁hero	-3096
▁rend	-3097
▁soul	-3098
▁While	-3099
▁gover	-3100
▁indis	-3101
▁liber	-3102
▁spare	-3103
omestic	-3104
▁circle	-3105
▁clergy	-3106
▁height	-3107
▁pardon	-3108
otherton	-3109
▁admired	-3110
▁emotion	-3111
▁expense	-3112
▁growing	-3113
▁mistake	-3114
▁readily	-3115
▁whisper	-3116
▁property	-3117
▁suspected	-3118
▁indulgence	-3119
▁compliments	-3120
con	-3121
ants	-3122
ical	-3123
▁dro	-3124
rigin	-3125
▁Then	-3126
▁spot	-3127
▁stup	-3128
▁dared	-3129
▁lines	-3130
▁stran	-3131
▁theat	-3132
idently	-3133
▁Pember	-3134
▁closed	-3135
▁intent	-3136
▁seated	-3137
▁steady	-3138
▁carried	-3139
▁fashion	-3140
▁history	-3141
▁domestic	-3142
▁laughing	-3143
▁proposed	-3144
▁reproach	-3145
▁Pemberley	-3146
▁Sotherton	-3147
▁assurance	-3148
▁connected	-3149
▁fortunate	-3150
▁questions	-3151
▁supposing	-3152
▁instrument	-3153
▁sentiments	-3154
Is	-3155
Per	-3156
mas	-3157
ume	-3158
hank	-3159
hest	-3160
inte	-3161
pond	-3162
▁Bet	-3163
▁Tay	-3164
▁err	-3165
ommod	-3166
▁free	-3167
▁hair	-3168
stairs	-3169
▁posit	-3170
▁provo	-3171
▁reach	-3172
▁third	-3173
▁esteem	-3174
▁garden	-3175
▁honest	-3176
▁modest	-3177
▁origin	-3178
▁raised	-3179
▁result	-3180
▁seldom	-3181
▁Norland	-3182
▁offered	-3183
▁recover	-3184
▁accompan	-3185
▁inclined	-3186
▁possibly	-3187
▁eagerness	-3188
▁inquiries	-3189
▁principal	-3190
▁tolerable	-3191
▁inconvenience	-3192
apa	-3193
ric	-3194
▁sk	-3195
rown	-3196
▁enc	-3197
▁irr	-3198
which	-3199
▁step	-3200
▁Could	-3201
▁These	-3202
▁blush	-3203
▁madam	-3204
▁speed	-3205
▁wants	-3206
▁worst	-3207
▁Christ	-3208
▁Taylor	-3209
▁asking	-3210
▁direct	-3211
▁number	-3212
▁unable	-3213
▁discour	-3214
▁discuss	-3215
▁hurried	-3216
▁protest	-3217
▁village	-3218
▁accident	-3219
▁frequent	-3220
▁friendly	-3221
▁embarrass	-3222
▁succeeded	-3223
▁cheerfulness	-3224
▁communication	-3225
tw	-3226
Why	-3227
ang	-3228
den	-3229
onc	-3230
tic	-3231
rink	-3232
▁eat	-3233
▁fal	-3234
▁sea	-3235
▁stud	-3236
▁admit	-3237
▁cruel	-3238
▁enter	-3239
▁heavy	-3240
▁moved	-3241
▁perse	-3242
▁prove	-3243
▁Though	-3244
▁Vernon	-3245
▁lament	-3246
▁powers	-3247
▁report	-3248
▁smiles	-3249
▁stupid	-3250
oubtedly	-3251
▁courage	-3252
▁agitated	-3253
▁apparent	-3254
▁gratified	-3255
▁perceived	-3256
▁affections	-3257
▁employment	-3258
▁sensations	-3259
▁arrangement	-3260
;"	-3261
mn	-3262
ERN	-3263
ding	-3264
sing	-3265
▁Dix	-3266
▁Ros	-3267
ERNON	-3268
ences	-3269
▁hall	-3270
▁prud	-3271
▁rank	-3272
▁rate	-3273
▁shru	-3274
▁sour	-3275
▁arran	-3276
▁chose	-3277
▁piece	-3278
▁seven	-3279
▁start	-3280
▁VERNON	-3281
▁ceased	-3282
▁church	-3283
▁figure	-3284
▁preser	-3285
▁quarre	-3286
▁solemn	-3287
▁unless	-3288
▁Rosings	-3289
▁illness	-3290
▁regular	-3291
▁restore	-3292
▁witness	-3293
▁heartily	-3294
▁improved	-3295
▁interval	-3296
▁occupied	-3297
▁rational	-3298
▁evidently	-3299
▁tranquill	-3300
▁complexion	-3301
▁description	-3302
▁excessively	-3303
do	-3304
Mrs	-3305
ano	-3306
cied	-3307
etch	-3308
just	-3309
kind	-3310
oted	-3311
ially	-3312
iding	-3313
iture	-3314
▁busy	-3315
▁gown	-3316
▁sink	-3317
▁unne	-3318
▁anger	-3319
▁false	-3320
▁human	-3321
Perhaps	-3322
▁bright	-3323
▁corres	-3324
▁habits	-3325
▁kindly	-3326
▁learnt	-3327
▁orders	-3328
▁spared	-3329
▁talent	-3330
▁volunt	-3331
▁Perhaps	-3332
▁fancied	-3333
▁quietly	-3334
▁quitted	-3335
▁perceive	-3336
▁probable	-3337
▁unnecess	-3338
▁direction	-3339
▁remaining	-3340
▁conscience	-3341
,)	-3342
set	-3343
cies	-3344
ices	-3345
orne	-3346
osen	-3347
vous	-3348
▁env	-3349
▁obt	-3350
▁saf	-3351
clock	-3352
ening	-3353
gress	-3354
▁dark	-3355
▁deli	-3356
▁diss	-3357
▁fill	-3358
▁hill	-3359
▁narr	-3360
▁rejo	-3361
▁wood	-3362
ounced	-3363
▁Ports	-3364
▁benef	-3365
▁forth	-3366
▁hesit	-3367
▁piano	-3368
▁truly	-3369
▁refuse	-3370
▁rising	-3371
▁school	-3372
ertainly	-3373
▁altered	-3374
▁attract	-3375
▁possess	-3376
▁related	-3377
▁finished	-3378
▁patience	-3379
▁presence	-3380
▁pleasures	-3381
▁Portsmouth	-3382
▁distressed	-3383
▁infinitely	-3384
▁differently	-3385
▁expressions	-3386
▁housekeeper	-3387
ec	-3388
isk	-3389
ork	-3390
Then	-3391
▁tor	-3392
▁uns	-3393
pping	-3394
under	-3395
▁maid	-3396
▁nove	-3397
course	-3398
▁breat	-3399
▁cerem	-3400
fulness	-3401
▁betray	-3402
▁effort	-3403
▁points	-3404
▁Donwell	-3405
▁chiefly	-3406
▁cordial	-3407
▁parlour	-3408
fordshire	-3409
▁becoming	-3410
▁contempt	-3411
▁deceived	-3412
▁deserved	-3413
▁families	-3414
▁connexion	-3415
▁wonderful	-3416
▁frightened	-3417
▁increasing	-3418
▁separation	-3419
▁intercourse	-3420
▁unfortunate	-3421
att	-3422
.--"	-3423
ainw	-3424
ized	-3425
uses	-3426
▁wed	-3427
forte	-3428
ommon	-3429
▁stop	-3430
omfort	-3431
▁Dixon	-3432
▁Mainw	-3433
▁borne	-3434
▁court	-3435
▁rever	-3436
▁stead	-3437
▁attack	-3438
▁chosen	-3439
▁faults	-3440
▁caution	-3441
▁hastily	-3442
▁careless	-3443
▁convince	-3444
▁nonsense	-3445
▁watching	-3446
▁furniture	-3447
▁conclusion	-3448
▁engagements	-3449
▁independence	-3450
Did	-3451
▁di	-3452
ilar	-3453
omin	-3454
road	-3455
▁don	-3456
▁lod	-3457
pered	-3458
roves	-3459
while	-3460
▁enqu	-3461
▁fema	-3462
▁hurt	-3463
▁ways	-3464
ensive	-3465
though	-3466
▁escap	-3467
▁pains	-3468
▁apolog	-3469
▁declin	-3470
▁demand	-3471
▁distur	-3472
▁engage	-3473
▁safely	-3474
▁stairs	-3475
▁strugg	-3476
▁uneasy	-3477
▁unlike	-3478
▁applied	-3479
▁dignity	-3480
▁foolish	-3481
▁grounds	-3482
▁happier	-3483
▁measure	-3484
▁neglect	-3485
▁variety	-3486
▁visitor	-3487
▁accommod	-3488
▁blessing	-3489
▁moreover	-3490
▁progress	-3491
▁Frederick	-3492
▁ignorance	-3493
▁presently	-3494
▁impression	-3495
▁neighbours	-3496
▁persuasion	-3497
▁remembrance	-3498
.,	-3499
▁da	-3500
▁fr	-3501
▁ow	-3502
Upon	-3503
luck	-3504
reen	-3505
▁Hay	-3506
▁bow	-3507
▁hot	-3508
anced	-3509
loved	-3510
vered	-3511
▁cand	-3512
▁firm	-3513
▁held	-3514
▁qual	-3515
▁rapt	-3516
▁tall	-3517
▁build	-3518
▁coach	-3519
▁estim	-3520
▁exper	-3521
▁force	-3522
▁gives	-3523
▁lover	-3524
hearted	-3525
▁Hayter	-3526
▁across	-3527
▁bitter	-3528
▁broken	-3529
▁insens	-3530
▁sought	-3531
▁waited	-3532
▁beloved	-3533
▁disgust	-3534
▁highest	-3535
▁pressed	-3536
▁require	-3537
▁treated	-3538
▁watched	-3539
▁conveyed	-3540
▁employed	-3541
▁stronger	-3542
▁addressed	-3543
▁attentive	-3544
▁concluded	-3545
▁expecting	-3546
▁gradually	-3547
▁recovered	-3548
▁possession	-3549
▁unnecessary	-3550
▁embarrassment	-3551
cha	-3552
sey	-3553
▁TO	-3554
▁pu	-3555
play	-3556
▁gen	-3557
assed	-3558
▁fail	-3559
▁mile	-3560
▁papa	-3561
▁prec	-3562
▁quit	-3563
▁slow	-3564
▁wear	-3565
▁chuse	-3566
▁dwell	-3567
▁grace	-3568
▁noise	-3569
▁shrub	-3570
▁yield	-3571
onshire	-3572
▁advise	-3573
▁choose	-3574
▁depart	-3575
▁forese	-3576
▁hither	-3577
▁mutual	-3578
itations	-3579
▁excited	-3580
▁explain	-3581
▁passage	-3582
▁sending	-3583
▁theatre	-3584
▁concerns	-3585
▁entering	-3586
▁happiest	-3587
▁personal	-3588
▁vexation	-3589
▁clergyman	-3590
▁sincerely	-3591
▁uncomfort	-3592
▁Mainwaring	-3593
▁impatience	-3594
▁intentions	-3595
▁distressing	-3596
▁undoubtedly	-3597
ime	-3598
▁ph	-3599
ctory	-3600
ouses	-3601
▁Hert	-3602
▁laid	-3603
▁land	-3604
▁lips	-3605
vering	-3606
▁Place	-3607
▁affli	-3608
▁amend	-3609
▁raise	-3610
natured	-3611
▁amused	-3612
▁assert	-3613
▁calcul	-3614
▁impert	-3615
▁memory	-3616
▁parish	-3617
▁united	-3618
▁secured	-3619
▁trusted	-3620
▁features	-3621
▁ignorant	-3622
▁peculiar	-3623
▁somebody	-3624
▁Musgroves	-3625
▁sacrifice	-3626
▁Churchhill	-3627
▁companions	-3628
▁correspond	-3629
▁dependence	-3630
▁Hertfordshire	-3631
In	-3632
af	-3633
urd	-3634
▁MR	-3635
▁Of	-3636
pher	-3637
then	-3638
▁inn	-3639
▁law	-3640
table	-3641
▁Wall	-3642
▁boys	-3643
▁crow	-3644
▁dull	-3645
▁insu	-3646
▁pron	-3647
▁rous	-3648
▁susp	-3649
twenty	-3650
▁drove	-3651
▁exped	-3652
▁maint	-3653
onsider	-3654
▁assemb	-3655
▁belief	-3656
▁higher	-3657
▁matrim	-3658
▁resemb	-3659
▁taught	-3660
arriages	-3661
▁changed	-3662
▁commend	-3663
▁display	-3664
▁distant	-3665
▁message	-3666
▁objects	-3667
▁reserve	-3668
▁triumph	-3669
▁venture	-3670
▁wedding	-3671
▁depended	-3672
▁disgrace	-3673
▁impertin	-3674
▁instance	-3675
▁opposite	-3676
▁strongly	-3677
▁uncommon	-3678
▁explained	-3679
▁prevailed	-3680
▁interrupted	-3681
▁introduction	-3682
▁uncomfortable	-3683
Now	-3684
ail	-3685
che	-3686
pit	-3687
▁Tu	-3688
Dear	-3689
Good	-3690
Have	-3691
When	-3692
aple	-3693
aret	-3694
atur	-3695
iter	-3696
▁mam	-3697
aking	-3698
ourgh	-3699
▁Have	-3700
▁Some	-3701
▁hate	-3702
▁show	-3703
▁sunk	-3704
llable	-3705
▁boast	-3706
▁daily	-3707
▁faith	-3708
▁lucky	-3709
unately	-3710
▁Bourgh	-3711
▁Steele	-3712
▁applic	-3713
▁missed	-3714
▁morrow	-3715
▁notion	-3716
▁unkind	-3717
▁unluck	-3718
omething	-3719
▁Forster	-3720
▁However	-3721
▁Tuesday	-3722
▁desired	-3723
▁divided	-3724
▁persons	-3725
▁produce	-3726
▁shortly	-3727
▁sincere	-3728
▁approach	-3729
▁attribut	-3730
▁calmness	-3731
▁softened	-3732
▁trifling	-3733
▁valuable	-3734
▁authority	-3735
▁believing	-3736
▁discourse	-3737
▁preparing	-3738
▁alteration	-3739
▁opposition	-3740
▁partiality	-3741
▁pianoforte	-3742
▁remarkably	-3743
▁uneasiness	-3744
▁tranquillity	-3745
AD	-3746
As	-3747
als	-3748
ges	-3749
ier	-3750
ked	-3751
oms	-3752
▁DE	-3753
back	-3754
gent	-3755
idst	-3756
▁Did	-3757
▁elo	-3758
▁gay	-3759
▁sex	-3760
garet	-3761
unday	-3762
▁bust	-3763
▁incl	-3764
▁loud	-3765
▁rose	-3766
▁Abbey	-3767
▁aloud	-3768
▁cares	-3769
▁crowd	-3770
▁drink	-3771
▁grown	-3772
▁oblig	-3773
▁vexed	-3774
attered	-3775
▁Sunday	-3776
▁chaise	-3777
▁deeply	-3778
▁endeav	-3779
▁horror	-3780
▁moving	-3781
▁shewed	-3782
▁thanks	-3783
▁worthy	-3784
▁discern	-3785
▁happily	-3786
▁keeping	-3787
▁afforded	-3788
▁arranged	-3789
▁confined	-3790
▁discover	-3791
▁goodness	-3792
▁sentence	-3793
▁unexpect	-3794
▁meanwhile	-3795
▁restraint	-3796
▁recommended	-3797
ift	-3798
itz	-3799
ung	-3800
ush	-3801
▁Ex	-3802
irth	-3803
rive	-3804
▁lat	-3805
ormed	-3806
ticip	-3807
▁argu	-3808
▁dism	-3809
▁fate	-3810
▁idle	-3811
▁size	-3812
▁symp	-3813
▁Satur	-3814
▁Where	-3815
▁elder	-3816
▁moder	-3817
▁noble	-3818
▁sleep	-3819
▁Wallis	-3820
▁active	-3821
▁anyone	-3822
▁destro	-3823
▁endure	-3824
▁events	-3825
▁induce	-3826
▁judged	-3827
▁nearer	-3828
▁purcha	-3829
▁spread	-3830
▁undert	-3831
▁visits	-3832
▁anticip	-3833
▁confirm	-3834
▁fearful	-3835
▁seeming	-3836
▁setting	-3837
▁Saturday	-3838
▁anywhere	-3839
▁directed	-3840
▁shrubber	-3841
▁surprize	-3842
▁unreason	-3843
▁wondered	-3844
▁Christmas	-3845
▁certainty	-3846
▁complaint	-3847
▁principle	-3848
▁uncertain	-3849
▁distinction	-3850
▁indignation	-3851
▁recollected	-3852
▁occasionally	-3853
my	-3854
ron	-3855
urs	-3856
Emma	-3857
▁Yet	-3858
Thank	-3859
isite	-3860
isted	-3861
▁Fitz	-3862
▁neck	-3863
▁risk	-3864
▁summ	-3865
▁wise	-3866
olence	-3867
▁steps	-3868
william	-3869
▁abroad	-3870
▁longed	-3871
▁lovely	-3872
▁merits	-3873
▁middle	-3874
▁season	-3875
interest	-3876
▁behaved	-3877
▁forming	-3878
▁offence	-3879
▁putting	-3880
▁violent	-3881
▁windows	-3882
▁Margaret	-3883
▁comforts	-3884
▁composed	-3885
▁delicate	-3886
▁informed	-3887
▁officers	-3888
▁relation	-3889
▁syllable	-3890
▁visitors	-3891
▁youngest	-3892
▁Dashwoods	-3893
▁continual	-3894
▁determine	-3895
▁residence	-3896
▁addressing	-3897
▁advantages	-3898
▁encouraged	-3899
▁preference	-3900
▁remembered	-3901
▁Fitzwilliam	-3902
▁independent	-3903
▁interference	-3904
▁distinguished	-3905
zz	-3906
gar	-3907
kes	-3908
omp	-3909
▁av	-3910
----	-3911
maid	-3912
▁Ens	-3913
▁asc	-3914
▁ing	-3915
▁war	-3916
▁wid	-3917
combe	-3918
erity	-3919
known	-3920
lance	-3921
lying	-3922
▁Upon	-3923
▁amaz	-3924
▁cool	-3925
▁forb	-3926
liness	-3927
▁Hurst	-3928
▁arise	-3929
▁cared	-3930
▁cheek	-3931
▁fetch	-3932
▁fifty	-3933
▁gloom	-3934
▁overp	-3935
▁silly	-3936
▁bustle	-3937
▁doubts	-3938
▁humble	-3939
▁office	-3940
▁thirty	-3941
▁trifle	-3942
▁wealth	-3943
▁amongst	-3944
▁apology	-3945
▁destroy	-3946
▁dressed	-3947
▁earlier	-3948
▁grieved	-3949
▁notions	-3950
▁pretend	-3951
▁rejoice	-3952
▁Bertrams	-3953
▁Enscombe	-3954
▁continue	-3955
▁generous	-3956
▁offended	-3957
▁provided	-3958
▁rendered	-3959
▁striking	-3960
▁suspense	-3961
▁abilities	-3962
▁animation	-3963
▁condition	-3964
▁decidedly	-3965
▁described	-3966
▁gallantry	-3967
▁introduce	-3968
▁surprized	-3969
▁endeavoured	-3970
▁established	-3971
▁reflections	-3972
▁accomplished	-3973
bb	-3974
og	-3975
ADY	-3976
For	-3977
eor	-3978
rid	-3979
umb	-3980
▁Ag	-3981
▁Ne	-3982
▁Sh	-3983
▁et	-3984
▁kn	-3985
▁la	-3986
aper	-3987
ards	-3988
hall	-3989
qual	-3990
rose	-3991
▁Cam	-3992
▁ban	-3993
▁ung	-3994
ading	-3995
aning	-3996
month	-3997
rence	-3998
▁LADY	-3999
▁clot	-4000
▁cure	-4001
▁died	-4002
▁farm	-4003
▁game	-4004
▁grow	-4005
▁mild	-4006
arance	-4007
humour	-4008
▁Phill	-4009
▁arose	-4010
▁black	-4011
▁forbe	-4012
▁hints	-4013
▁shook	-4014
▁touch	-4015
raction	-4016
▁danced	-4017
▁fatigu	-4018
▁forgiv	-4019
▁places	-4020
▁relate	-4021
▁unjust	-4022
▁escaped	-4023
▁injured	-4024
▁justify	-4025
▁misfort	-4026
▁shocked	-4027
▁brothers	-4028
▁ceremony	-4029
▁gracious	-4030
▁quitting	-4031
▁restored	-4032
▁upstairs	-4033
▁attempted	-4034
▁continually	-4035
▁encouraging	-4036
ls	-4037
▁&	-4038
▁X	-4039
ici	-4040
let	-4041
pet	-4042
▁Tw	-4043
alry	-4044
amed	-4045
vent	-4046
▁Can	-4047
▁Was	-4048
▁Who	-4049
▁ter	-4050
after	-4051
igned	-4052
olent	-4053
onday	-4054
▁Pray	-4055
▁cens	-4056
▁elig	-4057
▁rehe	-4058
▁ride	-4059
▁surr	-4060
hanger	-4061
▁abbey	-4062
▁amaze	-4063
▁cards	-4064
▁guest	-4065
▁schem	-4066
▁sympt	-4067
▁throw	-4068
▁Nobody	-4069
▁absurd	-4070
▁desert	-4071
▁preced	-4072
▁reward	-4073
▁roused	-4074
▁source	-4075
humoured	-4076
▁contrad	-4077
▁induced	-4078
▁motives	-4079
▁unworth	-4080
▁various	-4081
▁visited	-4082
▁Phillips	-4083
▁honoured	-4084
▁shocking	-4085
▁thankful	-4086
▁apartment	-4087
▁appearing	-4088
▁ascertain	-4089
▁carriages	-4090
▁departure	-4091
▁discovery	-4092
▁existence	-4093
▁justified	-4094
▁supported	-4095
▁discussion	-4096
▁honourable	-4097
▁objections	-4098
▁approaching	-4099
▁performance	-4100
▁superiority	-4101
▁twelvemonth	-4102
▁apprehension	-4103
▁mortification	-4104
"--	-4105
ela	-4106
hab	-4107
hor	-4108
imp	-4109
pul	-4110
ump	-4111
was	-4112
Poor	-4113
ains	-4114
enes	-4115
iest	-4116
they	-4117
usal	-4118
▁ess	-4119
▁lie	-4120
alrym	-4121
brary	-4122
iance	-4123
pherd	-4124
place	-4125
rible	-4126
xford	-4127
▁Geor	-4128
▁Nove	-4129
▁bore	-4130
▁curt	-4131
▁perm	-4132
▁seek	-4133
▁vast	-4134
retion	-4135
▁evils	-4136
▁haste	-4137
▁plans	-4138
▁takes	-4139
▁withd	-4140
righton	-4141
▁Betsey	-4142
▁Dalrym	-4143
▁Monday	-4144
▁begged	-4145
▁dances	-4146
▁excite	-4147
▁fallen	-4148
▁invite	-4149
▁openly	-4150
▁paying	-4151
▁polite	-4152
▁safety	-4153
▁submit	-4154
ableness	-4155
▁affairs	-4156
▁censure	-4157
▁forgive	-4158
▁leading	-4159
▁library	-4160
▁thanked	-4161
Certainly	-4162
▁Brighton	-4163
▁November	-4164
▁decision	-4165
▁formerly	-4166
▁hitherto	-4167
▁relieved	-4168
▁amazement	-4169
▁Northanger	-4170
▁characters	-4171
▁civilities	-4172
▁imprudence	-4173
▁accordingly	-4174
▁resemblance	-4175
▁consequently	-4176
▁expectations	-4177
..	-4178
OU	-4179
ox	-4180
atis	-4181
case	-4182
onci	-4183
onst	-4184
vant	-4185
▁Wed	-4186
▁aut	-4187
▁der	-4188
▁smo	-4189
inded	-4190
ounce	-4191
paper	-4192
urity	-4193
xions	-4194
▁Good	-4195
▁gain	-4196
▁inev	-4197
▁nine	-4198
olding	-4199
▁Grove	-4200
▁House	-4201
▁alike	-4202
▁cease	-4203
▁shewn	-4204
▁urged	-4205
▁water	-4206
welcome	-4207
▁Oxford	-4208
▁enquir	-4209
▁female	-4210
▁marked	-4211
▁scenes	-4212
▁supper	-4213
▁approve	-4214
▁doubted	-4215
▁inquire	-4216
▁parents	-4217
▁reconci	-4218
▁running	-4219
▁similar	-4220
▁sympath	-4221
▁Shepherd	-4222
▁bestowed	-4223
▁fancying	-4224
▁ventured	-4225
▁collected	-4226
▁connexions	-4227
▁continuing	-4228
▁convenience	-4229
▁displeasure	-4230
▁endeavouring	-4231
▁establishment	-4232
CY	-4233
ex	-4234
any	-4235
ete	-4236
rep	-4237
umn	-4238
irty	-4239
ners	-4240
rust	-4241
▁MRS	-4242
▁bew	-4243
▁unt	-4244
acity	-4245
arded	-4246
armed	-4247
cence	-4248
chief	-4249
erton	-4250
▁Wedn	-4251
▁born	-4252
▁chat	-4253
▁dead	-4254
▁goes	-4255
▁shop	-4256
▁virt	-4257
▁Eliza	-4258
▁Maple	-4259
▁flirt	-4260
▁parts	-4261
▁sangu	-4262
▁saved	-4263
▁subst	-4264
▁tremb	-4265
▁utter	-4266
elaford	-4267
▁corner	-4268
▁fairly	-4269
▁fitted	-4270
▁gaiety	-4271
▁houses	-4272
▁narrow	-4273
▁prejud	-4274
▁valued	-4275
incerity	-4276
▁falling	-4277
▁liberal	-4278
▁playing	-4279
▁prosper	-4280
▁refused	-4281
▁resolve	-4282
▁tempted	-4283
▁advanced	-4284
▁compared	-4285
▁contrast	-4286
▁declined	-4287
▁doubtful	-4288
▁dressing	-4289
▁improper	-4290
▁jealousy	-4291
▁positive	-4292
▁sanguine	-4293
▁scruples	-4294
▁solitude	-4295
▁spending	-4296
▁stranger	-4297
▁Wednesday	-4298
▁dangerous	-4299
▁matrimony	-4300
▁newspaper	-4301
▁unwelcome	-4302
▁assurances	-4303
▁commission	-4304
▁convenient	-4305
▁perceiving	-4306
▁previously	-4307
▁suspicions	-4308
▁application	-4309
▁voluntarily	-4310
▁unreasonable	-4311
▁wretchedness	-4312
OUR	-4313
bly	-4314
etr	-4315
ets	-4316
rit	-4317
uns	-4318
▁er	-4319
Such	-4320
akes	-4321
emed	-4322
lish	-4323
recy	-4324
uous	-4325
▁Cle	-4326
▁Nor	-4327
▁bas	-4328
▁bri	-4329
▁car	-4330
▁shy	-4331
ethod	-4332
hampt	-4333
oting	-4334
▁Full	-4335
▁Hall	-4336
▁Hill	-4337
▁cost	-4338
▁deny	-4339
▁glow	-4340
▁lodg	-4341
▁puzz	-4342
▁soot	-4343
▁terr	-4344
▁worn	-4345
▁error	-4346
▁fever	-4347
▁lives	-4348
▁loves	-4349
▁lower	-4350
▁Camden	-4351
▁autumn	-4352
▁declar	-4353
▁driven	-4354
▁duties	-4355
▁extent	-4356
▁insuff	-4357
▁larger	-4358
▁motion	-4359
▁nerves	-4360
▁Steeles	-4361
▁blushed	-4362
▁consist	-4363
▁counter	-4364
▁nervous	-4365
▁pointed	-4366
▁quickly	-4367
▁renewed	-4368
▁ridicul	-4369
▁schemes	-4370
▁scruple	-4371
▁thither	-4372
▁Delaford	-4373
▁alarming	-4374
▁carrying	-4375
▁describe	-4376
▁engaging	-4377
▁likeness	-4378
▁respects	-4379
▁somewhat	-4380
▁speeches	-4381
▁unworthy	-4382
interested	-4383
▁Northampt	-4384
▁accepting	-4385
▁contented	-4386
▁excepting	-4387
▁hereafter	-4388
▁preferred	-4389
▁acceptable	-4390
▁discretion	-4391
▁peculiarly	-4392
▁pleasantly	-4393
▁principles	-4394
▁remarkable	-4395
▁connections	-4396
▁sensibility	-4397
▁satisfactory	-4398
Aye	-4399
act	-4400
agn	-4401
ned	-4402
▁Sc	-4403
,"--	-4404
."--	-4405
ital	-4406
plex	-4407
uted	-4408
vity	-4409
your	-4410
▁box	-4411
▁etc	-4412
▁hat	-4413
▁pal	-4414
OURCY	-4415
icing	-4416
quest	-4417
uding	-4418
▁obst	-4419
▁ones	-4420
▁simp	-4421
▁stir	-4422
asions	-4423
▁balls	-4424
▁grief	-4425
▁prett	-4426
▁shake	-4427
▁white	-4428
▁widow	-4429
▁wound	-4430
quisite	-4431
▁COURCY	-4432
▁failed	-4433
▁hoping	-4434
▁recall	-4435
▁weight	-4436
▁benefit	-4437
▁driving	-4438
▁ordered	-4439
▁passion	-4440
▁plainly	-4441
▁privile	-4442
▁reflect	-4443
▁animated	-4444
▁contradi	-4445
▁desirous	-4446
▁entreaty	-4447
▁familiar	-4448
▁lodgings	-4449
▁regiment	-4450
▁separate	-4451
▁tomorrow	-4452
▁Dalrymple	-4453
▁imprudent	-4454
▁mortified	-4455
▁shrubbery	-4456
▁suggested	-4457
▁affliction	-4458
▁misfortune	-4459
▁obligation	-4460
▁repeatedly	-4461
▁unexpected	-4462
▁professions	-4463
▁selfishness	-4464
▁disinterested	-4465
▁recommendation	-4466
On	-4467
Are	-4468
His	-4469
Nay	-4470
ils	-4471
ixt	-4472
vag	-4473
▁Bu	-4474
▁ec	-4475
hand	-4476
hard	-4477
noon	-4478
nton	-4479
▁Com	-4480
▁ali	-4481
▁cry	-4482
▁lim	-4483
▁mix	-4484
▁pri	-4485
count	-4486
itary	-4487
ivers	-4488
olded	-4489
oring	-4490
stand	-4491
▁Come	-4492
▁Very	-4493
▁inno	-4494
▁neat	-4495
▁save	-4496
▁sees	-4497
▁wand	-4498
eneral	-4499
ential	-4500
veland	-4501
▁Build	-4502
▁Crown	-4503
▁artic	-4504
▁subdu	-4505
▁total	-4506
▁trick	-4507
▁abomin	-4508
▁bestow	-4509
▁cheeks	-4510
▁denied	-4511
▁diseng	-4512
▁oblige	-4513
▁played	-4514
▁prompt	-4515
lessness	-4516
▁alarmed	-4517
▁appears	-4518
▁appoint	-4519
▁engross	-4520
▁fatigue	-4521
▁prepare	-4522
▁project	-4523
▁secrecy	-4524
▁signify	-4525
▁station	-4526
▁earliest	-4527
▁pressing	-4528
▁previous	-4529
▁Fullerton	-4530
▁apprehens	-4531
▁concealed	-4532
▁exquisite	-4533
▁reception	-4534
▁sincerity	-4535
▁sweetness	-4536
▁wondering	-4537
▁Everything	-4538
▁approached	-4539
▁discovered	-4540
▁expressing	-4541
▁gratifying	-4542
▁insensible	-4543
▁forbearance	-4544
▁1	-4545
ais	-4546
ays	-4547
pri	-4548
que	-4549
▁du	-4550
▁hy	-4551
▁sw	-4552
!"--	-4553
fied	-4554
gers	-4555
hour	-4556
ites	-4557
omer	-4558
oned	-4559
ters	-4560
when	-4561
yard	-4562
▁Dev	-4563
▁buy	-4564
▁kno	-4565
▁won	-4566
ailed	-4567
avens	-4568
isely	-4569
ustom	-4570
▁Cour	-4571
▁East	-4572
▁Even	-4573
▁Only	-4574
▁cast	-4575
▁debt	-4576
▁envy	-4577
▁rise	-4578
▁sofa	-4579
▁urge	-4580
posing	-4581
▁acted	-4582
▁baron	-4583
▁corre	-4584
▁dined	-4585
▁dream	-4586
▁forty	-4587
▁front	-4588
▁incap	-4589
▁likes	-4590
▁midst	-4591
▁names	-4592
▁smart	-4593
▁staid	-4594
▁trial	-4595
▁finest	-4596
▁guided	-4597
▁lessen	-4598
▁liking	-4599
▁method	-4600
▁novelt	-4601
▁General	-4602
▁clothes	-4603
▁perplex	-4604
▁remains	-4605
▁remarks	-4606
▁seeking	-4607
▁sixteen	-4608
▁talents	-4609
▁unlucky	-4610
▁accounts	-4611
▁catching	-4612
▁extravag	-4613
▁inquired	-4614
▁involved	-4615
▁overlook	-4616
▁precious	-4617
▁rejoiced	-4618
▁reserved	-4619
▁resolute	-4620
▁wherever	-4621
▁Buildings	-4622
▁Campbells	-4623
▁Cleveland	-4624
▁belonging	-4625
▁submitted	-4626
▁conjecture	-4627
▁displeased	-4628
▁gentleness	-4629
▁ridiculous	-4630
▁situations	-4631
▁travelling	-4632
▁declaration	-4633
▁communicated	-4634
▁sufficiently	-4635
▁representation	-4636
Qu	-4637
eb	-4638
mpl	-4639
opt	-4640
reg	-4641
arse	-4642
feel	-4643
inet	-4644
▁Two	-4645
▁eff	-4646
▁fru	-4647
▁vul	-4648
anted	-4649
ernal	-4650
ieces	-4651
issed	-4652
ushed	-4653
▁bott	-4654
▁gate	-4655
▁inex	-4656
▁lock	-4657
▁reck	-4658
▁snow	-4659
▁unaf	-4660
ection	-4661
hether	-4662
nature	-4663
riving	-4664
urning	-4665
▁broke	-4666
▁guilt	-4667
▁later	-4668
▁nurse	-4669
▁threw	-4670
▁turns	-4671
▁walks	-4672
▁walls	-4673
unsford	-4674
▁Heaven	-4675
▁decide	-4676
▁defect	-4677
▁defici	-4678
▁desper	-4679
▁errand	-4680
▁hearts	-4681
▁heaven	-4682
▁justly	-4683
▁modern	-4684
▁penetr	-4685
▁reluct	-4686
▁repeat	-4687
▁strict	-4688
▁worked	-4689
▁Another	-4690
▁actions	-4691
▁advance	-4692
▁disturb	-4693
▁effects	-4694
▁example	-4695
▁finally	-4696
▁portion	-4697
▁quarrel	-4698
▁unknown	-4699
▁assisted	-4700
▁disappro	-4701
▁necklace	-4702
▁offering	-4703
▁security	-4704
▁unaffect	-4705
▁visiting	-4706
▁weakness	-4707
▁afternoon	-4708
▁flattered	-4709
▁fortitude	-4710
▁governess	-4711
▁promising	-4712
▁sensation	-4713
▁Devonshire	-4714
▁attraction	-4715
▁dreadfully	-4716
▁proportion	-4717
▁preparation	-4718
▁commendation	-4719
▁interruption	-4720
US	-4721
hip	-4722
ism	-4723
who	-4724
appe	-4725
bred	-4726
erby	-4727
inct	-4728
lled	-4729
▁Are	-4730
▁bid	-4731
▁cre	-4732
▁hes	-4733
▁imm	-4734
▁lab	-4735
aving	-4736
conom	-4737
▁arch	-4738
▁bold	-4739
▁elev	-4740
▁flow	-4741
▁flut	-4742
▁insp	-4743
▁jump	-4744
▁lane	-4745
▁owed	-4746
▁path	-4747
▁pump	-4748
▁ruin	-4749
▁song	-4750
itions	-4751
racted	-4752
thened	-4753
▁Derby	-4754
▁abhor	-4755
▁acute	-4756
▁adopt	-4757
▁barou	-4758
▁birth	-4759
▁faint	-4760
▁feels	-4761
▁green	-4762
▁hasty	-4763
▁older	-4764
▁stair	-4765
▁teach	-4766
▁trees	-4767
etition	-4768
▁Crofts	-4769
▁Indeed	-4770
▁condes	-4771
▁econom	-4772
▁exclam	-4773
▁grandm	-4774
▁paused	-4775
▁recent	-4776
▁reject	-4777
▁threat	-4778
▁vulgar	-4779
▁welcom	-4780
▁acquies	-4781
▁amusing	-4782
▁avoided	-4783
▁concert	-4784
▁despair	-4785
▁heroine	-4786
▁judging	-4787
▁learned	-4788
▁novelty	-4789
▁started	-4790
▁torment	-4791
▁building	-4792
▁complais	-4793
▁contempl	-4794
▁distrust	-4795
▁eligible	-4796
▁foreseen	-4797
▁forgiven	-4798
▁indulged	-4799
▁misunder	-4800
▁prudence	-4801
▁confident	-4802
▁contribut	-4803
▁encourage	-4804
▁essential	-4805
▁incapable	-4806
▁staircase	-4807
▁treatment	-4808
▁Derbyshire	-4809
▁accomplish	-4810
▁cordiality	-4811
▁hesitation	-4812
▁pronounced	-4813
▁recovering	-4814
▁sufferings	-4815
▁comfortably	-4816
▁communicate	-4817
▁distinguish	-4818
▁earnestness	-4819
▁principally	-4820
▁congratulate	-4821
▁congratulations	-4822
II	-4823
ux	-4824
wr	-4825
Her	-4826
his	-4827
oci	-4828
ule	-4829
▁Le	-4830
▁ze	-4831
cent	-4832
ctor	-4833
laim	-4834
nder	-4835
rief	-4836
rity	-4837
roat	-4838
▁coo	-4839
▁doz	-4840
▁haz	-4841
▁key	-4842
▁leg	-4843
▁wet	-4844
Fanny	-4845
ature	-4846
enses	-4847
hange	-4848
ndeur	-4849
pless	-4850
verse	-4851
▁Were	-4852
▁hung	-4853
▁joke	-4854
▁lest	-4855
▁rule	-4856
▁shar	-4857
▁thin	-4858
▁wine	-4859
ancing	-4860
ension	-4861
formed	-4862
owered	-4863
▁benev	-4864
▁board	-4865
▁dirty	-4866
▁entit	-4867
▁exult	-4868
▁ingen	-4869
▁punct	-4870
▁shock	-4871
▁space	-4872
▁sport	-4873
Harriet	-4874
nothing	-4875
perhaps	-4876
▁action	-4877
▁amends	-4878
▁associ	-4879
▁brilli	-4880
▁calmly	-4881
▁condem	-4882
▁detest	-4883
▁injury	-4884
▁oppose	-4885
▁perpet	-4886
▁releas	-4887
▁remove	-4888
▁rights	-4889
▁showed	-4890
▁smooth	-4891
▁sounds	-4892
▁strike	-4893
▁blessed	-4894
▁complac	-4895
▁devoted	-4896
▁enjoyed	-4897
▁gallery	-4898
▁longing	-4899
▁promote	-4900
▁reproof	-4901
▁unequal	-4902
▁univers	-4903
▁Hunsford	-4904
▁barouche	-4905
▁belonged	-4906
▁grandeur	-4907
▁hopeless	-4908
▁learning	-4909
▁raptures	-4910
▁regarded	-4911
▁solitary	-4912
▁speedily	-4913
▁struggle	-4914
▁supplied	-4915
▁Everybody	-4916
▁according	-4917
▁anxiously	-4918
▁deficient	-4919
▁elsewhere	-4920
▁intending	-4921
▁intervals	-4922
▁momentary	-4923
▁somewhere	-4924
▁attendance	-4925
▁flattering	-4926
▁materially	-4927
▁mortifying	-4928
▁occasional	-4929
▁occasioned	-4930
▁proceeding	-4931
▁temptation	-4932
▁entertained	-4933
▁impertinent	-4934
▁intelligible	-4935
▁observations	-4936
▁gentlemanlike	-4937
▁gratification	-4938
▁unfortunately	-4939
AN	-4940
oc	-4941
)--	-4942
cca	-4943
dom	-4944
hib	-4945
ina	-4946
ode	-4947
rer	-4948
Pray	-4949
USAN	-4950
aces	-4951
only	-4952
▁apt	-4953
▁dim	-4954
▁hos	-4955
▁lux	-4956
▁sal	-4957
acher	-4958
atory	-4959
becca	-4960
ching	-4961
lling	-4962
quare	-4963
▁----	-4964
▁beau	-4965
▁capt	-4966
▁exte	-4967
▁mixt	-4968
▁pace	-4969
▁plag	-4970
▁port	-4971
▁sail	-4972
advant	-4973
erning	-4974
idable	-4975
ieties	-4976
priety	-4977
▁Never	-4978
▁SUSAN	-4979
▁Yours	-4980
▁abode	-4981
▁bloom	-4982
▁bride	-4983
▁brief	-4984
▁defer	-4985
▁hence	-4986
▁minds	-4987
▁parce	-4988
▁stage	-4989
▁storm	-4990
ensions	-4991
inement	-4992
▁county	-4993
▁deeper	-4994
▁defend	-4995
▁incomp	-4996
▁leaves	-4997
▁retire	-4998
▁senses	-4999
▁slowly	-5000
▁suited	-5001
▁uncons	-5002
▁Rebecca	-5003
▁chamber	-5004
▁checked	-5005
▁constit	-5006
▁deceive	-5007
▁discont	-5008
▁dreaded	-5009
▁fifteen	-5010
▁guessed	-5011
▁mixture	-5012
▁musical	-5013
▁pursuit	-5014
▁unreser	-5015
▁usually	-5016
▁coloured	-5017
▁conceive	-5018
▁mischief	-5019
▁obtained	-5020
▁procured	-5021
▁purchase	-5022
▁refusing	-5023
▁tendency	-5024
▁accompany	-5025
▁contained	-5026
▁disadvant	-5027
▁excessive	-5028
▁regretted	-5029
▁entreaties	-5030
▁experience	-5031
▁punishment	-5032
▁reasonably	-5033
▁succeeding	-5034
▁unaffected	-5035
▁improvements	-5036
▁correspondence	-5037
";	-5038
Ex	-5039
Can	-5040
Sir	-5041
Who	-5042
has	-5043
pel	-5044
▁Un	-5045
Here	-5046
bing	-5047
comm	-5048
cond	-5049
held	-5050
kins	-5051
resh	-5052
such	-5053
sure	-5054
welt	-5055
▁Car	-5056
▁Our	-5057
▁bye	-5058
▁orn	-5059
▁red	-5060
ricle	-5061
▁Does	-5062
▁Happ	-5063
▁Tell	-5064
▁alac	-5065
▁bill	-5066
▁disd	-5067
▁fare	-5068
▁hang	-5069
▁harp	-5070
▁heir	-5071
▁pers	-5072
▁subs	-5073
▁surm	-5074
▁test	-5075
▁tong	-5076
▁unus	-5077
ursday	-5078
▁agony	-5079
▁aside	-5080
▁cloud	-5081
▁dwelt	-5082
▁inhab	-5083
▁irres	-5084
▁unsus	-5085
perfect	-5086
verance	-5087
▁Eltons	-5088
▁Having	-5089
▁abrupt	-5090
▁actual	-5091
▁appeal	-5092
▁assent	-5093
▁breath	-5094
▁filled	-5095
▁fixing	-5096
▁formal	-5097
▁horrid	-5098
▁needed	-5099
▁presum	-5100
▁repent	-5101
▁speaks	-5102
▁surely	-5103
▁terror	-5104
▁virtue	-5105
▁volume	-5106
▁baronet	-5107
▁careful	-5108
▁compare	-5109
▁correct	-5110
▁cruelty	-5111
▁delayed	-5112
▁gravely	-5113
▁guarded	-5114
▁propose	-5115
▁prudent	-5116
▁reasons	-5117
▁refusal	-5118
▁rehears	-5119
▁touched	-5120
▁working	-5121
▁Thornton	-5122
▁Thursday	-5123
▁alacrity	-5124
▁alliance	-5125
▁allowing	-5126
▁announce	-5127
▁cautious	-5128
▁contents	-5129
▁dwelling	-5130
▁hurrying	-5131
▁ornament	-5132
▁recovery	-5133
▁sweetest	-5134
▁announced	-5135
▁confirmed	-5136
▁deserving	-5137
▁destroyed	-5138
▁expedient	-5139
▁occasions	-5140
▁parsonage	-5141
▁precisely	-5142
▁prospects	-5143
▁resolving	-5144
▁slightest	-5145
▁strongest	-5146
▁calculated	-5147
▁disengaged	-5148
▁everywhere	-5149
▁heightened	-5150
▁positively	-5151
▁simplicity	-5152
▁concealment	-5153
▁continuance	-5154
▁embarrassed	-5155
▁necessarily	-5156
▁unconscious	-5157
▁complaisance	-5158
▁relationship	-5159
▁comprehension	-5160
?'	-5161
AR	-5162
--(	-5163
.'"	-5164
Let	-5165
eps	-5166
ieu	-5167
irm	-5168
isy	-5169
ius	-5170
olk	-5171
tem	-5172
▁Al	-5173
▁XX	-5174
Come	-5175
arth	-5176
cher	-5177
epte	-5178
head	-5179
hold	-5180
icar	-5181
imed	-5182
mers	-5183
mond	-5184
oman	-5185
orum	-5186
pper	-5187
rees	-5188
uine	-5189
ulse	-5190
ural	-5191
year	-5192
▁Haw	-5193
▁Thr	-5194
▁Wey	-5195
▁ard	-5196
▁dry	-5197
▁lot	-5198
▁nay	-5199
▁ple	-5200
▁rom	-5201
▁vac	-5202
aches	-5203
cause	-5204
iring	-5205
piece	-5206
▁Dear	-5207
▁King	-5208
▁Lang	-5209
▁Suck	-5210
▁bent	-5211
▁cent	-5212
▁dict	-5213
▁king	-5214
▁lawn	-5215
▁mama	-5216
▁unac	-5217
▁wore	-5218
oncern	-5219
pulous	-5220
ustice	-5221
▁Septe	-5222
▁abund	-5223
▁advis	-5224
▁alive	-5225
▁check	-5226
▁earth	-5227
▁gross	-5228
▁mouth	-5229
▁shown	-5230
▁study	-5231
▁tells	-5232
▁today	-5233
▁uncon	-5234
Nothing	-5235
command	-5236
▁Before	-5237
▁behave	-5238
▁charms	-5239
▁expose	-5240
▁genius	-5241
▁impart	-5242
▁insult	-5243
▁lasted	-5244
▁occupy	-5245
▁pitied	-5246
atisfied	-5247
▁English	-5248
▁Hawkins	-5249
▁Tilneys	-5250
▁charade	-5251
▁counsel	-5252
▁flutter	-5253
▁genuine	-5254
▁gravity	-5255
▁indulge	-5256
▁lasting	-5257
▁leaning	-5258
▁modesty	-5259
▁nearest	-5260
▁noticed	-5261
▁offices	-5262
▁opposed	-5263
▁presume	-5264
▁refresh	-5265
▁regrets	-5266
▁reverse	-5267
▁shewing	-5268
▁solicit	-5269
▁Weymouth	-5270
▁Woodston	-5271
▁betrayed	-5272
▁coachman	-5273
▁complain	-5274
▁curricle	-5275
▁entitled	-5276
▁evenings	-5277
▁hastened	-5278
▁inviting	-5279
▁moderate	-5280
▁practice	-5281
▁pretence	-5282
▁relative	-5283
▁removing	-5284
▁slighted	-5285
▁sympathy	-5286
▁symptoms	-5287
▁throwing	-5288
▁welcomed	-5289
▁September	-5290
▁amazingly	-5291
▁constancy	-5292
▁contrived	-5293
▁creatures	-5294
▁falsehood	-5295
▁injustice	-5296
▁neglected	-5297
▁presented	-5298
▁proposals	-5299
▁protested	-5300
▁readiness	-5301
▁apparently	-5302
▁attempting	-5303
▁collection	-5304
▁constantly	-5305
▁influenced	-5306
▁irritation	-5307
▁perfection	-5308
▁surrounded	-5309
▁awkwardness	-5310
▁impropriety	-5311
▁troublesome	-5312
▁acquiescence	-5313
▁arrangements	-5314
▁recollections	-5315
▁disapprobation	-5316
An	-5317
At	-5318
ys	-5319
ari	-5320
kin	-5321
mon	-5322
nal	-5323
oat	-5324
▁ca	-5325
With	-5326
amma	-5327
ebru	-5328
eter	-5329
gate	-5330
ilty	-5331
inth	-5332
lies	-5333
olid	-5334
ries	-5335
vert	-5336
view	-5337
work	-5338
▁Ind	-5339
▁May	-5340
▁Ric	-5341
▁aud	-5342
▁bon	-5343
▁ere	-5344
▁owe	-5345
▁tid	-5346
Quite	-5347
Shall	-5348
about	-5349
cient	-5350
erous	-5351
hered	-5352
illed	-5353
ories	-5354
rench	-5355
▁Till	-5356
▁crit	-5357
▁heat	-5358
▁navy	-5359
▁refr	-5360
▁ring	-5361
▁scre	-5362
▁shad	-5363
▁sons	-5364
▁unsu	-5365
cended	-5366
iation	-5367
icious	-5368
▁Those	-5369
▁Would	-5370
▁below	-5371
▁frank	-5372
▁hills	-5373
▁inatt	-5374
▁inval	-5375
▁moral	-5376
▁named	-5377
▁overt	-5378
▁sharp	-5379
▁sides	-5380
▁stout	-5381
▁talks	-5382
▁upper	-5383
▁woods	-5384
atively	-5385
ebruary	-5386
feeling	-5387
▁Thrush	-5388
▁acquit	-5389
▁adding	-5390
▁decent	-5391
▁deject	-5392
▁eating	-5393
▁finish	-5394
▁incred	-5395
▁indisp	-5396
▁joyful	-5397
▁losing	-5398
▁manage	-5399
▁patron	-5400
▁reconc	-5401
▁seized	-5402
▁sevent	-5403
▁specul	-5404
▁stable	-5405
▁tenant	-5406
▁theirs	-5407
▁throat	-5408
▁tongue	-5409
▁urgent	-5410
setshire	-5411
tempered	-5412
▁Cottage	-5413
▁Johnson	-5414
▁Richard	-5415
▁article	-5416
▁cleared	-5417
▁joining	-5418
▁patient	-5419
▁revived	-5420
▁sinking	-5421
▁suspend	-5422
▁Langford	-5423
▁Whatever	-5424
▁approved	-5425
▁argument	-5426
▁attempts	-5427
▁avoiding	-5428
▁conclude	-5429
▁eighteen	-5430
▁enjoying	-5431
▁expenses	-5432
▁flattery	-5433
▁included	-5434
▁measures	-5435
▁stopping	-5436
▁unpardon	-5437
▁Something	-5438
▁addresses	-5439
▁answering	-5440
▁consulted	-5441
▁delivered	-5442
▁exertions	-5443
▁judgement	-5444
▁qualities	-5445
▁travelled	-5446
▁unconcern	-5447
▁cheerfully	-5448
▁discontent	-5449
▁excellence	-5450
▁inevitable	-5451
▁mentioning	-5452
▁thoughtful	-5453
▁throughout	-5454
▁uncommonly	-5455
▁examination	-5456
▁constitution	-5457
▁recollecting	-5458
▁accommodation	-5459
▁entertainment	-5460
By	-5461
HN	-5462
ax	-5463
go	-5464
op	-5465
sc	-5466
OHN	-5467
ama	-5468
dol	-5469
ics	-5470
ket	-5471
net	-5472
pho	-5473
rey	-5474
rop	-5475
rue	-5476
acey	-5477
ache	-5478
folk	-5479
from	-5480
poss	-5481
umed	-5482
uten	-5483
▁Mad	-5484
▁amb	-5485
▁deb	-5486
▁die	-5487
▁rob	-5488
▁san	-5489
▁ver	-5490
Never	-5491
Where	-5492
idity	-5493
ivity	-5494
lfare	-5495
▁Agat	-5496
▁Many	-5497
▁ange	-5498
▁arms	-5499
▁blow	-5500
▁dirt	-5501
▁enab	-5502
▁fing	-5503
▁hunt	-5504
▁keen	-5505
▁mead	-5506
▁pale	-5507
▁pert	-5508
▁pred	-5509
▁redu	-5510
▁tire	-5511
▁trem	-5512
arying	-5513
dolpho	-5514
otions	-5515
verted	-5516
▁Lacey	-5517
▁awful	-5518
▁bound	-5519
▁bowed	-5520
▁broad	-5521
▁class	-5522
▁decis	-5523
▁disli	-5524
▁dozen	-5525
▁exact	-5526
▁fruit	-5527
▁griev	-5528
▁holid	-5529
▁mamma	-5530
▁noisy	-5531
▁shade	-5532
▁swell	-5533
▁thick	-5534
▁topic	-5535
▁unfit	-5536
▁unnat	-5537
▁whist	-5538
respect	-5539
▁Courcy	-5540
▁accent	-5541
▁amount	-5542
▁bottom	-5543
▁bought	-5544
▁double	-5545
▁encoun	-5546
▁energy	-5547
▁experi	-5548
▁gladly	-5549
▁guilty	-5550
▁incess	-5551
▁incons	-5552
▁muslin	-5553
▁nieces	-5554
▁obstin	-5555
▁plenty	-5556
▁resour	-5557
▁riding	-5558
▁stayed	-5559
▁unwell	-5560
▁Norfolk	-5561
▁beneath	-5562
▁capital	-5563
▁curious	-5564
▁deliber	-5565
▁demands	-5566
▁designs	-5567
▁examine	-5568
▁foresee	-5569
▁letting	-5570
▁outward	-5571
▁retired	-5572
▁unusual	-5573
▁warmest	-5574
▁welfare	-5575
▁Allenham	-5576
▁Consider	-5577
▁February	-5578
▁breaking	-5579
▁horrible	-5580
▁pictures	-5581
▁reminded	-5582
▁signific	-5583
▁slightly	-5584
▁steadily	-5585
▁violence	-5586
▁Harvilles	-5587
▁apologies	-5588
▁deference	-5589
▁disturbed	-5590
▁engrossed	-5591
▁hesitated	-5592
▁housemaid	-5593
▁imperfect	-5594
▁inquiring	-5595
▁interview	-5596
▁performed	-5597
▁professed	-5598
▁repeating	-5599
▁respected	-5600
▁seventeen	-5601
▁strangers	-5602
▁substance	-5603
▁voluntary	-5604
▁whispered	-5605
▁witnessed	-5606
▁Middletons	-5607
▁complaints	-5608
▁conference	-5609
▁deficiency	-5610
▁directions	-5611
▁downstairs	-5612
▁endeavours	-5613
▁estimation	-5614
▁forgetting	-5615
▁liberality	-5616
▁perplexity	-5617
▁regretting	-5618
▁suspecting	-5619
▁accompanied	-5620
▁complacency	-5621
▁overpowered	-5622
▁unexception	-5623
▁inconvenient	-5624
▁perseverance	-5625
▁affectionately	-5626
▁accomplishments	-5627
Be	-5628
IN	-5629
Me	-5630
nk	-5631
One	-5632
SON	-5633
Was	-5634
dig	-5635
eel	-5636
ias	-5637
itc	-5638
lia	-5639
nor	-5640
ases	-5641
bled	-5642
bted	-5643
cket	-5644
door	-5645
enny	-5646
erke	-5647
halt	-5648
phan	-5649
sett	-5650
▁Hug	-5651
▁Ire	-5652
▁Jan	-5653
▁fro	-5654
▁sly	-5655
alley	-5656
bable	-5657
every	-5658
icked	-5659
ighed	-5660
oline	-5661
orton	-5662
stead	-5663
stood	-5664
▁JOHN	-5665
▁bell	-5666
▁ecst	-5667
▁fret	-5668
▁gout	-5669
▁kitc	-5670
▁oper	-5671
▁phil	-5672
▁poet	-5673
▁rude	-5674
▁shel	-5675
▁sold	-5676
▁ungr	-5677
favour	-5678
inclin	-5679
liance	-5680
▁Coles	-5681
▁Great	-5682
▁angel	-5683
▁apply	-5684
▁blood	-5685
▁built	-5686
▁eloqu	-5687
▁grate	-5688
▁impud	-5689
▁insip	-5690
▁plann	-5691
▁revol	-5692
▁stopt	-5693
▁undes	-5694
conduct	-5695
erkeley	-5696
icarage	-5697
ichmond	-5698
parlour	-5699
utenant	-5700
writing	-5701
▁Agatha	-5702
▁George	-5703
▁Hughes	-5704
▁Morton	-5705
▁captiv	-5706
▁chapel	-5707
▁dearer	-5708
▁insist	-5709
▁labour	-5710
▁overhe	-5711
▁pained	-5712
▁prodig	-5713
▁saving	-5714
informed	-5715
▁Evering	-5716
▁Ireland	-5717
▁JOHNSON	-5718
▁Neither	-5719
▁Without	-5720
▁ancient	-5721
▁apprehe	-5722
▁created	-5723
▁crossed	-5724
▁decorum	-5725
▁economy	-5726
▁endured	-5727
▁exposed	-5728
▁implied	-5729
▁inconst	-5730
▁kindest	-5731
▁kitchen	-5732
▁placing	-5733
▁procure	-5734
▁rapidly	-5735
▁upright	-5736
▁useless	-5737
▁worldly	-5738
▁admiring	-5739
▁beauties	-5740
▁confused	-5741
▁deserves	-5742
▁detained	-5743
▁drawback	-5744
▁indebted	-5745
▁meetings	-5746
▁openness	-5747
▁pursuits	-5748
▁rapidity	-5749
▁requires	-5750
▁restless	-5751
▁settling	-5752
▁startled	-5753
▁suitable	-5754
rehensible	-5755
▁amendment	-5756
▁assembled	-5757
▁carefully	-5758
▁desperate	-5759
▁examining	-5760
▁extensive	-5761
▁horseback	-5762
▁improving	-5763
▁oppressed	-5764
▁preceding	-5765
▁preserved	-5766
▁provoking	-5767
▁purposely	-5768
▁suspended	-5769
▁unaccount	-5770
▁willingly	-5771
▁Everingham	-5772
▁confession	-5773
▁describing	-5774
▁generosity	-5775
▁misconduct	-5776
▁reconciled	-5777
▁retirement	-5778
▁ungrateful	-5779
▁astonishing	-5780
▁represented	-5781
▁delightfully	-5782
▁acknowledgment	-5783
▁unexceptionable	-5784
!'	-5785
bs	-5786
▁2	-5787
der	-5788
ilf	-5789
ole	-5790
pes	-5791
phy	-5792
rat	-5793
▁Ah	-5794
▁La	-5795
▁od	-5796
▁om	-5797
Jane	-5798
four	-5799
part	-5800
uity	-5801
▁Ame	-5802
▁Box	-5803
▁Oct	-5804
▁Pul	-5805
▁ben	-5806
▁fid	-5807
▁flo	-5808
▁mur	-5809
▁rub	-5810
▁sed	-5811
ected	-5812
grity	-5813
iform	-5814
ilsom	-5815
orted	-5816
ridge	-5817
sight	-5818
sumed	-5819
teney	-5820
uming	-5821
verty	-5822
▁Ford	-5823
▁awak	-5824
▁bare	-5825
▁degr	-5826
▁gift	-5827
▁ours	-5828
▁sore	-5829
▁stro	-5830
▁zeal	-5831
esides	-5832
urious	-5833
usions	-5834
▁Combe	-5835
▁awake	-5836
▁clock	-5837
▁elope	-5838
▁mount	-5839
▁plays	-5840
▁sadly	-5841
▁shape	-5842
▁sober	-5843
▁treas	-5844
▁unpre	-5845
▁yards	-5846
emember	-5847
enerous	-5848
liation	-5849
picious	-5850
racious	-5851
utation	-5852
▁Amelia	-5853
▁Anhalt	-5854
▁Easter	-5855
▁Exeter	-5856
▁Harley	-5857
▁Milsom	-5858
▁Square	-5859
▁apples	-5860
▁arrive	-5861
▁aspect	-5862
▁basket	-5863
▁coolly	-5864
▁dearly	-5865
▁detail	-5866
▁discom	-5867
▁disord	-5868
▁odious	-5869
▁repose	-5870
▁speedy	-5871
▁valley	-5872
▁wisest	-5873
ometimes	-5874
▁Udolpho	-5875
▁admirer	-5876
▁advised	-5877
▁civilly	-5878
▁conceit	-5879
▁excused	-5880
▁excuses	-5881
▁founded	-5882
▁happens	-5883
▁harbour	-5884
▁imputed	-5885
▁officer	-5886
▁poverty	-5887
▁pursued	-5888
▁remonst	-5889
▁renewal	-5890
▁retreat	-5891
▁showing	-5892
▁uniform	-5893
▁Berkeley	-5894
▁Caroline	-5895
▁Richmond	-5896
▁activity	-5897
▁agreeing	-5898
▁awakened	-5899
▁coldness	-5900
▁conquest	-5901
▁deserted	-5902
▁distinct	-5903
▁emotions	-5904
▁exchange	-5905
▁fatigued	-5906
▁instinct	-5907
▁irresist	-5908
▁listener	-5909
▁maternal	-5910
▁numerous	-5911
▁ordinary	-5912
▁preserve	-5913
▁pursuing	-5914
▁relating	-5915
▁silenced	-5916
▁stepping	-5917
▁allowance	-5918
▁encounter	-5919
▁entreated	-5920
▁instances	-5921
▁integrity	-5922
▁prejudice	-5923
▁privilege	-5924
▁reconcile	-5925
▁reference	-5926
▁separated	-5927
▁trembling	-5928
▁unnatural	-5929
▁abominable	-5930
▁additional	-5931
▁apartments	-5932
▁consistent	-5933
▁disrespect	-5934
▁foundation	-5935
▁handsomely	-5936
▁lieutenant	-5937
▁maintained	-5938
▁occupation	-5939
▁protection	-5940
▁repetition	-5941
▁respecting	-5942
▁anticipated	-5943
▁attractions	-5944
▁conjectures	-5945
▁intelligent	-5946
▁introducing	-5947
▁accidentally	-5948
▁insufficient	-5949
▁unpardonable	-5950
▁determination	-5951
jo	-5952
oe	-5953
ale	-5954
bby	-5955
bye	-5956
had	-5957
oop	-5958
oso	-5959
ras	-5960
uff	-5961
▁"'	-5962
▁Am	-5963
▁Se	-5964
?"--	-5965
Will	-5966
arch	-5967
cend	-5968
gian	-5969
isen	-5970
lorn	-5971
ming	-5972
rang	-5973
tete	-5974
this	-5975
uary	-5976
▁Cli	-5977
▁Cox	-5978
▁Has	-5979
▁cof	-5980
▁cop	-5981
▁mil	-5982
▁mon	-5983
▁oft	-5984
▁vig	-5985
aired	-5986
alled	-5987
aming	-5988
cture	-5989
giana	-5990
itate	-5991
onies	-5992
riend	-5993
ugust	-5994
woman	-5995
would	-5996
▁Fras	-5997
▁Kent	-5998
▁ensu	-5999
▁exec	-6000
▁grou	-6001
▁magn	-6002
▁pair	-6003
▁pure	-6004
▁sple	-6005
▁spru	-6006
▁tete	-6007
acious	-6008
encies	-6009
erring	-6010
rances	-6011
▁Somer	-6012
▁amiss	-6013
▁ample	-6014
▁debts	-6015
▁dying	-6016
▁field	-6017
▁heads	-6018
▁infam	-6019
▁merry	-6020
▁north	-6021
▁owned	-6022
▁owner	-6023
▁rough	-6024
▁score	-6025
▁union	-6026
ounding	-6027
turning	-6028
ulation	-6029
urrence	-6030
▁candle	-6031
▁detain	-6032
▁divide	-6033
▁ecstas	-6034
▁famous	-6035
▁fourth	-6036
▁gloomy	-6037
▁hospit	-6038
▁humili	-6039
▁imposs	-6040
▁incumb	-6041
▁parcel	-6042
▁transp	-6043
▁January	-6044
▁alluded	-6045
▁claimed	-6046
▁dischar	-6047
▁disdain	-6048
▁dropped	-6049
▁enabled	-6050
▁footing	-6051
▁forlorn	-6052
▁hanging	-6053
▁honours	-6054
▁kingdom	-6055
▁oftener	-6056
▁philoso	-6057
▁refrain	-6058
▁relieve	-6059
▁singing	-6060
▁tidings	-6061
▁uttered	-6062
▁yielded	-6063
▁Pulteney	-6064
▁accustom	-6065
▁assuring	-6066
▁contrive	-6067
▁drinking	-6068
▁esteemed	-6069
▁farewell	-6070
▁goodwill	-6071
▁husbands	-6072
▁original	-6073
▁powerful	-6074
▁reaching	-6075
▁resigned	-6076
▁tranquil	-6077
▁Crawfords	-6078
▁Georgiana	-6079
▁advisable	-6080
▁assertion	-6081
▁disinclin	-6082
▁dismissed	-6083
▁imaginary	-6084
▁inconsist	-6085
▁overpower	-6086
▁possessed	-6087
▁procuring	-6088
▁qualified	-6089
▁quickness	-6090
▁resources	-6091
▁solemnity	-6092
▁undertake	-6093
▁unfeeling	-6094
▁Churchills	-6095
▁acceptance	-6096
▁attributed	-6097
▁containing	-6098
▁exultation	-6099
▁formidable	-6100
▁gratefully	-6101
▁handsomest	-6102
▁inconsider	-6103
▁inducement	-6104
▁prevailing	-6105
▁prosperity	-6106
▁reluctance	-6107
▁resolutely	-6108
▁steadiness	-6109
▁submission	-6110
▁ungenerous	-6111
▁whispering	-6112
▁appointment	-6113
▁ascertained	-6114
▁confinement	-6115
▁employments	-6116
▁invitations	-6117
▁penetration	-6118
▁remembering	-6119
▁confirmation	-6120
▁considerably	-6121
▁disadvantage	-6122
▁dissatisfied	-6123
▁irresistible	-6124
▁unsuspicious	-6125
▁acknowledging	-6126
▁comparatively	-6127
▁impossibility	-6128
▁indisposition	-6129
▁insensibility	-6130
▁unwillingness	-6131
▁reconciliation	-6132
▁respectability	-6133
Go	-6134
bo	-6135
ew	-6136
ob	-6137
sm	-6138
sp	-6139
ts	-6140
Had	-6141
Our	-6142
rav	-6143
ued	-6144
uit	-6145
▁Pr	-6146
▁sn	-6147
▁vo	-6148
Lord	-6149
Only	-6150
aced	-6151
arte	-6152
bers	-6153
leep	-6154
more	-6155
quet	-6156
reci	-6157
rous	-6158
▁Ant	-6159
▁Its	-6160
▁Lod	-6161
▁Nay	-6162
▁Pat	-6163
▁Sur	-6164
▁hed	-6165
▁top	-6166
▁unb	-6167
anter	-6168
antic	-6169
eding	-6170
icule	-6171
impse	-6172
lieve	-6173
phant	-6174
▁Cobb	-6175
▁Look	-6176
▁Once	-6177
▁Scot	-6178
▁blue	-6179
▁crim	-6180
▁ling	-6181
▁meal	-6182
▁mode	-6183
▁mour	-6184
▁pack	-6185
▁page	-6186
▁roof	-6187
▁temp	-6188
▁unse	-6189
▁wide	-6190
atible	-6191
coming	-6192
laimed	-6193
veying	-6194
▁Again	-6195
▁Mamma	-6196
▁Thank	-6197
▁Young	-6198
▁adapt	-6199
▁aunts	-6200
▁bewit	-6201
▁billi	-6202
▁brain	-6203
▁enfor	-6204
▁exhib	-6205
▁faces	-6206
▁freed	-6207
▁inher	-6208
▁joint	-6209
▁ninet	-6210
▁owing	-6211
▁paint	-6212
▁plant	-6213
▁weary	-6214
ication	-6215
ignific	-6216
isition	-6217
itating	-6218
settled	-6219
version	-6220
whether	-6221
▁August	-6222
▁Indies	-6223
▁amazed	-6224
▁bonnet	-6225
▁causes	-6226
▁footst	-6227
▁forbid	-6228
▁gently	-6229
▁imagin	-6230
▁insinu	-6231
▁invent	-6232
▁likeli	-6233
▁nurser	-6234
▁pocket	-6235
▁portra	-6236
▁render	-6237
▁sickly	-6238
▁sighed	-6239
▁wicked	-6240
▁writes	-6241
appeared	-6242
▁Lucases	-6243
▁amazing	-6244
▁blinded	-6245
▁clearer	-6246
▁clearly	-6247
▁condemn	-6248
▁decline	-6249
▁degrees	-6250
▁fearing	-6251
▁gaining	-6252
▁genteel	-6253
▁glimpse	-6254
▁harmony	-6255
▁heavens	-6256
▁imposed	-6257
▁inhabit	-6258
▁luckily	-6259
▁praised	-6260
▁preposs	-6261
▁prevail	-6262
▁provide	-6263
▁proving	-6264
▁puzzled	-6265
▁raising	-6266
▁resumed	-6267
▁reverie	-6268
▁somehow	-6269
▁stepped	-6270
▁warrant	-6271
abilities	-6272
▁Suckling	-6273
▁acquired	-6274
▁ambition	-6275
▁assembly	-6276
▁deprived	-6277
▁designed	-6278
▁disposal	-6279
▁doubting	-6280
▁examined	-6281
▁exciting	-6282
▁fatigues	-6283
▁graceful	-6284
▁holidays	-6285
▁honestly	-6286
▁involunt	-6287
▁lessened	-6288
▁nineteen	-6289
▁provoked	-6290
▁punctual	-6291
▁resisted	-6292
▁soothing	-6293
▁terrible	-6294
▁tiresome	-6295
▁unfavour	-6296
▁unlikely	-6297
▁attribute	-6298
▁completed	-6299
▁conceited	-6300
▁confessed	-6301
▁declining	-6302
▁dependent	-6303
▁dignified	-6304
▁elopement	-6305
▁enquiries	-6306
▁impartial	-6307
▁producing	-6308
▁provision	-6309
▁regularly	-6310
▁rehearsal	-6311
▁stupidity	-6312
▁wandering	-6313
▁bitterness	-6314
▁flirtation	-6315
▁insignific	-6316
▁permission	-6317
▁persuading	-6318
▁scrupulous	-6319
▁successful	-6320
▁ungracious	-6321
▁unkindness	-6322
▁attachments	-6323
▁benevolence	-6324
▁experienced	-6325
▁fashionable	-6326
▁hospitality	-6327
▁inferiority	-6328
▁presumption	-6329
▁pretensions	-6330
▁speculation	-6331
▁extravagance	-6332
▁impertinence	-6333
▁preparations	-6334
▁recommending	-6335
▁correspondent	-6336
▁unaccountable	-6337
--'	-6338
cil	-6339
fee	-6340
ims	-6341
iny	-6342
rob	-6343
saw	-6344
ulf	-6345
Lady	-6346
aled	-6347
aron	-6348
arts	-6349
chie	-6350
coat	-6351
fton	-6352
gard	-6353
inde	-6354
peak	-6355
ront	-6356
time	-6357
ular	-6358
velo	-6359
▁Any	-6360
▁Ply	-6361
▁bef	-6362
▁cab	-6363
▁glo	-6364
▁kne	-6365
▁mal	-6366
▁ost	-6367
▁pou	-6368
▁sli	-6369
▁vou	-6370
acles	-6371
actly	-6372
agger	-6373
cript	-6374
cting	-6375
ctive	-6376
ellow	-6377
imate	-6378
licit	-6379
overs	-6380
quite	-6381
rooms	-6382
▁June	-6383
▁Lark	-6384
▁Much	-6385
▁Nash	-6386
▁adjo	-6387
▁alas	-6388
▁aven	-6389
▁bord	-6390
▁cher	-6391
▁damp	-6392
▁depl	-6393
▁dish	-6394
▁lord	-6395
▁obey	-6396
▁pang	-6397
▁pork	-6398
▁prem	-6399
▁rent	-6400
▁ship	-6401
▁slee	-6402
▁stra	-6403
Nobody	-6404
erably	-6405
ically	-6406
idious	-6407
itably	-6408
lesome	-6409
rained	-6410
uation	-6411
usable	-6412
▁Lodge	-6413
▁Since	-6414
▁Upper	-6415
▁atone	-6416
▁chest	-6417
▁compr	-6418
▁dissu	-6419
▁embra	-6420
▁gates	-6421
▁glass	-6422
▁hated	-6423
▁indec	-6424
▁infli	-6425
▁model	-6426
▁skill	-6427
▁solid	-6428
▁stock	-6429
▁stone	-6430
▁stret	-6431
▁swall	-6432
▁sweep	-6433
▁waste	-6434
isposed	-6435
meaning	-6436
ouncing	-6437
pection	-6438
ruction	-6439
▁Depend	-6440
▁French	-6441
▁beheld	-6442
▁bewild	-6443
▁centre	-6444
▁coffee	-6445
▁denial	-6446
▁disper	-6447
▁dissip	-6448
▁eleven	-6449
▁enable	-6450
▁errors	-6451
▁fidget	-6452
▁finery	-6453
▁firmly	-6454
▁flower	-6455
▁govern	-6456
▁gravel	-6457
▁guests	-6458
▁hearty	-6459
▁hyster	-6460
▁jumped	-6461
▁lesson	-6462
▁liable	-6463
▁lovers	-6464
▁luxury	-6465
▁offers	-6466
▁perman	-6467
▁plague	-6468
▁plants	-6469
▁remind	-6470
▁spoilt	-6471
▁talker	-6472
▁vacant	-6473
▁writer	-6474
▁Clifton	-6475
▁Larkins	-6476
▁Martins	-6477
▁Thorpes	-6478
▁affront	-6479
▁artless	-6480
▁becomes	-6481
▁charity	-6482
▁compose	-6483
▁console	-6484
▁cutting	-6485
▁defence	-6486
▁depends	-6487
▁derived	-6488
▁feature	-6489
▁females	-6490
▁folding	-6491
▁freedom	-6492
▁impulse	-6493
▁invalid	-6494
▁knocked	-6495
▁nursery	-6496
▁penance	-6497
▁provoke	-6498
▁shyness	-6499
▁streets	-6500
▁subdued	-6501
▁symptom	-6502
▁Plymouth	-6503
▁allusion	-6504
▁bitterly	-6505
▁decisive	-6506
▁division	-6507
▁faithful	-6508
▁governed	-6509
▁guardian	-6510
▁hardened	-6511
▁helpless	-6512
▁humility	-6513
▁needless	-6514
▁partners	-6515
▁promises	-6516
▁ridicule	-6517
▁services	-6518
▁situated	-6519
▁trusting	-6520
▁abundance	-6521
▁assisting	-6522
▁benefited	-6523
▁betraying	-6524
▁brilliant	-6525
▁exploring	-6526
▁frightful	-6527
▁incessant	-6528
▁incumbent	-6529
▁indispens	-6530
▁promotion	-6531
▁unluckily	-6532
▁unreserve	-6533
▁amusements	-6534
▁concealing	-6535
▁concluding	-6536
▁contradict	-6537
▁conversing	-6538
▁enjoyments	-6539
▁exclaiming	-6540
▁intimately	-6541
▁liveliness	-6542
▁pleasanter	-6543
▁rationally	-6544
▁triumphant	-6545
▁Northampton	-6546
▁appearances	-6547
▁attentively	-6548
▁exclamation	-6549
▁impatiently	-6550
▁unhappiness	-6551
▁comprehended	-6552
▁strengthened	-6553
▁acquaintances	-6554
▁apprehensions	-6555
▁compassionate	-6556
▁misunderstood	-6557
▁opportunities	-6558
▁distinguishing	-6559
).	-6560
.)	-6561
ks	-6562
Don	-6563
Tis	-6564
ats	-6565
box	-6566
cal	-6567
hus	-6568
ipt	-6569
lar	-6570
min	-6571
off	-6572
ope	-6573
upp	-6574
vet	-6575
yes	-6576
ades	-6577
ator	-6578
atte	-6579
born	-6580
gged	-6581
give	-6582
hael	-6583
lebr	-6584
ober	-6585
poor	-6586
said	-6587
till	-6588
wers	-6589
▁Dor	-6590
▁Mic	-6591
▁ate	-6592
▁awe	-6593
▁dar	-6594
▁dup	-6595
▁fer	-6596
▁fet	-6597
▁fra	-6598
▁fun	-6599
▁gig	-6600
▁gle	-6601
▁ted	-6602
Every	-6603
Yours	-6604
astle	-6605
breed	-6606
haust	-6607
idden	-6608
repro	-6609
timed	-6610
ulous	-6611
▁Harr	-6612
▁Soon	-6613
▁Vows	-6614
▁York	-6615
▁abst	-6616
▁canv	-6617
▁conj	-6618
▁cook	-6619
▁drop	-6620
▁enem	-6621
▁fulf	-6622
▁gold	-6623
▁hide	-6624
▁irre	-6625
▁issu	-6626
▁lamp	-6627
▁mare	-6628
▁merc	-6629
▁pond	-6630
▁reve	-6631
▁secl	-6632
▁shaw	-6633
▁tree	-6634
abouts	-6635
aneous	-6636
iences	-6637
indeed	-6638
isions	-6639
isting	-6640
ligent	-6641
minded	-6642
nected	-6643
ushing	-6644
▁About	-6645
▁Baron	-6646
▁Carte	-6647
▁Denny	-6648
▁Happy	-6649
▁Patty	-6650
▁Three	-6651
▁Under	-6652
▁blund	-6653
▁bread	-6654
▁calls	-6655
▁cases	-6656
▁devil	-6657
▁dropt	-6658
▁enclo	-6659
▁glory	-6660
▁group	-6661
▁guine	-6662
▁holds	-6663
▁incur	-6664
▁monst	-6665
▁overc	-6666
▁pages	-6667
▁repul	-6668
▁reven	-6669
▁rival	-6670
▁serve	-6671
▁spark	-6672
▁straw	-6673
▁train	-6674
▁unite	-6675
▁using	-6676
▁vouch	-6677
▁works	-6678
because	-6679
cending	-6680
haelmas	-6681
henever	-6682
ottager	-6683
ponding	-6684
ression	-6685
▁accuse	-6686
▁advent	-6687
▁amidst	-6688
▁candid	-6689
▁celebr	-6690
▁coarse	-6691
▁create	-6692
▁crying	-6693
▁deceit	-6694
▁enthus	-6695
▁flight	-6696
▁grieve	-6697
▁handed	-6698
▁ingrat	-6699
▁intend	-6700
▁invest	-6701
▁misled	-6702
▁papers	-6703
▁parade	-6704
▁proofs	-6705
▁raptur	-6706
▁reckon	-6707
▁ruined	-6708
▁sailor	-6709
▁shaken	-6710
▁shared	-6711
▁splend	-6712
▁unfair	-6713
▁urging	-6714
▁whence	-6715
breeding	-6716
▁Besides	-6717
▁Instead	-6718
▁October	-6719
▁accused	-6720
▁arising	-6721
▁boasted	-6722
▁breathe	-6723
▁chances	-6724
▁changes	-6725
▁destiny	-6726
▁dinners	-6727
▁ecstasy	-6728
▁enquiry	-6729
▁exerted	-6730
▁follows	-6731
▁forever	-6732
▁furnish	-6733
▁gardens	-6734
▁gratify	-6735
▁meadows	-6736
▁reduced	-6737
▁release	-6738
▁sources	-6739
▁studied	-6740
▁tempers	-6741
▁whither	-6742
▁Carteret	-6743
▁Vicarage	-6744
▁arriving	-6745
▁billiard	-6746
▁declares	-6747
▁disliked	-6748
▁estimate	-6749
▁extended	-6750
▁firmness	-6751
▁fondness	-6752
▁grievous	-6753
▁headache	-6754
▁idleness	-6755
▁intently	-6756
▁pointing	-6757
▁politely	-6758
▁presumed	-6759
▁prompted	-6760
▁reckoned	-6761
▁rejected	-6762
▁restrain	-6763
▁sanction	-6764
▁severely	-6765
▁silently	-6766
▁treating	-6767
▁trembled	-6768
▁withdrew	-6769
ifications	-6770
▁absurdity	-6771
▁adjoining	-6772
▁agreement	-6773
▁arguments	-6774
▁blameless	-6775
▁blessings	-6776
▁blindness	-6777
▁colouring	-6778
▁commanded	-6779
▁conducted	-6780
▁cordially	-6781
▁discerned	-6782
▁grandmama	-6783
▁happening	-6784
▁indulgent	-6785
▁indulging	-6786
▁ingenuity	-6787
▁monstrous	-6788
▁negligent	-6789
▁obstinate	-6790
▁perpetual	-6791
▁pretended	-6792
▁rejoicing	-6793
▁scattered	-6794
▁simpleton	-6795
▁thousands	-6796
▁Michaelmas	-6797
▁abhorrence	-6798
▁contracted	-6799
▁creditable	-6800
▁diffidence	-6801
▁indisposed	-6802
▁inevitably	-6803
▁management	-6804
▁moderation	-6805
▁originally	-6806
▁overlooked	-6807
▁persevered	-6808
▁preventing	-6809
▁prosperous	-6810
▁conjectured	-6811
▁considerate	-6812
▁extravagant	-6813
▁fortunately	-6814
▁inconstancy	-6815
▁quarrelling	-6816
▁surrounding	-6817
▁thoughtless	-6818
▁uncertainty	-6819
▁apprehensive	-6820
▁consequences	-6821
▁entertaining	-6822
▁inclinations	-6823
▁unfavourable	-6824
▁Somersetshire	-6825
▁comprehending	-6826
▁contemplation	-6827
▁considerations	-6828
Ay	-6829
Of	-6830
gs	-6831
aby	-6832
did	-6833
ker	-6834
lew	-6835
ues	-6836
why	-6837
▁oh	-6838
True	-6839
agna	-6840
aker	-6841
book	-6842
chan	-6843
cili	-6844
cont	-6845
have	-6846
idge	-6847
impo	-6848
ivid	-6849
much	-6850
pled	-6851
pril	-6852
rate	-6853
rent	-6854
runs	-6855
sion	-6856
umer	-6857
unes	-6858
zing	-6859
▁Ecc	-6860
▁Sam	-6861
▁agg	-6862
▁aid	-6863
▁cru	-6864
▁dou	-6865
▁dra	-6866
▁dur	-6867
▁mid	-6868
▁phr	-6869
▁ram	-6870
▁rum	-6871
▁unm	-6872
▁van	-6873
Lizzy	-6874
These	-6875
asted	-6876
attle	-6877
board	-6878
hetic	-6879
idant	-6880
ifted	-6881
inity	-6882
irley	-6883
nings	-6884
onial	-6885
orous	-6886
riday	-6887
stery	-6888
▁Four	-6889
▁baby	-6890
▁beat	-6891
▁comb	-6892
▁date	-6893
▁empt	-6894
▁feet	-6895
▁gets	-6896
▁intr	-6897
▁meat	-6898
▁mill	-6899
▁pull	-6900
▁ribb	-6901
▁sele	-6902
▁skin	-6903
▁unce	-6904
▁ungu	-6905
▁unst	-6906
▁wilf	-6907
ailing	-6908
atched	-6909
atious	-6910
church	-6911
entive	-6912
except	-6913
import	-6914
judged	-6915
utions	-6916
▁April	-6917
▁Bruns	-6918
▁Magna	-6919
▁Pratt	-6920
▁Shall	-6921
▁South	-6922
▁Still	-6923
▁Winth	-6924
▁alloy	-6925
▁chain	-6926
▁disgu	-6927
▁floor	-6928
▁grant	-6929
▁guide	-6930
▁knoll	-6931
▁liter	-6932
▁mixed	-6933
▁prior	-6934
▁range	-6935
▁seats	-6936
▁shawl	-6937
▁shill	-6938
▁south	-6939
▁tease	-6940
▁terri	-6941
▁wiser	-6942
Colonel	-6943
ariably	-6944
atingly	-6945
borough	-6946
lesford	-6947
sequent	-6948
unction	-6949
without	-6950
▁Friday	-6951
▁Grants	-6952
▁Little	-6953
▁Mother	-6954
▁alarms	-6955
▁arisen	-6956
▁avenue	-6957
▁barely	-6958
▁behalf	-6959
▁breach	-6960
▁brings	-6961
▁courte	-6962
▁curate	-6963
▁custom	-6964
▁daring	-6965
▁deemed	-6966
▁disreg	-6967
▁helped	-6968
▁intrud	-6969
▁killed	-6970
▁needle	-6971
▁nights	-6972
▁pertur	-6973
▁propri	-6974
▁rained	-6975
▁rushed	-6976
▁served	-6977
▁shrink	-6978
▁social	-6979
▁sports	-6980
▁travel	-6981
▁vastly	-6982
disposed	-6983
iousness	-6984
▁Between	-6985
▁Shirley	-6986
▁Westons	-6987
▁Whether	-6988
▁adapted	-6989
▁answers	-6990
▁bearing	-6991
▁blunder	-6992
▁candour	-6993
▁contriv	-6994
▁covered	-6995
▁curtain	-6996
▁dispose	-6997
▁efforts	-6998
▁existed	-6999
▁glowing	-7000
▁individ	-7001
▁insipid	-7002
▁involve	-7003
▁languid	-7004
▁limited	-7005
▁numbers	-7006
▁pervers	-7007
▁playful	-7008
▁reality	-7009
▁scolded	-7010
▁sharing	-7011
▁smaller	-7012
▁sorrows	-7013
▁steward	-7014
▁summons	-7015
▁surmise	-7016
▁teasing	-7017
▁utility	-7018
▁wonders	-7019
▁wounded	-7020
something	-7021
▁Cottager	-7022
▁Scotland	-7023
▁Winthrop	-7024
▁abruptly	-7025
▁ballroom	-7026
▁breeding	-7027
▁dissuade	-7028
▁fourteen	-7029
▁grieving	-7030
▁hardship	-7031
▁hesitate	-7032
▁humanity	-7033
▁insolent	-7034
▁inspired	-7035
▁noticing	-7036
▁pitiable	-7037
▁recalled	-7038
▁recently	-7039
▁released	-7040
▁romantic	-7041
▁securing	-7042
▁spacious	-7043
▁straight	-7044
▁yielding	-7045
▁Brunswick	-7046
▁Sometimes	-7047
▁appointed	-7048
▁confidant	-7049
▁consented	-7050
▁declaring	-7051
▁dejection	-7052
▁exception	-7053
▁expensive	-7054
▁furnished	-7055
▁handsomer	-7056
▁intellect	-7057
▁permitted	-7058
▁prettiest	-7059
▁promoting	-7060
▁reflected	-7061
▁requiring	-7062
▁sentences	-7063
▁sorrowful	-7064
▁variation	-7065
▁violently	-7066
▁Ecclesford	-7067
▁accidental	-7068
▁attractive	-7069
▁bewildered	-7070
▁bewitching	-7071
▁carelessly	-7072
▁compliance	-7073
▁composedly	-7074
▁convincing	-7075
▁counteract	-7076
▁expressive	-7077
▁improbable	-7078
▁invariably	-7079
▁lengthened	-7080
▁likelihood	-7081
▁questioned	-7082
▁solicitous	-7083
▁subsequent	-7084
▁threatened	-7085
▁usefulness	-7086
▁yourselves	-7087
▁acquisition	-7088
▁discernment	-7089
▁grandmother	-7090
▁inattention	-7091
▁refreshment	-7092
▁unconnected	-7093
▁universally	-7094
▁advantageous	-7095
▁contradicted	-7096
▁disagreement	-7097
▁exclamations	-7098
▁overpowering	-7099
▁perverseness	-7100
▁remonstrance	-7101
▁congratulated	-7102
▁misunderstand	-7103
▁unconsciously	-7104
▁accomplishment	-7105
▁communications	-7106
▁disinclination	-7107
▁disappointments	-7108
▁recommendations	-7109
00	-7110
Ab	-7111
TH	-7112
ah	-7113
bl	-7114
gl	-7115
Has	-7116
alf	-7117
ams	-7118
ank	-7119
cks	-7120
elt	-7121
lds	-7122
rec	-7123
sex	-7124
yno	-7125
▁Gl	-7126
▁au	-7127
,--"	-7128
;--"	-7129
Char	-7130
aked	-7131
ambt	-7132
bute	-7133
cuse	-7134
ogue	-7135
pent	-7136
ping	-7137
told	-7138
▁Ali	-7139
▁Bra	-7140
▁Mon	-7141
▁New	-7142
▁XXX	-7143
▁fly	-7144
▁god	-7145
▁lin	-7146
▁pac	-7147
▁pin	-7148
▁tro	-7149
▁viv	-7150
antel	-7151
bling	-7152
elina	-7153
ental	-7154
ferer	-7155
lived	-7156
orned	-7157
pular	-7158
rated	-7159
▁DEAR	-7160
▁Grey	-7161
▁Half	-7162
▁Most	-7163
▁Sure	-7164
▁Time	-7165
▁Whit	-7166
▁Wing	-7167
▁alle	-7168
▁bend	-7169
▁bran	-7170
▁dock	-7171
▁flew	-7172
▁food	-7173
▁iron	-7174
▁mend	-7175
▁murm	-7176
▁plea	-7177
▁pupp	-7178
▁scra	-7179
▁sell	-7180
▁snug	-7181
▁triv	-7182
▁vind	-7183
▁wall	-7184
almost	-7185
ambton	-7186
athing	-7187
attern	-7188
cation	-7189
encing	-7190
erness	-7191
establ	-7192
gments	-7193
icable	-7194
ifully	-7195
kinson	-7196
lanted	-7197
making	-7198
oncert	-7199
orable	-7200
ristol	-7201
things	-7202
ynolds	-7203
▁Adieu	-7204
▁March	-7205
▁Quite	-7206
▁Rooms	-7207
▁adieu	-7208
▁afflu	-7209
▁alert	-7210
▁assid	-7211
▁avail	-7212
▁beaux	-7213
▁bench	-7214
▁forms	-7215
▁frost	-7216
▁hedge	-7217
▁imped	-7218
▁indef	-7219
▁infat	-7220
▁mercy	-7221
▁mirth	-7222
▁novel	-7223
▁poult	-7224
▁river	-7225
▁roads	-7226
▁safer	-7227
▁shows	-7228
▁spect	-7229
▁store	-7230
▁stuff	-7231
▁trace	-7232
▁trade	-7233
▁unans	-7234
▁wives	-7235
judging	-7236
oration	-7237
tending	-7238
▁Doctor	-7239
▁Fraser	-7240
▁Harris	-7241
▁Nature	-7242
▁Sussex	-7243
▁Within	-7244
▁ardour	-7245
▁artful	-7246
▁asleep	-7247
▁begins	-7248
▁butler	-7249
▁calmer	-7250
▁caring	-7251
▁darted	-7252
▁delays	-7253
▁disclo	-7254
▁dispar	-7255
▁dispos	-7256
▁dissim	-7257
▁easier	-7258
▁extrem	-7259
▁farmer	-7260
▁hazard	-7261
▁kinder	-7262
▁kissed	-7263
▁mantel	-7264
▁mental	-7265
▁myster	-7266
▁novels	-7267
▁obtain	-7268
▁overth	-7269
▁phrase	-7270
▁poetry	-7271
▁pursue	-7272
▁puzzle	-7273
▁remiss	-7274
▁resign	-7275
▁search	-7276
▁sermon	-7277
▁shadow	-7278
▁silver	-7279
▁sketch	-7280
▁solely	-7281
▁soothe	-7282
▁sprung	-7283
▁stream	-7284
▁subdue	-7285
▁survey	-7286
▁truths	-7287
▁varied	-7288
▁voices	-7289
▁Bennets	-7290
▁Bristol	-7291
▁Lambton	-7292
▁Palmers	-7293
▁artific	-7294
▁begging	-7295
▁butcher	-7296
▁cabinet	-7297
▁caprice	-7298
▁chooses	-7299
▁closely	-7300
▁condesc	-7301
▁courtes	-7302
▁darling	-7303
▁despise	-7304
▁endless	-7305
▁exhaust	-7306
▁explore	-7307
▁fancies	-7308
▁fingers	-7309
▁forcing	-7310
▁granted	-7311
▁heroism	-7312
▁holding	-7313
▁hunting	-7314
▁languor	-7315
▁lecture	-7316
▁mansion	-7317
▁masters	-7318
▁mystery	-7319
▁perusal	-7320
▁pitiful	-7321
▁popular	-7322
▁propens	-7323
▁receipt	-7324
▁revenge	-7325
▁rightly	-7326
▁shaking	-7327
▁sighing	-7328
▁supplic	-7329
▁tribute	-7330
▁trivial	-7331
▁varying	-7332
▁visible	-7333
▁Remember	-7334
▁Reynolds	-7335
▁applying	-7336
▁appropri	-7337
▁astonish	-7338
▁banished	-7339
▁blushing	-7340
▁converse	-7341
▁critical	-7342
▁despatch	-7343
▁detected	-7344
▁discreet	-7345
▁dockyard	-7346
▁effusion	-7347
▁elevated	-7348
▁fearless	-7349
▁foretold	-7350
▁glancing	-7351
▁humoured	-7352
▁indolent	-7353
▁insisted	-7354
▁joyfully	-7355
▁lamented	-7356
▁mildness	-7357
▁negative	-7358
▁opposing	-7359
▁passages	-7360
▁propriet	-7361
▁secondly	-7362
▁severity	-7363
▁sleeping	-7364
▁sufferer	-7365
▁summoned	-7366
▁theatric	-7367
▁thirteen	-7368
▁treasure	-7369
▁unfolded	-7370
▁withdraw	-7371
▁Christian	-7372
▁Wingfield	-7373
▁admitting	-7374
▁advancing	-7375
▁affording	-7376
▁agreeably	-7377
▁allowable	-7378
▁comforted	-7379
▁comprised	-7380
▁consoling	-7381
▁conveying	-7382
▁depressed	-7383
▁directing	-7384
▁disgusted	-7385
▁displayed	-7386
▁eloquence	-7387
▁footsteps	-7388
▁innocence	-7389
▁interests	-7390
▁interfere	-7391
▁intrusion	-7392
▁invention	-7393
▁judicious	-7394
▁lamenting	-7395
▁offending	-7396
▁ornaments	-7397
▁overheard	-7398
▁pronounce	-7399
▁sleepless	-7400
▁unguarded	-7401
▁universal	-7402
▁unsettled	-7403
▁withdrawn	-7404
▁authorised	-7405
▁brilliancy	-7406
▁celebrated	-7407
▁collecting	-7408
▁concerning	-7409
▁consequent	-7410
▁contriving	-7411
▁disgusting	-7412
▁interposed	-7413
▁restrained	-7414
▁suggestion	-7415
▁suspicious	-7416
▁thankfully	-7417
▁wilderness	-7418
▁attributing	-7419
▁concurrence	-7420
▁familiarity	-7421
▁forgiveness	-7422
▁ingratitude	-7423
▁matrimonial	-7424
▁meditations	-7425
▁picturesque	-7426
▁significant	-7427
▁supposition	-7428
▁unconcerned	-7429
▁unwillingly	-7430
▁willingness	-7431
▁explanations	-7432
▁perturbation	-7433
▁presentation	-7434
▁unexpectedly	-7435
▁unpretending	-7436
▁probabilities	-7437
▁accommodations	-7438
▁thoughtfulness	-7439
);	-7440
LI	-7441
ds	-7442
ua	-7443
'--	-7444
afe	-7445
awd	-7446
bar	-7447
boy	-7448
can	-7449
cer	-7450
cia	-7451
cim	-7452
haw	-7453
key	-7454
leg	-7455
ogn	-7456
pla	-7457
ros	-7458
rov	-7459
tar	-7460
ura	-7461
wis	-7462
yer	-7463
▁Ar	-7464
▁Bl	-7465
▁Ir	-7466
▁Pe	-7467
▁ug	-7468
.'--	-7469
:--"	-7470
From	-7471
THER	-7472
acon	-7473
aize	-7474
anim	-7475
atic	-7476
bury	-7477
ceiv	-7478
cham	-7479
gest	-7480
haet	-7481
heas	-7482
iasm	-7483
ieus	-7484
igua	-7485
irst	-7486
ivil	-7487
ixed	-7488
long	-7489
mour	-7490
ones	-7491
oose	-7492
orse	-7493
port	-7494
pret	-7495
side	-7496
stem	-7497
tern	-7498
udes	-7499
ulty	-7500
vere	-7501
xcom	-7502
▁Cha	-7503
▁Con	-7504
▁End	-7505
▁Hon	-7506
▁Jen	-7507
▁Lee	-7508
▁Sha	-7509
▁Sto	-7510
▁Ten	-7511
▁amp	-7512
▁bos	-7513
▁das	-7514
▁del	-7515
▁egg	-7516
▁hun	-7517
▁nic	-7518
▁oak	-7519
▁orc	-7520
▁ren	-7521
▁rou	-7522
▁sam	-7523
▁sky	-7524
▁tax	-7525
▁tur	-7526
▁vic	-7527
▁wra	-7528
About	-7529
alian	-7530
astic	-7531
erson	-7532
estib	-7533
etite	-7534
gered	-7535
iders	-7536
iency	-7537
inent	-7538
irons	-7539
ishes	-7540
kespe	-7541
liest	-7542
osing	-7543
oward	-7544
sized	-7545
umber	-7546
uries	-7547
xious	-7548
▁Dick	-7549
▁Monk	-7550
▁More	-7551
▁Spit	-7552
▁airs	-7553
▁dawd	-7554
▁defy	-7555
▁ears	-7556
▁glee	-7557
▁hind	-7558
▁kiss	-7559
▁lace	-7560
▁lies	-7561
▁phys	-7562
▁quad	-7563
▁quiz	-7564
▁rode	-7565
▁roll	-7566
▁sang	-7567
▁succ	-7568
▁surv	-7569
▁torn	-7570
▁tort	-7571
▁vice	-7572
▁warn	-7573
▁west	-7574
Though	-7575
always	-7576
ancies	-7577
anting	-7578
assing	-7579
denial	-7580
hanged	-7581
houses	-7582
idding	-7583
igning	-7584
iments	-7585
impole	-7586
onious	-7587
▁Count	-7588
▁Harry	-7589
▁Irish	-7590
▁Laura	-7591
▁Other	-7592
▁Small	-7593
▁Surry	-7594
▁White	-7595
▁accus	-7596
▁cheap	-7597
▁clean	-7598
▁enlar	-7599
▁faire	-7600
▁falls	-7601
▁finds	-7602
▁forfe	-7603
▁frame	-7604
▁grove	-7605
▁gruel	-7606
▁indub	-7607
▁inexp	-7608
▁knife	-7609
▁knock	-7610
▁nomin	-7611
▁phaet	-7612
▁pheas	-7613
▁prime	-7614
▁prope	-7615
▁recur	-7616
▁rules	-7617
▁satin	-7618
▁scand	-7619
▁scold	-7620
▁seize	-7621
▁sheet	-7622
▁shoes	-7623
▁slept	-7624
▁stake	-7625
▁stamp	-7626
▁trunk	-7627
▁whims	-7628
consequ	-7629
ifiable	-7630
sighted	-7631
verting	-7632
▁Alicia	-7633
▁Lovers	-7634
▁adieus	-7635
▁affron	-7636
▁banish	-7637
▁beings	-7638
▁carpet	-7639
▁clouds	-7640
▁compet	-7641
▁coxcom	-7642
▁curacy	-7643
▁encumb	-7644
▁ensure	-7645
▁enumer	-7646
▁excurs	-7647
▁fondly	-7648
▁forest	-7649
▁freely	-7650
▁gather	-7651
▁halloo	-7652
▁infect	-7653
▁injure	-7654
▁interm	-7655
▁latest	-7656
▁lawyer	-7657
▁laying	-7658
▁loving	-7659
▁misapp	-7660
▁profit	-7661
▁reader	-7662
▁recogn	-7663
▁relent	-7664
▁reprob	-7665
▁review	-7666
▁series	-7667
▁specim	-7668
▁tempor	-7669
▁testim	-7670
▁thread	-7671
▁unseen	-7672
▁vestib	-7673
▁warmer	-7674
▁wisely	-7675
kespeare	-7676
plaister	-7677
▁Antigua	-7678
▁Italian	-7679
▁Wimpole	-7680
▁acquire	-7681
▁acutely	-7682
▁augment	-7683
▁briefly	-7684
▁captain	-7685
▁complet	-7686
▁connect	-7687
▁contain	-7688
▁crowded	-7689
▁defects	-7690
▁dictate	-7691
▁draught	-7692
▁fervent	-7693
▁filling	-7694
▁foresaw	-7695
▁guineas	-7696
▁honesty	-7697
▁horrors	-7698
▁humbled	-7699
▁journal	-7700
▁missing	-7701
▁planned	-7702
▁poultry	-7703
▁shelter	-7704
▁stretch	-7705
▁suffice	-7706
▁tenants	-7707
▁tremble	-7708
▁winding	-7709
Something	-7710
certainly	-7711
▁Spithead	-7712
▁Whenever	-7713
▁alternat	-7714
▁ascended	-7715
▁asserted	-7716
▁attitude	-7717
▁behaving	-7718
▁changing	-7719
▁checking	-7720
▁creating	-7721
▁defiance	-7722
▁departed	-7723
▁despised	-7724
▁disguise	-7725
▁disorder	-7726
▁diverted	-7727
▁drawings	-7728
▁educated	-7729
▁environs	-7730
▁exposing	-7731
▁feverish	-7732
▁impudent	-7733
▁investig	-7734
▁magnific	-7735
▁mourning	-7736
▁overcame	-7737
▁polished	-7738
▁practise	-7739
▁presents	-7740
▁prettily	-7741
▁rehearse	-7742
▁replying	-7743
▁retained	-7744
▁rewarded	-7745
▁scolding	-7746
▁sensibly	-7747
▁sisterly	-7748
▁strawber	-7749
▁thanking	-7750
▁underval	-7751
▁vivacity	-7752
racechurch	-7753
▁Jenkinson	-7754
▁afflicted	-7755
▁affluence	-7756
▁arranging	-7757
▁attaching	-7758
▁ceaseless	-7759
▁comparing	-7760
▁considers	-7761
▁courteous	-7762
▁detection	-7763
▁discredit	-7764
▁discussed	-7765
▁disparity	-7766
▁effusions	-7767
▁faultless	-7768
▁feelingly	-7769
▁formality	-7770
▁gentility	-7771
▁household	-7772
▁including	-7773
▁inconceiv	-7774
▁injurious	-7775
▁insolence	-7776
▁irritated	-7777
▁lingering	-7778
▁officious	-7779
▁patroness	-7780
▁rapturous	-7781
▁requested	-7782
▁resentful	-7783
▁sparkling	-7784
▁struggled	-7785
▁supplying	-7786
▁varieties	-7787
▁vestibule	-7788
▁allowances	-7789
▁artificial	-7790
▁beforehand	-7791
▁benevolent	-7792
▁brightened	-7793
▁charmingly	-7794
▁discerning	-7795
▁dissimilar	-7796
▁distinctly	-7797
▁enthusiasm	-7798
▁expediency	-7799
▁incredible	-7800
▁personally	-7801
▁preferring	-7802
▁prejudiced	-7803
▁privileged	-7804
▁prodigious	-7805
▁reproaches	-7806
▁sacrificed	-7807
▁scandalous	-7808
▁spectacles	-7809
▁unreserved	-7810
▁Shakespeare	-7811
▁accommodate	-7812
▁affectation	-7813
▁comparative	-7814
▁contrivance	-7815
▁disgraceful	-7816
▁disregarded	-7817
▁handwriting	-7818
▁humiliation	-7819
▁impressions	-7820
▁infatuation	-7821
▁instruction	-7822
▁mantelpiece	-7823
▁playfulness	-7824
▁proceedings	-7825
▁shrubberies	-7826
▁accompanying	-7827
▁anticipation	-7828
▁consultation	-7829
▁dispositions	-7830
▁hesitatingly	-7831
▁representing	-7832
▁condescension	-7833
▁indispensable	-7834
▁objectionable	-7835
▁particularity	-7836
▁inconveniences	-7837
AM	-7838
Al	-7839
Ed	-7840
Ha	-7841
MY	-7842
fl	-7843
Bec	-7844
INE	-7845
May	-7846
avo	-7847
bin	-7848
bod	-7849
ded	-7850
don	-7851
dox	-7852
edy	-7853
hec	-7854
ium	-7855
lif	-7856
nes	-7857
oke	-7858
spe	-7859
▁Ay	-7860
▁CA	-7861
▁Cl	-7862
▁Es	-7863
▁Go	-7864
▁Or	-7865
▁bi	-7866
▁cr	-7867
▁va	-7868
....	-7869
acle	-7870
anes	-7871
arah	-7872
aval	-7873
eady	-7874
even	-7875
five	-7876
geon	-7877
ians	-7878
itia	-7879
ivoc	-7880
llig	-7881
lves	-7882
mbre	-7883
mons	-7884
must	-7885
pman	-7886
rill	-7887
serv	-7888
supp	-7889
ugal	-7890
▁Abs	-7891
▁Sey	-7892
▁Sum	-7893
▁ast	-7894
▁aye	-7895
▁bod	-7896
▁cot	-7897
▁dru	-7898
▁ecl	-7899
▁fag	-7900
▁jun	-7901
▁lic	-7902
▁lit	-7903
▁rud	-7904
▁sag	-7905
▁slo	-7906
▁sne	-7907
▁tit	-7908
Could	-7909
Frank	-7910
Those	-7911
cibly	-7912
ckles	-7913
could	-7914
eping	-7915
gency	-7916
grown	-7917
ipped	-7918
isons	-7919
izing	-7920
lings	-7921
linqu	-7922
ocate	-7923
othec	-7924
pport	-7925
quate	-7926
quiet	-7927
shine	-7928
ships	-7929
uated	-7930
velop	-7931
▁Alas	-7932
▁Bond	-7933
▁Each	-7934
▁Give	-7935
▁Lane	-7936
▁Marl	-7937
▁Room	-7938
▁Take	-7939
▁acts	-7940
▁army	-7941
▁bias	-7942
▁coat	-7943
▁cott	-7944
▁deed	-7945
▁dial	-7946
▁fame	-7947
▁fish	-7948
▁gaze	-7949
▁gips	-7950
▁goss	-7951
▁grey	-7952
▁guid	-7953
▁hack	-7954
▁leve	-7955
▁main	-7956
▁merr	-7957
▁nons	-7958
▁pave	-7959
▁push	-7960
▁ramp	-7961
▁rese	-7962
▁shan	-7963
▁soup	-7964
▁star	-7965
▁tear	-7966
▁tour	-7967
▁unde	-7968
aconia	-7969
ainter	-7970
arries	-7971
atives	-7972
father	-7973
garden	-7974
ignant	-7975
looked	-7976
mbrell	-7977
office	-7978
pected	-7979
pelled	-7980
staple	-7981
tofore	-7982
uously	-7983
utable	-7984
▁Edgar	-7985
▁North	-7986
▁Robin	-7987
▁Sarah	-7988
▁Short	-7989
▁abuse	-7990
▁admin	-7991
▁aimed	-7992
▁amply	-7993
▁apple	-7994
▁baked	-7995
▁bosom	-7996
▁brisk	-7997
▁cloak	-7998
▁cough	-7999
▁crime	-8000
▁dimin	-8001
▁droll	-8002
▁empty	-8003
▁endan	-8004
▁enemy	-8005
▁final	-8006
▁gaily	-8007
▁gouty	-8008
▁hears	-8009
▁inexc	-8010
▁intol	-8011
▁invar	-8012
▁leads	-8013
▁linen	-8014
▁lobby	-8015
▁lying	-8016
▁naval	-8017
▁preci	-8018
▁price	-8019
▁privy	-8020
▁prize	-8021
▁roses	-8022
▁rouse	-8023
▁route	-8024
▁shift	-8025
▁shops	-8026
▁slave	-8027
▁steep	-8028
▁stoop	-8029
▁tooth	-8030
▁unavo	-8031
▁unper	-8032
Because	-8033
Charles	-8034
athered	-8035
aughter	-8036
chamber	-8037
ensical	-8038
hibited	-8039
iveness	-8040
liament	-8041
parties	-8042
quality	-8043
thought	-8044
viation	-8045
▁Allens	-8046
▁Castle	-8047
▁Maddox	-8048
▁Ravens	-8049
▁Selina	-8050
▁Should	-8051
▁affirm	-8052
▁aggrav	-8053
▁ardent	-8054
▁astray	-8055
▁avowed	-8056
▁barbar	-8057
▁chuses	-8058
▁comedy	-8059
▁disgra	-8060
▁earned	-8061
▁entail	-8062
▁faster	-8063
▁faulty	-8064
▁forego	-8065
▁gloves	-8066
▁graces	-8067
▁impose	-8068
▁indisc	-8069
▁infirm	-8070
▁keenly	-8071
▁musing	-8072
▁mutton	-8073
▁nation	-8074
▁nicely	-8075
▁noises	-8076
▁obeyed	-8077
▁partly	-8078
▁pencil	-8079
▁physic	-8080
▁placid	-8081
▁preach	-8082
▁pushed	-8083
▁refres	-8084
▁repaid	-8085
▁repuls	-8086
▁robbed	-8087
▁rubber	-8088
▁rumour	-8089
▁screen	-8090
▁sprang	-8091
▁stands	-8092
▁stared	-8093
▁stated	-8094
▁system	-8095
▁thence	-8096
▁tricks	-8097
▁undist	-8098
▁uninte	-8099
▁weaken	-8100
▁wilful	-8101
ceptible	-8102
kerchief	-8103
othecary	-8104
question	-8105
▁Because	-8106
▁Believe	-8107
▁Happily	-8108
▁Laconia	-8109
▁Seymour	-8110
▁Summers	-8111
▁asunder	-8112
▁chanced	-8113
▁chusing	-8114
▁courted	-8115
▁coxcomb	-8116
▁curtsey	-8117
▁dismiss	-8118
▁forebod	-8119
▁fullest	-8120
▁grossly	-8121
▁indelic	-8122
▁infancy	-8123
▁inspire	-8124
▁longest	-8125
▁madness	-8126
▁pattern	-8127
▁pausing	-8128
▁privacy	-8129
▁quicker	-8130
▁recital	-8131
▁relinqu	-8132
▁sailors	-8133
▁sermons	-8134
▁spoiled	-8135
▁stables	-8136
▁terrors	-8137
▁umbrell	-8138
▁uncivil	-8139
▁ushered	-8140
▁wearing	-8141
ibilities	-8142
qualified	-8143
▁Kingston	-8144
▁Monkford	-8145
▁advances	-8146
▁advocate	-8147
▁although	-8148
▁appeased	-8149
▁appetite	-8150
▁articles	-8151
▁assented	-8152
▁blunders	-8153
▁conjugal	-8154
▁countera	-8155
▁crossing	-8156
▁demanded	-8157
▁distract	-8158
▁enforced	-8159
▁escaping	-8160
▁excluded	-8161
▁forcibly	-8162
▁forwards	-8163
▁frighten	-8164
▁gaieties	-8165
▁guidance	-8166
▁incommod	-8167
▁innocent	-8168
▁maintain	-8169
▁mornings	-8170
▁observer	-8171
▁outlived	-8172
▁planning	-8173
▁promoted	-8174
▁quarters	-8175
▁ramparts	-8176
▁resident	-8177
▁secretly	-8178
▁shameful	-8179
▁shooting	-8180
▁sickness	-8181
▁spirited	-8182
▁striving	-8183
▁sunshine	-8184
▁tenderly	-8185
▁treacher	-8186
▁unsteady	-8187
▁untoward	-8188
▁withheld	-8189
▁youthful	-8190
▁Ravenshaw	-8191
▁Yorkshire	-8192
▁admirable	-8193
▁animating	-8194
▁approving	-8195
▁atonement	-8196
▁attendant	-8197
▁attracted	-8198
▁calculate	-8199
▁commonest	-8200
▁complying	-8201
▁conceived	-8202
▁divisions	-8203
▁execution	-8204
▁exhausted	-8205
▁forbidden	-8206
▁frankness	-8207
▁freshness	-8208
▁indignant	-8209
▁insupport	-8210
▁lessening	-8211
▁meditated	-8212
▁merriment	-8213
▁obtaining	-8214
▁offensive	-8215
▁operation	-8216
▁persevere	-8217
▁pheasants	-8218
▁providing	-8219
▁purchased	-8220
▁remainder	-8221
▁requisite	-8222
▁seclusion	-8223
▁shoulders	-8224
▁smallness	-8225
▁solicited	-8226
▁spreading	-8227
▁superinte	-8228
▁swallowed	-8229
▁testimony	-8230
▁unceasing	-8231
▁venturing	-8232
▁vexatious	-8233
▁wholesome	-8234
▁Longstaple	-8235
▁Smallridge	-8236
▁accustomed	-8237
▁affability	-8238
▁announcing	-8239
▁apothecary	-8240
▁completion	-8241
▁desponding	-8242
▁dispatched	-8243
▁distresses	-8244
▁explaining	-8245
▁faithfully	-8246
▁fastidious	-8247
▁favourably	-8248
▁graciously	-8249
▁heretofore	-8250
▁honourably	-8251
▁improperly	-8252
▁invariable	-8253
▁loveliness	-8254
▁meditating	-8255
▁motionless	-8256
▁originated	-8257
▁perception	-8258
▁preferment	-8259
▁prepossess	-8260
▁pretending	-8261
▁protesting	-8262
▁punctually	-8263
▁reproached	-8264
▁resistance	-8265
▁respectful	-8266
▁sacrifices	-8267
▁succession	-8268
▁suggesting	-8269
▁supplanted	-8270
▁suppressed	-8271
▁travellers	-8272
▁unintellig	-8273
▁unquestion	-8274
▁witnessing	-8275
▁Marlborough	-8276
▁alternative	-8277
▁apprehended	-8278
▁captivating	-8279
▁ceremonious	-8280
▁commonplace	-8281
▁composition	-8282
▁contentment	-8283
▁discomposed	-8284
▁discovering	-8285
▁gentlewoman	-8286
▁inattentive	-8287
▁indubitable	-8288
▁inhabitants	-8289
▁magnificent	-8290
▁maintaining	-8291
▁maintenance	-8292
▁perfections	-8293
▁perpetually	-8294
▁practicable	-8295
▁resolutions	-8296
▁suggestions	-8297
▁confidential	-8298
▁friendliness	-8299
▁handkerchief	-8300
▁housekeeping	-8301
▁instructions	-8302
▁insufferable	-8303
▁intermission	-8304
▁lamentations	-8305
▁remembrances	-8306
▁agreeableness	-8307
▁communicating	-8308
▁communicative	-8309
▁conversations	-8310
▁disappointing	-8311
▁inconceivable	-8312
▁inconsistency	-8313
▁justification	-8314
▁inconsiderable	-8315
0,	-8316
;'	-8317
Am	-8318
IS	-8319
Ne	-8320
Or	-8321
ev	-8322
uv	-8323
yr	-8324
All	-8325
Hum	-8326
III	-8327
Yet	-8328
ait	-8329
asc	-8330
ask	-8331
awn	-8332
ecd	-8333
ese	-8334
gge	-8335
gue	-8336
ike	-8337
isc	-8338
may	-8339
nay	-8340
nel	-8341
ped	-8342
poc	-8343
rog	-8344
rum	-8345
rus	-8346
ucy	-8347
zes	-8348
▁Im	-8349
▁Ma	-8350
▁Ow	-8351
.--'	-8352
Four	-8353
Mari	-8354
Mill	-8355
Much	-8356
agon	-8357
agra	-8358
augh	-8359
dear	-8360
isse	-8361
llen	-8362
mble	-8363
oeuv	-8364
ooke	-8365
ored	-8366
pter	-8367
pton	-8368
quar	-8369
rong	-8370
were	-8371
▁Cow	-8372
▁Esq	-8373
▁Gil	-8374
▁Ham	-8375
▁Hod	-8376
▁Imp	-8377
▁Mat	-8378
▁Mid	-8379
▁Put	-8380
▁Say	-8381
▁Ser	-8382
▁Too	-8383
▁Tow	-8384
▁aim	-8385
▁ank	-8386
▁asp	-8387
▁cun	-8388
▁ded	-8389
▁fav	-8390
▁lap	-8391
▁mir	-8392
▁net	-8393
▁nob	-8394
▁sin	-8395
▁squ	-8396
▁tap	-8397
▁tum	-8398
▁tyr	-8399
▁win	-8400
arers	-8401
ashes	-8402
enger	-8403
erred	-8404
glass	-8405
guish	-8406
icted	-8407
ifice	-8408
ilton	-8409
mbers	-8410
otted	-8411
poses	-8412
raged	-8413
rinci	-8414
since	-8415
urned	-8416
vable	-8417
▁Both	-8418
▁Cond	-8419
▁Farm	-8420
▁Five	-8421
▁Gray	-8422
▁High	-8423
▁Jack	-8424
▁Luck	-8425
▁Soph	-8426
▁Supp	-8427
▁ages	-8428
▁bank	-8429
▁boat	-8430
▁bury	-8431
▁cler	-8432
▁coll	-8433
▁cult	-8434
▁deaf	-8435
▁dili	-8436
▁doct	-8437
▁dogs	-8438
▁doom	-8439
▁echo	-8440
▁exem	-8441
▁fili	-8442
▁flir	-8443
▁glor	-8444
▁heed	-8445
▁hosp	-8446
▁jest	-8447
▁lift	-8448
▁moon	-8449
▁mult	-8450
▁noon	-8451
▁patr	-8452
▁sand	-8453
▁stub	-8454
▁tast	-8455
▁trim	-8456
▁ugly	-8457
▁unhe	-8458
▁vary	-8459
▁wont	-8460
▁yard	-8461
Depend	-8462
Elinor	-8463
adable	-8464
agraph	-8465
antity	-8466
atisfa	-8467
bridge	-8468
ceived	-8469
cribed	-8470
fering	-8471
illery	-8472
irited	-8473
itious	-8474
kingly	-8475
landau	-8476
mances	-8477
owager	-8478
quette	-8479
renity	-8480
tering	-8481
ternal	-8482
uities	-8483
▁Allow	-8484
▁Among	-8485
▁Court	-8486
▁Lakes	-8487
▁Lower	-8488
▁Madam	-8489
▁Nancy	-8490
▁Rooke	-8491
▁accur	-8492
▁achie	-8493
▁alien	-8494
▁anecd	-8495
▁bears	-8496
▁blank	-8497
▁brown	-8498
▁china	-8499
▁coinc	-8500
▁conqu	-8501
▁corps	-8502
▁crown	-8503
▁drank	-8504
▁duped	-8505
▁endur	-8506
▁felic	-8507
▁finer	-8508
▁harsh	-8509
▁hypoc	-8510
▁image	-8511
▁inciv	-8512
▁jokes	-8513
▁keeps	-8514
▁landl	-8515
▁maids	-8516
▁manus	-8517
▁negli	-8518
▁outst	-8519
▁penit	-8520
▁pitch	-8521
▁posts	-8522
▁print	-8523
▁prose	-8524
▁puppy	-8525
▁purse	-8526
▁reads	-8527
▁remed	-8528
▁rivet	-8529
▁sakes	-8530
▁saucy	-8531
▁spont	-8532
▁tende	-8533
▁unass	-8534
▁unequ	-8535
▁unnot	-8536
However	-8537
THERINE	-8538
adation	-8539
cellent	-8540
fashion	-8541
forward	-8542
ictions	-8543
ivering	-8544
lighted	-8545
neither	-8546
servant	-8547
▁Bragge	-8548
▁Cowper	-8549
▁Hodges	-8550
▁People	-8551
▁airing	-8552
▁altern	-8553
▁animal	-8554
▁archly	-8555
▁boiled	-8556
▁branch	-8557
▁critic	-8558
▁demure	-8559
▁derive	-8560
▁doings	-8561
▁doubly	-8562
▁ensued	-8563
▁extend	-8564
▁finger	-8565
▁gossip	-8566
▁growth	-8567
▁hinted	-8568
▁joyous	-8569
▁lesser	-8570
▁louder	-8571
▁miscon	-8572
▁naming	-8573
▁native	-8574
▁poured	-8575
▁prison	-8576
▁purity	-8577
▁rested	-8578
▁restri	-8579
▁revive	-8580
▁ribbon	-8581
▁riches	-8582
▁scrape	-8583
▁simply	-8584
▁soften	-8585
▁sweets	-8586
▁timber	-8587
▁topics	-8588
▁toward	-8589
▁traged	-8590
▁transa	-8591
▁unatte	-8592
▁vouchs	-8593
▁waiter	-8594
▁wander	-8595
▁wasted	-8596
▁wisdom	-8597
▁yearly	-8598
▁yellow	-8599
Marianne	-8600
aneously	-8601
reproach	-8602
speaking	-8603
▁Chapman	-8604
▁Conduit	-8605
▁Gilbert	-8606
▁Jackson	-8607
▁Towards	-8608
▁admires	-8609
▁agonies	-8610
▁anguish	-8611
▁appreci	-8612
▁belongs	-8613
▁carpent	-8614
▁ceasing	-8615
▁charged	-8616
▁charmed	-8617
▁comprom	-8618
▁concili	-8619
▁conform	-8620
▁contend	-8621
▁cruelly	-8622
▁cunning	-8623
▁dashing	-8624
▁decease	-8625
▁deepest	-8626
▁denying	-8627
▁descend	-8628
▁deserts	-8629
▁despond	-8630
▁develop	-8631
▁dispute	-8632
▁dresses	-8633
▁enquire	-8634
▁exagger	-8635
▁failing	-8636
▁fellows	-8637
▁fishing	-8638
▁healthy	-8639
▁hunters	-8640
▁lessons	-8641
▁lighted	-8642
▁manoeuv	-8643
▁matches	-8644
▁mothers	-8645
▁nursing	-8646
▁oppress	-8647
▁parcels	-8648
▁phaeton	-8649
▁pleases	-8650
▁prayers	-8651
▁purport	-8652
▁quality	-8653
▁rapture	-8654
▁replies	-8655
▁repress	-8656
▁retract	-8657
▁romance	-8658
▁rousing	-8659
▁slipped	-8660
▁species	-8661
▁strikes	-8662
▁surgeon	-8663
▁tedious	-8664
▁torture	-8665
▁uniting	-8666
▁urgency	-8667
▁zealous	-8668
fashioned	-8669
▁Anderson	-8670
▁Robinson	-8671
▁Scarcely	-8672
▁Williams	-8673
▁assuming	-8674
▁attacked	-8675
▁audience	-8676
▁blooming	-8677
▁choosing	-8678
▁coolness	-8679
▁courtesy	-8680
▁deciding	-8681
▁dejected	-8682
▁delights	-8683
▁destined	-8684
▁devotion	-8685
▁dialogue	-8686
▁dispense	-8687
▁dreading	-8688
▁eloquent	-8689
▁enclosed	-8690
▁entailed	-8691
▁everyday	-8692
▁everyone	-8693
▁fetching	-8694
▁guessing	-8695
▁hazarded	-8696
▁imparted	-8697
▁inferred	-8698
▁messages	-8699
▁objected	-8700
▁pavement	-8701
▁perverse	-8702
▁politics	-8703
▁portrait	-8704
▁preacher	-8705
▁premises	-8706
▁quantity	-8707
▁raillery	-8708
▁reasoned	-8709
▁rejoined	-8710
▁renewing	-8711
▁resented	-8712
▁revealed	-8713
▁sagacity	-8714
▁screened	-8715
▁serenity	-8716
▁singular	-8717
▁solemnly	-8718
▁strictly	-8719
▁stubborn	-8720
▁studying	-8721
▁teaching	-8722
▁timidity	-8723
▁unanswer	-8724
▁unfairly	-8725
▁unlooked	-8726
▁vicinity	-8727
appearance	-8728
especially	-8729
ndoubtedly	-8730
▁CATHERINE	-8731
▁acquitted	-8732
▁affecting	-8733
▁affronted	-8734
▁apologise	-8735
▁associate	-8736
▁bestowing	-8737
▁breathing	-8738
▁buildings	-8739
▁canvassed	-8740
▁cherished	-8741
▁conscient	-8742
▁deception	-8743
▁degrading	-8744
▁depending	-8745
▁dispersed	-8746
▁elevation	-8747
▁exceeding	-8748
▁excursion	-8749
▁extremity	-8750
▁foresight	-8751
▁greatcoat	-8752
▁hysterics	-8753
▁imagining	-8754
▁impressed	-8755
▁impudence	-8756
▁inexpress	-8757
▁informing	-8758
▁involving	-8759
▁irritable	-8760
▁marriages	-8761
▁messenger	-8762
▁observant	-8763
▁occurring	-8764
▁paragraph	-8765
▁patronage	-8766
▁persisted	-8767
▁pointedly	-8768
▁portraits	-8769
▁practised	-8770
▁preaching	-8771
▁properest	-8772
▁proposing	-8773
▁regarding	-8774
▁relenting	-8775
▁reluctant	-8776
▁repressed	-8777
▁repulsive	-8778
▁retreated	-8779
▁seemingly	-8780
▁shillings	-8781
▁splendour	-8782
▁statement	-8783
▁stationed	-8784
▁strictest	-8785
▁temporary	-8786
▁unnoticed	-8787
▁vulgarity	-8788
▁weariness	-8789
▁worthless	-8790
established	-8791
▁Knightleys	-8792
▁abominably	-8793
▁affectedly	-8794
▁agitations	-8795
▁charitable	-8796
▁compatible	-8797
▁confirming	-8798
▁consulting	-8799
▁contribute	-8800
▁dimensions	-8801
▁disapprove	-8802
▁disconcert	-8803
▁exhibition	-8804
▁grievances	-8805
▁hereabouts	-8806
▁hospitable	-8807
▁housemaids	-8808
▁incivility	-8809
▁indecision	-8810
▁individual	-8811
▁injunction	-8812
▁inspection	-8813
▁manuscript	-8814
▁meditation	-8815
▁negligence	-8816
▁occurrence	-8817
▁persisting	-8818
▁philosophy	-8819
▁privations	-8820
▁proclaimed	-8821
▁productive	-8822
▁professing	-8823
▁prohibited	-8824
▁proprietor	-8825
▁quarrelled	-8826
▁refinement	-8827
▁reflecting	-8828
▁reputation	-8829
▁requesting	-8830
▁respective	-8831
▁satisfying	-8832
▁similarity	-8833
▁strikingly	-8834
▁struggling	-8835
▁surprising	-8836
▁unsuitable	-8837
▁wretchedly	-8838
▁Dorsetshire	-8839
▁Gracechurch	-8840
▁aggravation	-8841
▁apologising	-8842
▁contributed	-8843
▁degradation	-8844
▁destination	-8845
▁determining	-8846
▁disappeared	-8847
▁disturbance	-8848
▁effectually	-8849
▁generations	-8850
▁inexcusable	-8851
▁involuntary	-8852
▁nonsensical	-8853
▁persevering	-8854
▁plantations	-8855
▁possessions	-8856
▁serviceable	-8857
▁undertaking	-8858
▁vindication	-8859
▁associations	-8860
▁carelessness	-8861
▁complimented	-8862
▁contemptible	-8863
▁contributing	-8864
▁deficiencies	-8865
▁deliberately	-8866
▁deliberation	-8867
▁discontented	-8868
▁graciousness	-8869
▁imaginations	-8870
▁incompatible	-8871
▁performances	-8872
▁pleasantness	-8873
▁strawberries	-8874
▁successively	-8875
▁supplication	-8876
▁disadvantages	-8877
▁insignificant	-8878
▁instantaneous	-8879
▁instinctively	-8880
▁involuntarily	-8881
▁unjustifiable	-8882
▁insignificance	-8883
▁unintelligible	-8884
▁unquestionably	-8885
▁misapprehension	-8886
▁thoughtlessness	-8887
.;	-8888
IA	-8889
Re	-8890
Sh	-8891
Un	-8892
bu	-8893
cl	-8894
sy	-8895
--,	-8896
Hen	-8897
abs	-8898
aus	-8899
bet	-8900
cot	-8901
des	-8902
ean	-8903
eer	-8904
elf	-8905
fic	-8906
fty	-8907
gam	-8908
lls	-8909
nut	-8910
ogy	-8911
see	-8912
sho	-8913
sum	-8914
tis	-8915
udd	-8916
uly	-8917
uni	-8918
vin	-8919
vis	-8920
vol	-8921
▁17	-8922
▁18	-8923
▁Ot	-8924
▁Sw	-8925
▁Te	-8926
▁nu	-8927
Does	-8928
Eliz	-8929
John	-8930
Just	-8931
More	-8932
None	-8933
Some	-8934
Take	-8935
ague	-8936
down	-8937
ells	-8938
etty	-8939
felt	-8940
gain	-8941
heum	-8942
ials	-8943
iber	-8944
icip	-8945
iser	-8946
ival	-8947
lett	-8948
ogra	-8949
olar	-8950
otes	-8951
owal	-8952
phab	-8953
phic	-8954
rews	-8955
rite	-8956
▁Asp	-8957
▁Bad	-8958
▁Cas	-8959
▁Che	-8960
▁Daw	-8961
▁Ell	-8962
▁Man	-8963
▁Pri	-8964
▁Tau	-8965
▁ant	-8966
▁bal	-8967
▁fac	-8968
▁fee	-8969
▁hom	-8970
▁irk	-8971
▁job	-8972
▁pos	-8973
▁tie	-8974
▁woe	-8975
After	-8976
Bless	-8977
Henry	-8978
Three	-8979
Which	-8980
Would	-8981
adays	-8982
aling	-8983
aries	-8984
aware	-8985
ciful	-8986
cried	-8987
dding	-8988
enary	-8989
ensed	-8990
escri	-8991
eterm	-8992
ettic	-8993
forty	-8994
green	-8995
hable	-8996
happy	-8997
hasis	-8998
imney	-8999
ipage	-9000
istic	-9001
lands	-9002
maker	-9003
mploy	-9004
orney	-9005
orter	-9006
otege	-9007
ouces	-9008
plain	-9009
pture	-9010
rings	-9011
uable	-9012
ulate	-9013
ulity	-9014
usage	-9015
ustri	-9016
▁July	-9017
▁Just	-9018
▁Know	-9019
▁Papa	-9020
▁Part	-9021
▁Sney	-9022
▁Thus	-9023
▁acut	-9024
▁anew	-9025
▁arts	-9026
▁boot	-9027
▁bows	-9028
▁brow	-9029
▁cake	-9030
▁club	-9031
▁conn	-9032
▁cree	-9033
▁duly	-9034
▁dust	-9035
▁east	-9036
▁enli	-9037
▁fasc	-9038
▁fick	-9039
▁flat	-9040
▁fuss	-9041
▁immo	-9042
▁inch	-9043
▁inim	-9044
▁leaf	-9045
▁litt	-9046
▁male	-9047
▁ming	-9048
▁mini	-9049
▁oath	-9050
▁obvi	-9051
▁palp	-9052
▁pill	-9053
▁pomp	-9054
▁pour	-9055
▁rare	-9056
▁resp	-9057
▁riot	-9058
▁sadd	-9059
▁sank	-9060
▁saun	-9061
▁scar	-9062
▁shot	-9063
▁stif	-9064
▁stip	-9065
▁tres	-9066
▁tumb	-9067
▁unbe	-9068
▁unfe	-9069
▁unob	-9070
▁unso	-9071
▁vehe	-9072
▁wink	-9073
▁yawn	-9074
Excuse	-9075
antial	-9076
arched	-9077
change	-9078
gammon	-9079
iberal	-9080
loying	-9081
manage	-9082
minine	-9083
orting	-9084
rather	-9085
rences	-9086
rupted	-9087
soever	-9088
spread	-9089
strong	-9090
summer	-9091
tables	-9092
thirty	-9093
uction	-9094
uniary	-9095
vation	-9096
versed	-9097
▁First	-9098
▁Jones	-9099
▁Leave	-9100
▁Sophy	-9101
▁Think	-9102
▁Twice	-9103
▁abate	-9104
▁arrog	-9105
▁attic	-9106
▁awoke	-9107
▁basin	-9108
▁block	-9109
▁blunt	-9110
▁coars	-9111
▁cured	-9112
▁downs	-9113
▁eclat	-9114
▁enhan	-9115
▁enorm	-9116
▁faded	-9117
▁fewer	-9118
▁gowns	-9119
▁groom	-9120
▁grows	-9121
▁haunt	-9122
▁imply	-9123
▁issue	-9124
▁knees	-9125
▁lanes	-9126
▁level	-9127
▁lofty	-9128
▁manly	-9129
▁medic	-9130
▁memor	-9131
▁notes	-9132
▁outwe	-9133
▁plate	-9134
▁plaus	-9135
▁pulse	-9136
▁queen	-9137
▁queer	-9138
▁rated	-9139
▁relig	-9140
▁rheum	-9141
▁scorn	-9142
▁sends	-9143
▁shore	-9144
▁spoil	-9145
▁spots	-9146
▁stays	-9147
▁suits	-9148
▁swept	-9149
▁timid	-9150
▁toile	-9151
▁unche	-9152
▁vault	-9153
▁volum	-9154
▁worry	-9155
Exactly	-9156
athetic	-9157
iciency	-9158
repared	-9159
rescent	-9160
robably	-9161
▁During	-9162
▁Either	-9163
▁Except	-9164
▁Friend	-9165
▁Sophia	-9166
▁abused	-9167
▁alphab	-9168
▁avowal	-9169
▁blamed	-9170
▁boldly	-9171
▁bottle	-9172
▁breast	-9173
▁buried	-9174
▁busily	-9175
▁butter	-9176
▁chairs	-9177
▁chaper	-9178
▁cheese	-9179
▁closet	-9180
▁contro	-9181
▁dishon	-9182
▁dissol	-9183
▁embell	-9184
▁envied	-9185
▁equals	-9186
▁fagged	-9187
▁fasten	-9188
▁folded	-9189
▁hasten	-9190
▁indist	-9191
▁infamy	-9192
▁infant	-9193
▁juster	-9194
▁landed	-9195
▁landsc	-9196
▁limits	-9197
▁livery	-9198
▁market	-9199
▁meadow	-9200
▁mostly	-9201
▁nicest	-9202
▁nicety	-9203
▁nursed	-9204
▁ostent	-9205
▁overfl	-9206
▁pacing	-9207
▁pettic	-9208
▁pieces	-9209
▁poorly	-9210
▁punish	-9211
▁ramble	-9212
▁regain	-9213
▁repair	-9214
▁repine	-9215
▁retain	-9216
▁retros	-9217
▁richer	-9218
▁stroke	-9219
▁stroll	-9220
▁tastes	-9221
▁teased	-9222
▁traced	-9223
▁trades	-9224
▁unanim	-9225
▁vigour	-9226
▁walker	-9227
▁widely	-9228
Isabella	-9229
Nonsense	-9230
Remember	-9231
oucester	-9232
possible	-9233
standing	-9234
▁Andrews	-9235
▁Elliots	-9236
▁Taunton	-9237
▁adopted	-9238
▁adorned	-9239
▁animate	-9240
▁attacks	-9241
▁audible	-9242
▁bargain	-9243
▁bathing	-9244
▁bidding	-9245
▁channel	-9246
▁chimney	-9247
▁circums	-9248
▁climate	-9249
▁clouded	-9250
▁colonel	-9251
▁confide	-9252
▁confine	-9253
▁dangers	-9254
▁descent	-9255
▁desires	-9256
▁dissent	-9257
▁easiest	-9258
▁elderly	-9259
▁enlarge	-9260
▁enlight	-9261
▁extingu	-9262
▁favours	-9263
▁fetched	-9264
▁flowers	-9265
▁footman	-9266
▁forbade	-9267
▁foreign	-9268
▁gipsies	-9269
▁gradual	-9270
▁hackney	-9271
▁helping	-9272
▁immense	-9273
▁incline	-9274
▁inexper	-9275
▁irksome	-9276
▁largest	-9277
▁lightly	-9278
▁managed	-9279
▁midship	-9280
▁militia	-9281
▁mischie	-9282
▁mortify	-9283
▁needful	-9284
▁nephews	-9285
▁netting	-9286
▁nowhere	-9287
▁omitted	-9288
▁orchard	-9289
▁pensive	-9290
▁plagued	-9291
▁plainer	-9292
▁praises	-9293
▁precaut	-9294
▁process	-9295
▁prolong	-9296
▁protege	-9297
▁quieted	-9298
▁relates	-9299
▁reports	-9300
▁rupture	-9301
▁sadness	-9302
▁scholar	-9303
▁seating	-9304
▁slumber	-9305
▁speaker	-9306
▁stoutly	-9307
▁submiss	-9308
▁substit	-9309
▁swelled	-9310
▁tending	-9311
▁tonight	-9312
▁undeser	-9313
▁viewing	-9314
▁virtues	-9315
▁wearied	-9316
Elizabeth	-9317
rincipled	-9318
supposing	-9319
▁Whitwell	-9320
▁advising	-9321
▁attorney	-9322
▁aversion	-9323
▁bordered	-9324
▁breathed	-9325
▁brighter	-9326
▁clearing	-9327
▁consoled	-9328
▁cottages	-9329
▁dawdling	-9330
▁deferred	-9331
▁descript	-9332
▁desiring	-9333
▁dictated	-9334
▁diffused	-9335
▁duration	-9336
▁emphasis	-9337
▁enduring	-9338
▁enquired	-9339
▁equality	-9340
▁equalled	-9341
▁equipage	-9342
▁evidence	-9343
▁explicit	-9344
▁fanciful	-9345
▁feminine	-9346
▁gardener	-9347
▁harmless	-9348
▁infamous	-9349
▁injuries	-9350
▁insulted	-9351
▁laughter	-9352
▁literary	-9353
▁memories	-9354
▁minutely	-9355
▁mistakes	-9356
▁morality	-9357
▁narrowly	-9358
▁nowadays	-9359
▁ordained	-9360
▁parental	-9361
▁particip	-9362
▁poignant	-9363
▁position	-9364
▁preceded	-9365
▁precipit	-9366
▁prettier	-9367
▁reliance	-9368
▁repaired	-9369
▁residing	-9370
▁retrench	-9371
▁rudeness	-9372
▁sameness	-9373
▁selected	-9374
▁specimen	-9375
▁starting	-9376
▁stirring	-9377
▁supersed	-9378
▁suppress	-9379
▁swelling	-9380
▁tolerate	-9381
▁unmanage	-9382
▁wandered	-9383
▁weakened	-9384
▁wounding	-9385
importance	-9386
▁Certainly	-9387
▁Gardiners	-9388
▁Sucklings	-9389
▁accession	-9390
▁accounted	-9391
▁admirably	-9392
▁adventure	-9393
▁alertness	-9394
▁apologize	-9395
▁apprehend	-9396
▁ascending	-9397
▁authorise	-9398
▁blockhead	-9399
▁clergymen	-9400
▁commended	-9401
▁committed	-9402
▁condemned	-9403
▁conversed	-9404
▁deceitful	-9405
▁demanding	-9406
▁despaired	-9407
▁detaining	-9408
▁diffident	-9409
▁diligence	-9410
▁disgraced	-9411
▁doubtless	-9412
▁employing	-9413
▁establish	-9414
▁estimable	-9415
▁excusable	-9416
▁expressly	-9417
▁fashioned	-9418
▁fearfully	-9419
▁finishing	-9420
▁gathering	-9421
▁greatness	-9422
▁grievance	-9423
▁hallooing	-9424
▁hardships	-9425
▁hastening	-9426
▁illiberal	-9427
▁immovable	-9428
▁infection	-9429
▁ingenious	-9430
▁inhabited	-9431
▁liberally	-9432
▁liberties	-9433
▁liveliest	-9434
▁mercenary	-9435
▁miserably	-9436
▁moonlight	-9437
▁movements	-9438
▁narration	-9439
▁obstinacy	-9440
▁overtaken	-9441
▁partially	-9442
▁pecuniary	-9443
▁petticoat	-9444
▁physician	-9445
▁premature	-9446
▁privately	-9447
▁profusion	-9448
▁projected	-9449
▁reasoning	-9450
▁regulated	-9451
▁resembled	-9452
▁restoring	-9453
▁retaining	-9454
▁secondary	-9455
▁sheltered	-9456
▁shortness	-9457
▁slighting	-9458
▁steadfast	-9459
▁stockings	-9460
▁stretched	-9461
▁tenderest	-9462
▁transient	-9463
▁unhappily	-9464
▁uniformly	-9465
▁uppermost	-9466
Undoubtedly	-9467
consequence	-9468
▁Gloucester	-9469
▁Richardson	-9470
▁Rushworths	-9471
▁administer	-9472
▁answerable	-9473
▁assemblies	-9474
▁breathless	-9475
▁complained	-9476
▁condescend	-9477
▁contrasted	-9478
▁deplorable	-9479
▁detestable	-9480
▁discharged	-9481
▁disclosure	-9482
▁doubtingly	-9483
▁entreating	-9484
▁eventually	-9485
▁forwarding	-9486
▁headstrong	-9487
▁hysterical	-9488
▁imaginable	-9489
▁impediment	-9490
▁incommoded	-9491
▁indelicacy	-9492
▁inequality	-9493
▁insipidity	-9494
▁invaluable	-9495
▁laughingly	-9496
▁littleness	-9497
▁mysterious	-9498
▁needlework	-9499
▁neglecting	-9500
▁newspapers	-9501
▁observance	-9502
▁overcoming	-9503
▁overspread	-9504
▁performers	-9505
▁popularity	-9506
▁preserving	-9507
▁reappeared	-9508
▁reasonings	-9509
▁refreshing	-9510
▁regularity	-9511
▁restraints	-9512
▁salutation	-9513
▁theatrical	-9514
▁unattended	-9515
▁accustomary	-9516
▁alterations	-9517
▁calculation	-9518
▁constrained	-9519
▁development	-9520
▁eligibility	-9521
▁encumbrance	-9522
▁instinctive	-9523
▁interfering	-9524
▁intolerable	-9525
▁misfortunes	-9526
▁obligations	-9527
▁perceptible	-9528
▁philosophic	-9529
▁pleasantest	-9530
▁proposition	-9531
▁provocation	-9532
▁substantial	-9533
▁sympathetic	-9534
▁threatening	-9535
▁unavoidable	-9536
▁understands	-9537
▁unqualified	-9538
▁wonderfully	-9539
▁acquirements	-9540
▁anticipating	-9541
▁applications	-9542
▁condescended	-9543
▁contemptuous	-9544
▁expressively	-9545
▁guardianship	-9546
▁imperfection	-9547
▁intellectual	-9548
▁neighbouring	-9549
▁successfully	-9550
▁unanswerable	-9551
▁unmanageable	-9552
▁unprincipled	-9553
▁unreasonably	-9554
▁watchfulness	-9555
▁circumstanced	-9556
▁insupportable	-9557
▁prepossession	-9558
▁significantly	-9559
▁congratulation	-9560
▁acknowledgments	-9561
▁representations	-9562
',	-9563
';	-9564
HE	-9565
IR	-9566
Im	-9567
LL	-9568
Ro	-9569
co	-9570
ms	-9571
--!	-9572
CIA	-9573
Eng	-9574
Old	-9575
adc	-9576
ags	-9577
bal	-9578
bit	-9579
bow	-9580
col	-9581
fer	-9582
hoo	-9583
iae	-9584
irs	-9585
jac	-9586
lim	-9587
nod	-9588
oon	-9589
pro	-9590
ral	-9591
run	-9592
try	-9593
two	-9594
▁Je	-9595
;"--	-9596
acit	-9597
ales	-9598
alis	-9599
atig	-9600
avan	-9601
ayed	-9602
bare	-9603
beds	-9604
beha	-9605
cake	-9606
ccup	-9607
cers	-9608
cial	-9609
does	-9610
dure	-9611
east	-9612
eder	-9613
enth	-9614
fact	-9615
full	-9616
gone	-9617
inal	-9618
ixty	-9619
mate	-9620
obli	-9621
olen	-9622
omen	-9623
oolf	-9624
oung	-9625
oyed	-9626
past	-9627
pick	-9628
quor	-9629
rave	-9630
requ	-9631
rily	-9632
ssed	-9633
tell	-9634
town	-9635
uced	-9636
uing	-9637
wear	-9638
whom	-9639
▁ALI	-9640
▁Acc	-9641
▁Aye	-9642
▁Far	-9643
▁Few	-9644
▁Gib	-9645
▁HIS	-9646
▁Med	-9647
▁Men	-9648
▁Res	-9649
▁SIR	-9650
▁Sec	-9651
▁ade	-9652
▁aug	-9653
▁ble	-9654
▁bru	-9655
▁bur	-9656
▁cav	-9657
▁cri	-9658
▁dil	-9659
▁gun	-9660
▁hit	-9661
▁lid	-9662
▁mar	-9663
▁max	-9664
▁non	-9665
▁nut	-9666
▁oli	-9667
▁pul	-9668
▁scr	-9669
▁sob	-9670
▁uno	-9671
▁wal	-9672
Going	-9673
Since	-9674
allow	-9675
appro	-9676
apsed	-9677
arice	-9678
ashed	-9679
avily	-9680
berry	-9681
built	-9682
ceive	-9683
deley	-9684
enham	-9685
estry	-9686
faced	-9687
ffect	-9688
icacy	-9689
ifies	-9690
inner	-9691
izure	-9692
laugh	-9693
liffe	-9694
maids	-9695
money	-9696
osted	-9697
ourer	-9698
ricot	-9699
rille	-9700
roken	-9701
their	-9702
these	-9703
think	-9704
ument	-9705
urbed	-9706
uster	-9707
voice	-9708
▁Bell	-9709
▁Care	-9710
▁Comp	-9711
▁Dece	-9712
▁Fort	-9713
▁Lans	-9714
▁Make	-9715
▁Mill	-9716
▁Pope	-9717
▁Radc	-9718
▁Skin	-9719
▁True	-9720
▁amid	-9721
▁beds	-9722
▁borr	-9723
▁bred	-9724
▁bree	-9725
▁burn	-9726
▁camp	-9727
▁cart	-9728
▁clos	-9729
▁cows	-9730
▁cram	-9731
▁cred	-9732
▁curl	-9733
▁dies	-9734
▁dint	-9735
▁dupe	-9736
▁edge	-9737
▁eggs	-9738
▁ejac	-9739
▁fash	-9740
▁feeb	-9741
▁feed	-9742
▁grud	-9743
▁hyac	-9744
▁impr	-9745
▁kill	-9746
▁lave	-9747
▁mass	-9748
▁muff	-9749
▁nour	-9750
▁obed	-9751
▁obsc	-9752
▁owes	-9753
▁pars	-9754
▁pear	-9755
▁pink	-9756
▁quot	-9757
▁rage	-9758
▁rays	-9759
▁rect	-9760
▁runs	-9761
▁sale	-9762
▁seas	-9763
▁shed	-9764
▁sobs	-9765
▁sque	-9766
▁stim	-9767
▁tied	-9768
▁unab	-9769
▁unin	-9770
▁unlo	-9771
▁witt	-9772
Robert	-9773
ainted	-9774
alling	-9775
alousy	-9776
anners	-9777
anness	-9778
arting	-9779
boured	-9780
cently	-9781
chance	-9782
contre	-9783
ecided	-9784
ecting	-9785
ending	-9786
erland	-9787
giving	-9788
ground	-9789
headed	-9790
health	-9791
ifting	-9792
ildren	-9793
incere	-9794
inding	-9795
inence	-9796
issors	-9797
master	-9798
ointed	-9799
ouched	-9800
people	-9801
ranean	-9802
ranged	-9803
street	-9804
taking	-9805
ulated	-9806
verses	-9807
vinced	-9808
volous	-9809
wisher	-9810
▁Coxes	-9811
▁Otway	-9812
▁Owens	-9813
▁Pleas	-9814
▁Sally	-9815
▁Sneyd	-9816
▁Union	-9817
▁Which	-9818
▁acced	-9819
▁altar	-9820
▁basis	-9821
▁chick	-9822
▁colds	-9823
▁comic	-9824
▁dares	-9825
▁dated	-9826
▁dears	-9827
▁defin	-9828
▁depos	-9829
▁doctr	-9830
▁doted	-9831
▁draws	-9832
▁elbow	-9833
▁encro	-9834
▁exten	-9835
▁facts	-9836
▁fifth	-9837
▁fight	-9838
▁flour	-9839
▁goose	-9840
▁hates	-9841
▁homes	-9842
▁hotel	-9843
▁impet	-9844
▁inade	-9845
▁injud	-9846
▁irreg	-9847
▁kings	-9848
▁legal	-9849
▁limbs	-9850
▁local	-9851
▁loung	-9852
▁manor	-9853
▁misle	-9854
▁modes	-9855
▁newly	-9856
▁plead	-9857
▁precl	-9858
▁reign	-9859
▁rides	-9860
▁scant	-9861
▁scram	-9862
▁shoot	-9863
▁signs	-9864
▁sloop	-9865
▁stare	-9866
▁stiff	-9867
▁swift	-9868
▁tresp	-9869
▁unall	-9870
▁unmer	-9871
▁unsha	-9872
▁unwho	-9873
▁vigor	-9874
▁waist	-9875
▁weigh	-9876
▁woody	-9877
▁wrapt	-9878
Another	-9879
Captain	-9880
achable	-9881
ational	-9882
behaved	-9883
ccupied	-9884
denying	-9885
engaged	-9886
ensured	-9887
iculate	-9888
idation	-9889
inating	-9890
iterate	-9891
ittance	-9892
mention	-9893
mployed	-9894
nodding	-9895
ortions	-9896
ourable	-9897
riendly	-9898
smiling	-9899
usively	-9900
varying	-9901
▁ALICIA	-9902
▁Accord	-9903
▁Better	-9904
▁Blaize	-9905
▁Butler	-9906
▁Cassel	-9907
▁Common	-9908
▁Fortun	-9909
▁France	-9910
▁Repton	-9911
▁Surely	-9912
▁Vanity	-9913
▁access	-9914
▁advert	-9915
▁assume	-9916
▁backed	-9917
▁	-9918
e	-9919
t	-9920
a	-9921
o	-9922
n	-9923
i	-9924
h	-9925
s	-9926
r	-9927
d	-9928
l	-9929
u	-9930
m	-9931
c	-9932
f	-9933
w	-9934
y	-9935
g	-9936
,	-9937
p	-9938
b	-9939
v	-9940
.	-9941
k	-9942
"	-9943
I	-9944
-	-9945
;	-9946
M	-9947
T	-9948
x	-9949
'	-9950
H	-9951
S	-9952
E	-9953
W	-9954
q	-9955
C	-9956
B	-9957
A	-9958
!	-9959
j	-9960
?	-9961
L	-9962
F	-9963
Y	-9964
N	-9965
D	-9966
z	-9967
J	-9968
O	-9969
P	-9970
R	-9971
:	-9972
G	-9973
K	-9974
|	-9975
(	-9976
)	-9977
U	-9978
V	-9979
<	-9980
>	-9981
X	-9982
&	-9983
1	-9984
0	-9985
Q	-9986
2	-9987
8	-9988
7	-9989
4	-9990
Z	-9991
5	-9992
6	-9993
9	-9994
3	-9995
*	-9996
[	-9997
]	-9998
