<pad>	0
<unk>	0
<s>	0
</s>	0
en	-0
ch	-1
er	-2
▁d	-3
in	-4
ie	-5
▁s	-6
nd	-7
ein	-8
▁w	-9
ich	-10
▁u	-11
▁a	-12
▁und	-13
ei	-14
st	-15
▁S	-16
es	-17
▁die	-18
▁m	-19
▁i	-20
ge	-21
▁v	-22
an	-23
ll	-24
▁ein	-25
▁n	-26
te	-27
▁D	-28
▁b	-29
au	-30
as	-31
▁der	-32
▁h	-33
gen	-34
ten	-35
▁G	-36
▁W	-37
el	-38
ar	-39
em	-40
▁in	-41
▁wie	-42
▁H	-43
ir	-44
▁l	-45
▁au	-46
icht	-47
hr	-48
▁g	-49
▁z	-50
▁vo	-51
hn	-52
▁B	-53
▁k	-54
▁den	-55
▁A	-56
▁sch	-57
▁f	-58
ter	-59
▁M	-60
▁K	-61
▁du	-62
▁sie	-63
▁T	-64
it	-65
ach	-66
▁L	-67
▁er	-68
mm	-69
ben	-70
▁F	-71
▁das	-72
al	-73
▁zu	-74
▁E	-75
ind	-76
▁sich	-77
sch	-78
▁ge	-79
▁ver	-80
▁nicht	-81
▁U	-82
ber	-83
sen	-84
▁ich	-85
or	-86
▁St	-87
▁von	-88
▁t	-89
▁I	-90
▁Sch	-91
▁r	-92
▁sein	-93
de	-94
den	-95
▁all	-96
▁war	-97
ern	-98
▁mit	-99
▁ist	-100
▁auf	-101
ur	-102
ck	-103
and	-104
▁so	-105
▁Und	-106
▁R	-107
och	-108
▁aus	-109
▁N	-110
▁j	-111
der	-112
▁da	-113
▁un	-114
▁ihr	-115
▁an	-116
eit	-117
et	-118
▁al	-119
un	-120
▁st	-121
am	-122
ro	-123
ann	-124
und	-125
▁dein	-126
at	-127
..	-128
▁dem	-129
le	-130
rau	-131
lich	-132
nen	-133
▁mein	-134
▁im	-135
ht	-136
ig	-137
▁es	-138
▁V	-139
on	-140
se	-141
▁wir	-142
ill	-143
re	-144
enn	-145
▁Ge	-146
gt	-147
▁wei	-148
acht	-149
▁Z	-150
ft	-151
fen	-152
rei	-153
▁sind	-154
▁o	-155
▁dich	-156
hl	-157
ang	-158
▁als	-159
rü	-160
ür	-161
ehr	-162
▁bl	-163
ken	-164
be	-165
ne	-166
ag	-167
▁um	-168
ing	-169
imm	-170
▁eine	-171
ut	-172
chen	-173
▁daß	-174
▁Bl	-175
▁mir	-176
il	-177
▁P	-178
▁Ich	-179
▁hin	-180
ol	-181
anz	-182
über	-183
is	-184
ra	-185
cht	-186
▁schw	-187
än	-188
llen	-189
▁ihn	-190
▁noch	-191
ßen	-192
änd	-193
▁be	-194
▁Au	-195
um	-196
▁über	-197
iel	-198
▁Er	-199
▁dir	-200
mal	-201
▁dur	-202
▁des	-203
ot	-204
etz	-205
▁kl	-206
▁nur	-207
▁durch	-208
▁gro	-209
▁vor	-210
ste	-211
gel	-212
eben	-213
▁J	-214
lo	-215
hm	-216
▁uns	-217
▁mich	-218
mmer	-219
▁wenn	-220
end	-221
eu	-222
elt	-223
▁kein	-224
▁Du	-225
esch	-226
sam	-227
är	-228
äch	-229
▁Die	-230
▁alle	-231
▁wel	-232
ist	-233
aus	-234
la	-235
ßt	-236
lle	-237
▁sa	-238
lü	-239
,—	-240
bt	-241
eich	-242
ingen	-243
ort	-244
▁mehr	-245
▁man	-246
....	-247
ER	-248
ön	-249
▁wo	-250
eln	-251
▁je	-252
ief	-253
ung	-254
▁lei	-255
▁Sie	-256
▁ganz	-257
▁dies	-258
etzt	-259
che	-260
▁hat	-261
▁lie	-262
ehn	-263
▁bin	-264
▁Nacht	-265
ru	-266
rä	-267
▁Ein	-268
▁Kind	-269
▁groß	-270
sten	-271
▁Her	-272
▁ste	-273
▁was	-274
▁einem	-275
▁klein	-276
angen	-277
▁nach	-278
▁Händ	-279
▁weiß	-280
▁wird	-281
hen	-282
ent	-283
▁will	-284
▁bist	-285
▁alles	-286
EN	-287
wei	-288
zen	-289
schen	-290
ör	-291
inn	-292
▁O	-293
llt	-294
omm	-295
▁sp	-296
bend	-297
ster	-298
▁denn	-299
ott	-300
▁einer	-301
ahr	-302
ier	-303
aum	-304
▁bei	-305
▁Leben	-306
kel	-307
hne	-308
▁wer	-309
▁Gott	-310
▁aber	-311
▁So	-312
▁ha	-313
cken	-314
▁ihm	-315
lie	-316
alten	-317
▁le	-318
inge	-319
▁Der	-320
▁Wie	-321
▁We	-322
▁ent	-323
▁Ges	-324
leich	-325
▁_	-326
▁An	-327
assen	-328
▁wieder	-329
▁[	-330
ühl	-331
▁dun	-332
▁nie	-333
ät	-334
▁seine	-335
he	-336
rem	-337
▁komm	-338
ert	-339
▁deine	-340
▁schon	-341
▁Welt	-342
ien	-343
gend	-344
keit	-345
▁Ster	-346
pf	-347
▁geht	-348
▁meine	-349
ser	-350
ange	-351
▁dann	-352
▁immer	-353
▁jetzt	-354
uß	-355
▁–	-356
▁Wei	-357
▁her	-358
▁auch	-359
▁doch	-360
▁kann	-361
▁(	-362
▁Da	-363
▁br	-364
▁jen	-365
▁Hand	-366
▁voll	-367
▁"	-368
eil	-369
▁Sp	-370
▁ihre	-371
äu	-372
lei	-373
▁welche	-374
ges	-375
▁Abend	-376
▁still	-377
ank	-378
unde	-379
▁Ha	-380
▁Schw	-381
▁tief	-382
▁In	-383
▁dr	-384
▁ohne	-385
▁Hände	-386
▁ihren	-387
me	-388
▁Lie	-389
▁lang	-390
▁einen	-391
▁unter	-392
äd	-393
all	-394
ild	-395
▁Das	-396
▁für	-397
einen	-398
▁viel	-399
ff	-400
▁To	-401
▁he	-402
▁and	-403
▁vom	-404
na	-405
eine	-406
▁Ver	-407
men	-408
▁vie	-409
issen	-410
▁Haus	-411
bar	-412
▁am	-413
▁lau	-414
▁Augen	-415
CH	-416
ger	-417
▁na	-418
rauen	-419
▁p	-420
▁mü	-421
anken	-422
▁Wind	-423
▁leise	-424
.—	-425
...	-426
▁Es	-427
▁Se	-428
▁einmal	-429
▁schwer	-430
ckt	-431
eim	-432
▁ob	-433
▁Son	-434
▁beg	-435
▁sel	-436
▁Himm	-437
▁frem	-438
äl	-439
her	-440
rie	-441
▁Was	-442
▁Zeit	-443
IE	-444
amm	-445
gew	-446
▁ging	-447
▁schl	-448
▁verw	-449
▁nichts	-450
los	-451
old	-452
▁Al	-453
agen	-454
amen	-455
eigen	-456
unden	-457
▁gehn	-458
ast	-459
ige	-460
▁Un	-461
▁Tag	-462
▁bis	-463
▁dar	-464
▁gesch	-465
kl	-466
ald	-467
▁Gl	-468
igen	-469
▁Licht	-470
▁seinem	-471
alt	-472
▁Ar	-473
umen	-474
▁Trau	-475
▁Dinge	-476
▁zum	-477
▁Jahr	-478
▁verl	-479
▁gl	-480
tern	-481
▁Geb	-482
▁weit	-483
▁allen	-484
IN	-485
ad	-486
aß	-487
eh	-488
auen	-489
chte	-490
send	-491
allen	-492
ichte	-493
▁seiner	-494
ri	-495
arten	-496
▁Himmel	-497
▁werden	-498
▁Gesicht	-499
gst	-500
tel	-501
eiten	-502
pp	-503
itt	-504
▁Be	-505
▁ir	-506
▁ru	-507
▁zer	-508
▁Aber	-509
▁fern	-510
▁eines	-511
zu	-512
art	-513
▁Fl	-514
▁ho	-515
under	-516
▁ihnen	-517
▁manch	-518
▁großen	-519
os	-520
ick	-521
▁re	-522
rück	-523
▁Dun	-524
▁tau	-525
▁dort	-526
▁seinen	-527
kt	-528
ze	-529
bst	-530
des	-531
ele	-532
ühr	-533
▁DER	-534
▁gew	-535
innen	-536
▁verg	-537
▁allein	-538
▁Ro	-539
▁Gef	-540
▁hör	-541
▁sah	-542
▁weil	-543
▁kommt	-544
ver	-545
▁tr	-546
heit	-547
▁Ger	-548
▁kam	-549
▁rei	-550
▁Stir	-551
▁Dunkel	-552
ES	-553
br	-554
sp	-555
▁Gr	-556
▁...	-557
▁Lei	-558
▁Wir	-559
▁rau	-560
ragen	-561
▁sehn	-562
eichen	-563
▁steht	-564
aft	-565
uch	-566
▁Ru	-567
ffen	-568
▁Kön	-569
orgen	-570
stern	-571
ungen	-572
▁fühl	-573
ädchen	-574
lleicht	-575
ul	-576
▁Re	-577
immt	-578
▁Gew	-579
▁Dann	-580
▁Seele	-581
lö	-582
ße	-583
ond	-584
▁ab	-585
▁Men	-586
▁trä	-587
ängen	-588
lichen	-589
▁Stimm	-590
▁schau	-591
▁dieses	-592
eer	-593
cher	-594
hlen	-595
ille	-596
▁Auf	-597
▁Bild	-598
▁Haar	-599
▁waren	-600
▁hinter	-601
bl	-602
ren	-603
sche	-604
▁Wer	-605
▁jeder	-606
▁stehn	-607
▁deinen	-608
▁meinen	-609
▁Mädchen	-610
att	-611
hle	-612
was	-613
ucht	-614
▁Traum	-615
▁alten	-616
▁lange	-617
▁versch	-618
det	-619
▁Pf	-620
ater	-621
▁ins	-622
▁wur	-623
▁wach	-624
▁deinem	-625
▁schwar	-626
▁zurück	-627
▁manchmal	-628
ai	-629
zt	-630
fte	-631
wig	-632
▁Ta	-633
▁wä	-634
▁Fen	-635
▁Tod	-636
▁Tür	-637
▁geh	-638
▁spr	-639
▁Denn	-640
▁oder	-641
▁diese	-642
▁ihrem	-643
▁sagen	-644
▁Händen	-645
▁langsam	-646
ke	-647
we	-648
üt	-649
tem	-650
▁Kl	-651
▁Man	-652
▁hei	-653
▁Herz	-654
▁sehr	-655
▁deiner	-656
▁dunkel	-657
▁tausend	-658
aub	-659
reu	-660
▁En	-661
innt	-662
samm	-663
▁Flü	-664
achen	-665
itter	-666
▁blei	-667
▁verb	-668
▁ersch	-669
▁stand	-670
▁viele	-671
▁Einsam	-672
▁Frauen	-673
▁Kinder	-674
▁gleich	-675
▁irgend	-676
AN	-677
EI	-678
ab	-679
nde	-680
urm	-681
eigt	-682
ingt	-683
▁Kna	-684
▁Mut	-685
▁gel	-686
▁sei	-687
chten	-688
inken	-689
▁Erde	-690
▁Land	-691
▁fort	-692
▁sieh	-693
▁Sonne	-694
▁dieser	-695
▁kleine	-696
▁vielen	-697
▁kleinen	-698
▁C	-699
auf	-700
gte	-701
ieb	-702
ner	-703
sel	-704
▁we	-705
hnen	-706
ings	-707
lück	-708
ogen	-709
ängt	-710
▁Blü	-711
▁Mit	-712
immer	-713
▁Doch	-714
▁keiner	-715
ug	-716
gef	-717
ält	-718
▁Frü	-719
▁Gel	-720
▁geb	-721
▁Herr	-722
▁Mund	-723
▁Schr	-724
▁Tier	-725
ischen	-726
▁haben	-727
▁ihrer	-728
▁meinem	-729
▁vielleicht	-730
rt	-731
▁X	-732
dem	-733
tet	-734
▁Aus	-735
▁neu	-736
▁san	-737
▁wen	-738
achte	-739
iefen	-740
▁Gest	-741
▁erst	-742
▁hast	-743
▁dunkl	-744
▁Blumen	-745
▁Dingen	-746
▁hinaus	-747
▁meiner	-748
▁Menschen	-749
adt	-750
ale	-751
▁ar	-752
▁et	-753
ften	-754
ieht	-755
leid	-756
▁erw	-757
▁ger	-758
▁muß	-759
▁Blut	-760
▁Fern	-761
▁Meer	-762
▁Näch	-763
▁letz	-764
▁König	-765
▁Fenster	-766
ST	-767
erk	-768
nst	-769
ume	-770
asse	-771
geln	-772
ilber	-773
lagen	-774
▁Wald	-775
ächeln	-776
▁Gesch	-777
▁Stadt	-778
▁allem	-779
▁keine	-780
▁sieht	-781
endlich	-782
▁diesem	-783
ßte	-784
▁gi	-785
▁Kra	-786
▁Nach	-787
▁Wenn	-788
▁alte	-789
▁schm	-790
▁ster	-791
▁ward	-792
▁Stein	-793
▁Vater	-794
▁aller	-795
▁etwas	-796
▁große	-797
▁liegt	-798
▁Mutter	-799
▁halten	-800
!"	-801
AS	-802
fe	-803
tz	-804
umm	-805
▁ro	-806
inde	-807
nden	-808
oren	-809
test	-810
ällt	-811
ühle	-812
▁DIE	-813
▁Häu	-814
▁Nur	-815
▁Trä	-816
▁erf	-817
▁gut	-818
▁hät	-819
▁kön	-820
atten	-821
gesch	-822
▁Gold	-823
undert	-824
▁Anges	-825
▁ander	-826
▁Stimme	-827
▁kommen	-828
wo	-829
▁Im	-830
▁Kr	-831
▁Zu	-832
gehn	-833
kehr	-834
schl	-835
▁Bru	-836
▁lag	-837
▁Baum	-838
▁Raum	-839
▁Schl	-840
▁drau	-841
▁fast	-842
▁leer	-843
▁leis	-844
▁star	-845
▁Glück	-846
▁Jetzt	-847
▁Blüten	-848
▁Herzen	-849
▁Morgen	-850
▁Stirne	-851
▁langen	-852
▁wunder	-853
oß	-854
ts	-855
ün	-856
▁II	-857
euch	-858
▁Bet	-859
▁Rei	-860
ander	-861
auern	-862
glich	-863
▁Ewig	-864
▁Sehn	-865
▁heim	-866
▁trau	-867
▁zwei	-868
reiten	-869
weigen	-870
▁hinein	-871
▁weiter	-872
US	-873
ah	-874
ho	-875
iß	-876
▁Ä	-877
bei	-878
ust	-879
ück	-880
mals	-881
ppen	-882
ssen	-883
▁Gei	-884
▁ges	-885
ienen	-886
uchen	-887
▁Heim	-888
▁Wein	-889
▁drin	-890
▁hält	-891
reifen	-892
▁Blick	-893
▁Glanz	-894
▁wurde	-895
▁Stunde	-896
▁einsam	-897
▁weißen	-898
▁zusamm	-899
▁draußen	-900
▁Einsamkeit	-901
EL	-902
om	-903
▁Ü	-904
bel	-905
get	-906
olk	-907
orn	-908
rug	-909
uld	-910
wie	-911
▁Ka	-912
▁Wa	-913
eint	-914
gest	-915
isch	-916
lötz	-917
▁Ber	-918
▁Ged	-919
▁ber	-920
inter	-921
olden	-922
ärten	-923
▁Schm	-924
▁Sinn	-925
▁Stra	-926
▁Tage	-927
▁dunk	-928
▁jene	-929
▁vers	-930
▁Über	-931
ichter	-932
▁Engel	-933
▁Gebär	-934
▁Sturm	-935
▁besch	-936
▁darin	-937
▁denen	-938
▁jedes	-939
▁macht	-940
▁schön	-941
▁Sterne	-942
▁Wasser	-943
▁diesen	-944
lötzlich	-945
▁sterben	-946
AR	-947
öl	-948
—:	-949
▁Tr	-950
▁ja	-951
▁mö	-952
alte	-953
dern	-954
gnen	-955
iger	-956
lamm	-957
▁Hau	-958
▁Kir	-959
▁Mar	-960
▁Tro	-961
▁sol	-962
▁zur	-963
ielen	-964
inden	-965
▁Rand	-966
▁bang	-967
▁gold	-968
▁hier	-969
▁schr	-970
▁soll	-971
▁unbe	-972
▁verh	-973
▁Kraft	-974
▁Namen	-975
▁Rosen	-976
▁jedem	-977
▁reich	-978
▁schla	-979
▁Garten	-980
▁Silber	-981
▁Stille	-982
▁andern	-983
▁e	-984
aun	-985
itz	-986
len	-987
▁Ei	-988
▁kr	-989
▁kü	-990
▁zw	-991
annt	-992
euer	-993
hren	-994
ielt	-995
reis	-996
▁DAS	-997
▁erk	-998
anden	-999
auben	-1000
enden	-1001
ilder	-1002
klich	-1003
ließt	-1004
rucht	-1005
rüber	-1006
ämmer	-1007
▁Alle	-1008
▁Ding	-1009
▁euch	-1010
▁hoch	-1011
▁laut	-1012
▁Nicht	-1013
▁Sehns	-1014
▁Stern	-1015
▁beide	-1016
▁fällt	-1017
▁verst	-1018
▁Gärten	-1019
▁bleibt	-1020
▁deines	-1021
▁ersten	-1022
▁lauter	-1023
▁Lächeln	-1024
▁Sternen	-1025
▁hundert	-1026
▁welcher	-1027
▁Angesicht	-1028
▁plötzlich	-1029
OR	-1030
rö	-1031
vo	-1032
fer	-1033
nis	-1034
rün	-1035
ört	-1036
▁Ho	-1037
ennt	-1038
inne	-1039
raun	-1040
riff	-1041
ände	-1042
▁blü	-1043
▁flü	-1044
▁gef	-1045
▁oft	-1046
▁wär	-1047
geben	-1048
lecht	-1049
▁Mann	-1050
▁entf	-1051
▁stre	-1052
ichten	-1053
schaft	-1054
▁Frühl	-1055
▁Kleid	-1056
▁fremd	-1057
▁offen	-1058
leichen	-1059
▁Frucht	-1060
▁Gassen	-1061
▁fallen	-1062
▁ganzen	-1063
▁seines	-1064
▁warten	-1065
▁wollen	-1066
▁fremden	-1067
▁Ewigkeit	-1068
IT	-1069
geb	-1070
geh	-1071
gem	-1072
▁Ab	-1073
▁se	-1074
▁to	-1075
hmen	-1076
ürde	-1077
▁All	-1078
▁Sei	-1079
▁Weg	-1080
▁arm	-1081
▁gen	-1082
urcht	-1083
ätter	-1084
▁Auge	-1085
▁Heil	-1086
▁Mond	-1087
▁Städ	-1088
▁klar	-1089
▁wäre	-1090
▁Tagen	-1091
▁gehen	-1092
▁ihres	-1093
▁nimmt	-1094
▁weiße	-1095
▁anders	-1096
▁nieder	-1097
▁selbst	-1098
▁voller	-1099
▁Sehnsucht	-1100
dr	-1101
us	-1102
IED	-1103
aut	-1104
hin	-1105
hlt	-1106
mit	-1107
uft	-1108
ute	-1109
▁Am	-1110
▁Li	-1111
alen	-1112
anke	-1113
fall	-1114
ilde	-1115
orte	-1116
▁EIN	-1117
▁Ist	-1118
▁bes	-1119
▁erg	-1120
▁nah	-1121
ennen	-1122
stehn	-1123
änder	-1124
▁bald	-1125
▁grau	-1126
▁seit	-1127
▁stie	-1128
▁warm	-1129
locken	-1130
▁Regen	-1131
▁Schwe	-1132
▁bange	-1133
▁blind	-1134
▁einst	-1135
▁wenig	-1136
▁Gefühl	-1137
▁Knaben	-1138
▁Nächte	-1139
▁wissen	-1140
▁Stunden	-1141
?—	-1142
AG	-1143
II	-1144
ON	-1145
fl	-1146
pe	-1147
ere	-1148
ähr	-1149
▁Br	-1150
▁Bä	-1151
▁Fü	-1152
▁Pr	-1153
▁Sa	-1154
▁em	-1155
haft	-1156
pfen	-1157
▁Hir	-1158
▁Tor	-1159
▁Vor	-1160
▁Wol	-1161
▁fro	-1162
eiche	-1163
ängst	-1164
▁Sohn	-1165
▁Volk	-1166
▁glän	-1167
▁kaum	-1168
▁rühr	-1169
▁wand	-1170
eltsam	-1171
▁Angst	-1172
▁alter	-1173
▁jener	-1174
▁weißt	-1175
▁Flügel	-1176
▁Mantel	-1177
▁Sonnen	-1178
▁Wieder	-1179
▁Wunder	-1180
▁jungen	-1181
▁lassen	-1182
▁liegen	-1183
▁schaut	-1184
▁vollen	-1185
▁vorbei	-1186
▁wachsen	-1187
▁Schatten	-1188
▁zusammen	-1189
;—	-1190
EM	-1191
IS	-1192
nt	-1193
tl	-1194
CHT	-1195
ahl	-1196
bes	-1197
bte	-1198
geg	-1199
ies	-1200
▁Mü	-1201
▁Vö	-1202
▁Wi	-1203
▁Wo	-1204
agte	-1205
esen	-1206
gten	-1207
iehn	-1208
scht	-1209
sern	-1210
▁Brü	-1211
▁Män	-1212
▁Ste	-1213
▁alt	-1214
▁gar	-1215
▁get	-1216
▁nun	-1217
▁ruh	-1218
reise	-1219
▁Frem	-1220
▁Sein	-1221
▁Wege	-1222
▁Wort	-1223
▁brau	-1224
▁habe	-1225
▁hell	-1226
▁jung	-1227
reiben	-1228
stellt	-1229
▁Armen	-1230
▁Liebe	-1231
▁hielt	-1232
▁jenem	-1233
▁leben	-1234
▁sanft	-1235
▁Falten	-1236
▁Steine	-1237
▁schrie	-1238
▁steigt	-1239
▁zitter	-1240
▁dunklen	-1241
▁endlich	-1242
▁stillen	-1243
▁schlafen	-1244
▁geschieht	-1245
og	-1246
END	-1247
als	-1248
atz	-1249
aßt	-1250
hnt	-1251
iff	-1252
sal	-1253
▁Fa	-1254
▁Sü	-1255
▁fl	-1256
▁kn	-1257
llte	-1258
unge	-1259
uten	-1260
ächt	-1261
äter	-1262
▁DES	-1263
▁Fel	-1264
▁Für	-1265
▁Ihr	-1266
▁Tau	-1267
▁frü	-1268
▁los	-1269
▁tot	-1270
▁wuß	-1271
itzen	-1272
liche	-1273
ochen	-1274
▁Dein	-1275
▁Frau	-1276
▁Hoch	-1277
▁Lied	-1278
▁Wand	-1279
▁beim	-1280
▁heil	-1281
▁vert	-1282
eigend	-1283
äglich	-1284
▁Brust	-1285
▁Jahre	-1286
▁Meine	-1287
▁Winde	-1288
▁ernst	-1289
▁fühlt	-1290
▁ganze	-1291
▁träum	-1292
▁unser	-1293
▁verge	-1294
▁welch	-1295
▁Sommer	-1296
▁gingen	-1297
▁sieben	-1298
▁tragen	-1299
▁Gebärde	-1300
▁Schweigen	-1301
),	-1302
IG	-1303
NG	-1304
gr	-1305
aar	-1306
ant	-1307
cke	-1308
est	-1309
ußt	-1310
▁Bü	-1311
▁Gi	-1312
▁Kn	-1313
▁ei	-1314
auer	-1315
itte	-1316
üllt	-1317
▁Bro	-1318
▁Mel	-1319
▁Tal	-1320
▁fei	-1321
▁saß	-1322
▁seh	-1323
illen	-1324
stand	-1325
änden	-1326
ücken	-1327
▁Buch	-1328
▁Mein	-1329
▁müde	-1330
annten	-1331
ächter	-1332
▁Grund	-1333
▁Sinne	-1334
▁blond	-1335
▁geben	-1336
▁heben	-1337
▁Häuser	-1338
▁Schick	-1339
▁Tiefen	-1340
▁Wiesen	-1341
▁Wolken	-1342
▁fremde	-1343
▁golden	-1344
▁großes	-1345
▁kannst	-1346
▁Dichter	-1347
▁Zeichen	-1348
▁letzten	-1349
▁seltsam	-1350
▁schwarzen	-1351
ET	-1352
UR	-1353
ph	-1354
pt	-1355
äh	-1356
öt	-1357
—.	-1358
alb	-1359
ged	-1360
loß	-1361
mut	-1362
urz	-1363
wär	-1364
▁Dr	-1365
▁Pl	-1366
▁ST	-1367
▁eh	-1368
▁sü	-1369
angt	-1370
asen	-1371
eute	-1372
gang	-1373
iefe	-1374
ungs	-1375
▁Klo	-1376
▁Kro	-1377
▁Mir	-1378
▁Stu	-1379
▁Vie	-1380
▁Von	-1381
▁dür	-1382
▁erh	-1383
▁gem	-1384
▁hor	-1385
▁rot	-1386
ahren	-1387
etter	-1388
iegel	-1389
iesen	-1390
orden	-1391
reten	-1392
▁Pfer	-1393
▁Ring	-1394
▁Sieh	-1395
▁Zwei	-1396
▁flie	-1397
▁gibt	-1398
▁krei	-1399
▁trug	-1400
▁verk	-1401
achten	-1402
eister	-1403
ittern	-1404
leiten	-1405
▁Eisen	-1406
▁Tiere	-1407
▁Worte	-1408
▁andre	-1409
▁blieb	-1410
▁damit	-1411
▁hätte	-1412
▁jeden	-1413
▁licht	-1414
▁stumm	-1415
▁traur	-1416
▁unten	-1417
▁unver	-1418
▁würde	-1419
▁Heimat	-1420
▁hellen	-1421
▁leicht	-1422
▁leiser	-1423
▁letzte	-1424
▁schlie	-1425
▁siehst	-1426
▁stille	-1427
▁suchen	-1428
▁Glocken	-1429
▁Stimmen	-1430
▁beginnt	-1431
▁kleines	-1432
▁vorüber	-1433
▁vergangen	-1434
."	-1435
?"	-1436
AU	-1437
od	-1438
EIT	-1439
agd	-1440
agt	-1441
beg	-1442
fft	-1443
nte	-1444
olz	-1445
ämm	-1446
ärm	-1447
▁FR	-1448
▁Hü	-1449
▁IM	-1450
▁Ma	-1451
▁Vo	-1452
▁[1	-1453
▁kä	-1454
aube	-1455
ette	-1456
inkt	-1457
lose	-1458
nder	-1459
sein	-1460
urch	-1461
önen	-1462
▁Dor	-1463
▁Geh	-1464
▁Sai	-1465
▁bet	-1466
▁bun	-1467
▁grü	-1468
▁tut	-1469
chter	-1470
eiden	-1471
elten	-1472
ieder	-1473
llten	-1474
ohlen	-1475
reich	-1476
reift	-1477
unken	-1478
wärts	-1479
▁Alte	-1480
▁Arme	-1481
▁Glas	-1482
▁Grün	-1483
▁Jung	-1484
▁Saum	-1485
▁Wurz	-1486
▁hing	-1487
▁lieb	-1488
▁mach	-1489
▁näch	-1490
▁rief	-1491
▁verd	-1492
liches	-1493
▁Alten	-1494
▁Klang	-1495
▁Melod	-1496
▁Munde	-1497
▁Schei	-1498
▁Schoß	-1499
▁Spiel	-1500
▁Staub	-1501
▁breit	-1502
▁hören	-1503
▁jenen	-1504
▁kamen	-1505
▁neuen	-1506
▁rings	-1507
▁selig	-1508
▁wirst	-1509
▁ziehn	-1510
▁Gottes	-1511
▁Männer	-1512
▁Seiten	-1513
▁Städte	-1514
▁bleich	-1515
▁denken	-1516
▁dessen	-1517
▁keinen	-1518
▁mitten	-1519
▁möchte	-1520
▁wurden	-1521
einander	-1522
▁Blätter	-1523
▁Nachbar	-1524
▁Schritt	-1525
▁Sterben	-1526
▁goldnen	-1527
▁niemals	-1528
▁schwarz	-1529
▁steigen	-1530
▁täglich	-1531
▁Kindheit	-1532
▁rauschen	-1533
▁Schicksal	-1534
▁unendlich	-1535
▁Wiederkehr	-1536
SCH	-1537
ine	-1538
ink	-1539
nes	-1540
one	-1541
ont	-1542
rer	-1543
wer	-1544
ßer	-1545
ähe	-1546
öne	-1547
▁XX	-1548
▁fr	-1549
▁lä	-1550
adon	-1551
eilt	-1552
elle	-1553
ende	-1554
fach	-1555
irrt	-1556
mand	-1557
pfel	-1558
▁Als	-1559
▁Gra	-1560
▁Hel	-1561
▁Mai	-1562
▁Mal	-1563
▁Par	-1564
▁Per	-1565
▁Weh	-1566
▁bef	-1567
▁erz	-1568
▁glü	-1569
aunen	-1570
ernen	-1571
erzen	-1572
gegen	-1573
grund	-1574
iegen	-1575
losen	-1576
reibt	-1577
▁Eine	-1578
▁Hoff	-1579
▁Sich	-1580
▁Verg	-1581
▁Vert	-1582
▁bewe	-1583
▁drei	-1584
▁empf	-1585
▁ewig	-1586
▁frei	-1587
▁gern	-1588
▁jede	-1589
▁läch	-1590
achsen	-1591
keiten	-1592
rechen	-1593
▁Blatt	-1594
▁Erinn	-1595
▁Feuer	-1596
▁Flamm	-1597
▁Gebet	-1598
▁Stück	-1599
▁Türen	-1600
▁Vögel	-1601
▁Wider	-1602
▁abend	-1603
▁beten	-1604
▁Bilder	-1605
▁Dämmer	-1606
▁Fernen	-1607
▁Lichte	-1608
▁Saiten	-1609
▁Weinen	-1610
▁Wellen	-1611
▁Wissen	-1612
▁blauen	-1613
▁drängt	-1614
▁fernen	-1615
▁grauen	-1616
▁heraus	-1617
▁leeren	-1618
▁müssen	-1619
▁schmal	-1620
▁selten	-1621
▁sprach	-1622
▁tiefen	-1623
▁verlor	-1624
lichkeit	-1625
schlagen	-1626
▁Kloster	-1627
▁Nächten	-1628
▁dunkeln	-1629
▁dunkles	-1630
▁schauen	-1631
▁solchen	-1632
▁spricht	-1633
▁Gedanken	-1634
▁entgegen	-1635
▁irgendwo	-1636
▁zwischen	-1637
!—	-1638
AL	-1639
IL	-1640
OL	-1641
ko	-1642
ANG	-1643
TER	-1644
arm	-1645
eig	-1646
tau	-1647
von	-1648
ägt	-1649
öhn	-1650
▁ER	-1651
▁Fe	-1652
▁Le	-1653
▁Lü	-1654
▁Um	-1655
▁[9	-1656
▁lo	-1657
arte	-1658
atte	-1659
bild	-1660
eide	-1661
elte	-1662
haus	-1663
inen	-1664
iser	-1665
reif	-1666
▁AUS	-1667
▁Chr	-1668
▁Den	-1669
▁Dir	-1670
▁Far	-1671
▁Gna	-1672
▁Kam	-1673
▁Kla	-1674
▁Laß	-1675
▁Not	-1676
▁Ohr	-1677
▁Pil	-1678
▁Wen	-1679
▁ert	-1680
▁ged	-1681
▁gib	-1682
▁laß	-1683
annte	-1684
einer	-1685
endes	-1686
eucht	-1687
tlitz	-1688
ütter	-1689
▁Bach	-1690
▁Blau	-1691
▁Dort	-1692
▁Duft	-1693
▁Ende	-1694
▁Luft	-1695
▁Saal	-1696
▁Weib	-1697
▁Weit	-1698
▁fiel	-1699
▁führ	-1700
▁gest	-1701
▁halb	-1702
▁hart	-1703
▁heut	-1704
▁hört	-1705
▁kühl	-1706
▁mußt	-1707
▁nahm	-1708
▁verm	-1709
▁wann	-1710
igkeit	-1711
kennen	-1712
licher	-1713
schein	-1714
ändern	-1715
▁Ferne	-1716
▁Haupt	-1717
▁Jungf	-1718
▁Vogel	-1719
▁Weile	-1720
▁Wände	-1721
▁ferne	-1722
▁hohen	-1723
▁rufen	-1724
▁ruhig	-1725
▁sagte	-1726
▁schne	-1727
▁trägt	-1728
▁warum	-1729
▁Gelieb	-1730
▁Gleich	-1731
▁Könige	-1732
▁Lebens	-1733
▁Lippen	-1734
▁Perlen	-1735
▁beiden	-1736
▁blasse	-1737
▁furcht	-1738
▁großer	-1739
▁hängen	-1740
▁lieben	-1741
▁meines	-1742
▁rausch	-1743
▁selber	-1744
▁singen	-1745
▁weiten	-1746
▁welken	-1747
▁Bildern	-1748
▁Gefühle	-1749
▁Gericht	-1750
▁Gestalt	-1751
▁Kirchen	-1752
▁Stirnen	-1753
▁breiten	-1754
▁glauben	-1755
▁niemand	-1756
▁traurig	-1757
▁überall	-1758
▁schwarze	-1759
▁verloren	-1760
▁wirklich	-1761
▁Gestalten	-1762
▁Geschlecht	-1763
1]	-1764
8]	-1765
kr	-1766
sk	-1767
so	-1768
del	-1769
mpf	-1770
nee	-1771
orm	-1772
res	-1773
tes	-1774
ähn	-1775
▁AB	-1776
▁AN	-1777
▁IN	-1778
▁Ju	-1779
▁[2	-1780
▁[3	-1781
▁[6	-1782
▁[7	-1783
▁at	-1784
▁fü	-1785
▁zö	-1786
ankt	-1787
ehrt	-1788
elnd	-1789
gesp	-1790
irbt	-1791
isse	-1792
reck	-1793
usch	-1794
voll	-1795
wind	-1796
zehn	-1797
änge	-1798
ückt	-1799
▁Bei	-1800
▁Dem	-1801
▁Kat	-1802
▁Mön	-1803
▁Pal	-1804
▁Rau	-1805
▁Ruh	-1806
▁dre	-1807
▁hob	-1808
▁müd	-1809
▁ras	-1810
▁weh	-1811
endet	-1812
hrend	-1813
ieren	-1814
reite	-1815
unter	-1816
öhnen	-1817
▁Eben	-1818
▁Fluß	-1819
▁Frie	-1820
▁Grau	-1821
▁LIED	-1822
▁blau	-1823
▁darf	-1824
▁einz	-1825
▁entz	-1826
▁hebt	-1827
▁läßt	-1828
▁uner	-1829
▁vern	-1830
gessen	-1831
iegeln	-1832
vollen	-1833
▁Armut	-1834
▁Geist	-1835
▁Schla	-1836
▁Schul	-1837
▁Schön	-1838
▁Stube	-1839
▁Tiefe	-1840
▁Toten	-1841
▁Türme	-1842
▁Weise	-1843
▁Wille	-1844
▁brach	-1845
▁erste	-1846
▁fromm	-1847
▁junge	-1848
▁lacht	-1849
▁leich	-1850
▁müßte	-1851
▁stieg	-1852
▁wacht	-1853
▁zerst	-1854
▁Bruder	-1855
▁Fremde	-1856
▁Gewand	-1857
▁Hinter	-1858
▁Kaiser	-1859
▁Kreise	-1860
▁damals	-1861
▁können	-1862
▁längst	-1863
▁reicht	-1864
▁reifen	-1865
▁tiefer	-1866
▁vergaß	-1867
▁weinen	-1868
▁weißer	-1869
▁Antlitz	-1870
▁Himmeln	-1871
▁Steinen	-1872
▁dennoch	-1873
▁lichten	-1874
▁scheint	-1875
▁schreit	-1876
▁während	-1877
▁Frühling	-1878
▁Strahlen	-1879
▁erkennen	-1880
▁schweren	-1881
▁Frühlings	-1882
▁Schwingen	-1883
▁verlassen	-1884
▁Vielleicht	-1885
2]	-1886
3]	-1887
6]	-1888
7]	-1889
9]	-1890
TE	-1891
bi	-1892
ov	-1893
pl	-1894
IND	-1895
ahn	-1896
ene	-1897
ett	-1898
fel	-1899
hof	-1900
ißt	-1901
ker	-1902
net	-1903
pft	-1904
sse	-1905
unk	-1906
ven	-1907
ärt	-1908
öst	-1909
▁Bo	-1910
▁GE	-1911
▁Lo	-1912
▁Ob	-1913
▁Po	-1914
▁Tü	-1915
▁[8	-1916
▁wü	-1917
▁	-1918
e	-1919
n	-1920
i	-1921
r	-1922
d	-1923
t	-1924
s	-1925
a	-1926
h	-1927
l	-1928
u	-1929
c	-1930
m	-1931
g	-1932
,	-1933
o	-1934
w	-1935
b	-1936
.	-1937
f	-1938
k	-1939
S	-1940
z	-1941
v	-1942
ä	-1943
ü	-1944
D	-1945
G	-1946
ß	-1947
E	-1948
W	-1949
H	-1950
A	-1951
T	-1952
B	-1953
I	-1954
M	-1955
L	-1956
K	-1957
N	-1958
p	-1959
R	-1960
F	-1961
U	-1962
:	-1963
ö	-1964
;	-1965
j	-1966
—	-1967
V	-1968
Z	-1969
?	-1970
P	-1971
O	-1972
"	-1973
J	-1974
!	-1975
C	-1976
_	-1977
[	-1978
]	-1979
–	-1980
(	-1981
)	-1982
Ä	-1983
X	-1984
-	-1985
y	-1986
1	-1987
Ü	-1988
9	-1989
'	-1990
8	-1991
3	-1992
6	-1993
2	-1994
7	-1995
